<unk>	0
<s>	0
</s>	0
,	-2.73195
。	-2.84412
的	-3.62763
▁	-3.69049
和	-4.57732
"	-4.84629
在	-4.88806
是	-5.30417
年	-5.51773
了	-5.69222
对	-5.77949
为	-5.84183
有	-5.91901
及	-5.95251
与	-5.96777
中	-6.02111
将	-6.06636
人	-6.07088
(	-6.11977
月	-6.12223
)	-6.23228
我们	-6.27055
政府	-6.29403
以	-6.31571
也	-6.34084
或	-6.34197
日	-6.36417
▁在	-6.385
不	-6.39252
时	-6.39395
就	-6.46108
上	-6.47667
问题	-6.47748
并	-6.47839
而	-6.48905
会	-6.52301
一	-6.52987
已	-6.53364
他	-6.56393
于	-6.58541
后	-6.60129
我	-6.60756
说	-6.60791
进行	-6.63721
地	-6.65106
被	-6.68018
没有	-6.68146
其	-6.68401
向	-6.68547
他们	-6.71695
到	-6.74111
国家	-6.76772
这些	-6.78596
工作	-6.79448
香港	-6.80757
有关	-6.81638
所	-6.83562
:	-6.83734
发展	-6.84961
提供	-6.84994
要	-6.87273
大	-6.87603
但	-6.88694
由	-6.90398
都	-6.9054
从	-6.90755
▁我们	-6.93644
应	-6.94271
来	-6.94835
方面	-6.94965
包括	-6.95528
联合国	-6.96391
可	-6.97959
还	-6.98939
已经	-7.00023
这	-7.00958
必须	-7.02719
委员会	-7.03264
需要	-7.04329
以及	-7.04387
。"	-7.05256
可以	-7.07287
下	-7.09452
一个	-7.10609
▁因此	-7.11439
内	-7.13146
1	-7.13619
个	-7.14216
性	-7.16453
者	-7.16704
▁"	-7.17266
3	-7.18097
名	-7.18144
新	-7.1973
活动	-7.19944
服务	-7.21336
继续	-7.21535
第	-7.2158
使	-7.21646
可能	-7.21955
至	-7.21973
▁此外	-7.22735
经济	-7.22875
通过	-7.23522
该	-7.23575
认为	-7.23576
要求	-7.25116
代表	-7.25425
表示	-7.25436
多	-7.25693
所有	-7.2579
这个	-7.26656
5	-7.26677
10	-7.26913
三	-7.2724
前	-7.27435
计划	-7.27963
中国	-7.29531
国际	-7.29964
更	-7.30409
等	-7.31281
支持	-7.32095
二	-7.34012
亦	-7.34442
建议	-7.34565
▁我	-7.35072
6	-7.35166
把	-7.35997
一些	-7.37633
能	-7.37832
增加	-7.38001
4	-7.38348
:"	-7.38384
使用	-7.38464
同	-7.39033
2	-7.41498
方案	-7.42076
执行	-7.42329
美国	-7.43178
用	-7.4328
会议	-7.4493
公司	-7.45179
社会	-7.46693
它	-7.46863
国	-7.47662
这种	-7.48296
提出	-7.4916
最	-7.50219
7	-7.50421
则	-7.51156
报告	-7.521
行动	-7.52121
▁他	-7.53436
妇女	-7.54269
处理	-7.54502
▁这	-7.55729
无	-7.5623
合作	-7.56551
过	-7.56835
9	-7.56929
这一	-7.57081
关于	-7.57192
目前	-7.57283
高	-7.5738
特别	-7.57782
参与	-7.58105
地区	-7.58601
之	-7.59036
希望	-7.59095
▁这些	-7.59379
开始	-7.59911
各	-7.60518
给	-7.6064
里	-7.60822
决定	-7.61175
机构	-7.61482
组织	-7.61584
12	-7.62242
主席	-7.62358
人民	-7.62382
;	-7.6239
人员	-7.63009
四	-7.6303
项目	-7.63678
任何	-7.63825
外	-7.6396
解决	-7.63961
教毓	-7.64104
其他	-7.64518
指出	-7.64958
政策	-7.65347
作为	-7.65894
8	-7.66081
约	-7.66221
比	-7.66339
▁但是	-7.66423
主要	-7.66514
作出	-7.66777
情况	-7.67119
条	-7.67355
法	-7.6737
又	-7.67576
影响	-7.67875
不能	-7.68299
出	-7.6834
市场	-7.68487
中心	-7.68725
受到	-7.69228
▁然而	-7.69825
成为	-7.69933
能够	-7.70163
因为	-7.7054
小	-7.71004
得到	-7.71139
家	-7.71533
参加	-7.71543
世界	-7.71717
法律	-7.71771
的问题	-7.72193
自	-7.72307
正在	-7.72352
万	-7.72498
水	-7.72622
分	-7.72756
措施	-7.72773
儿童	-7.72808
研究	-7.73036
11	-7.73337
▁但	-7.7339
努力	-7.73608
▁由于	-7.73859
五	-7.74209
安全	-7.74741
管理	-7.74943
现在	-7.75392
本	-7.75569
期间	-7.75735
着	-7.76002
应该	-7.76397
正	-7.76663
讨论	-7.77532
就是	-7.77941
根据	-7.78123
得	-7.78146
因	-7.78408
如	-7.7864
政治	-7.78683
建立	-7.78734
环境	-7.78762
加强	-7.79176
去	-7.80837
受	-7.81448
获得	-7.82163
时间	-7.82225
先生	-7.82639
起	-7.8293
制度	-7.83137
许多	-7.83416
天	-7.83429
点	-7.83504
长	-7.83529
之后	-7.8364
规定	-7.83703
区	-7.83918
进一步	-7.84207
举行	-7.85151
再	-7.86062
接受	-7.86065
改善	-7.86711
让	-7.86971
你	-7.8716
▁如果	-7.87607
非	-7.87685
作	-7.87769
▁他们	-7.87902
减少	-7.88315
自己	-7.88381
发生	-7.88875
由于	-7.88962
调查	-7.89398
造成	-7.8989
的人	-7.90188
资源	-7.90254
曾	-7.90587
即	-7.92061
2000	-7.92099
20	-7.92157
却	-7.92423
美元	-7.92662
只	-7.9315
技术	-7.93511
)。	-7.93533
促进	-7.93612
她	-7.93892
负责	-7.94005
仍然	-7.94051
的工作	-7.94314
两	-7.94814
和平	-7.94933
▁不过	-7.95386
考虑	-7.96006
好	-7.96245
子	-7.96414
实施	-7.9679
成员	-7.96832
系统	-7.97031
八	-7.97067
保护	-7.97077
实现	-7.97094
完成	-7.97736
处	-7.98227
大会	-7.98288
很	-7.98456
代表团	-7.98757
道	-7.98946
未	-7.99283
其中	-7.99427
-	-7.99489
协助	-8.00002
议员	-8.00471
投资	-8.01224
利用	-8.01376
头	-8.01564
市民	-8.0184
因此	-8.02091
部门	-8.02175
强调	-8.02623
而且	-8.03327
须	-8.04312
部	-8.04402
无法	-8.04414
出现	-8.04604
达	-8.04614
安排	-8.04875
当局	-8.05067
特别是	-8.05162
全球	-8.055
心	-8.05795
▁该	-8.05833
秘书长	-8.06142
均	-8.06191
确保	-8.06695
严重	-8.06888
非常	-8.07277
发现	-8.07481
公约	-8.07697
人权	-8.07754
是否	-8.0812
较	-8.08178
学校	-8.0823
权	-8.08454
台湾	-8.08506
成	-8.08514
部分	-8.0854
新的	-8.08564
之间	-8.09046
不同	-8.09057
区域	-8.0933
便	-8.09387
六	-8.09407
目标	-8.10208
伊拉克	-8.1041
资料	-8.10786
15	-8.10845
▁根据	-8.10935
请	-8.11026
人士	-8.11213
拉	-8.11303
手	-8.11336
程序	-8.11337
间	-8.12157
采取	-8.12455
警察	-8.12488
/	-8.12909
今日	-8.12967
仍	-8.13036
德	-8.13174
涉及	-8.13371
事件	-8.13436
领域	-8.136
如果	-8.13701
之一	-8.14362
做	-8.14371
非洲	-8.1445
今天	-8.14644
民主	-8.14758
▁委员会	-8.14817
共	-8.14913
家庭	-8.15033
想	-8.15217
安全理事会	-8.15318
上述	-8.15406
看	-8.15458
经	-8.15512
一直	-8.15518
化	-8.1556
选举	-8.15662
生	-8.15719
总	-8.15769
才	-8.15841
不是	-8.16055
日本	-8.16156
具有	-8.16552
进入	-8.16878
贸易	-8.17189
30	-8.17311
以色列	-8.17371
人口	-8.17715
文	-8.17925
提高	-8.1793
都是	-8.18071
冲突	-8.18253
自由	-8.18304
发言	-8.18402
▁政府	-8.18428
十	-8.18533
▁目前	-8.1958
安理会	-8.20245
关系	-8.20322
生活	-8.20403
它们	-8.20834
对于	-8.20964
能力	-8.21087
2001	-8.21283
七	-8.2152
企业	-8.2155
令	-8.21596
也是	-8.22098
占	-8.22418
当	-8.22647
欢迎	-8.22662
个人	-8.22968
审查	-8.22991
科	-8.23023
九	-8.23194
发	-8.23307
同意	-8.23403
开	-8.23535
很多	-8.23578
次	-8.23643
尔	-8.23689
银行	-8.23814
宣布	-8.23862
法院	-8.24274
费用	-8.24298
加	-8.24308
行	-8.24499
改革	-8.24537
元	-8.24661
帮助	-8.24712
号	-8.24921
十分	-8.24962
积极	-8.25101
控制	-8.25528
确定	-8.25826
不会	-8.25854
马	-8.25857
量	-8.25936
全面	-8.26113
取得	-8.26209
打	-8.265
岁	-8.26664
以来	-8.27075
这是	-8.27101
全	-8.27248
特	-8.27251
只有	-8.27258
部队	-8.27335
车	-8.27351
来自	-8.27403
率	-8.27411
最近	-8.27556
国际社会	-8.27606
完全	-8.27876
一项	-8.2837
审议	-8.28415
选择	-8.28496
斯	-8.28635
结果	-8.28699
入	-8.29044
的国家	-8.29233
海	-8.29363
重	-8.29454
工程	-8.29536
长期	-8.29826
增长	-8.29892
呢	-8.30063
文化	-8.30129
▁(	-8.30182
方式	-8.30396
大学	-8.30855
共同	-8.31081
应当	-8.31378
山	-8.31491
・	-8.31494
数	-8.3151
恢复	-8.31571
金	-8.31822
申请	-8.32052
不断	-8.32053
权利	-8.3208
一名	-8.3211
过去	-8.32314
将会	-8.32504
学生	-8.32518
超过	-8.32546
成功	-8.33202
的情况	-8.3339
之前	-8.33528
费	-8.33532
期	-8.3358
学	-8.33648
一般	-8.33711
人们	-8.33741
明	-8.34012
局	-8.34189
条件	-8.34453
利	-8.34704
▁它	-8.34927
经常	-8.35157
生产	-8.35225
力	-8.35396
提交	-8.35456
导致	-8.3549
表明	-8.35824
各种	-8.36109
美	-8.36123
难民	-8.3616
原则	-8.36252
援助	-8.36337
那些	-8.3648
比较	-8.36544
按	-8.36654
工业	-8.36862
▁同时	-8.36897
反对	-8.36924
行为	-8.3708
成立	-8.37138
方	-8.37195
发展中国家	-8.37554
设立	-8.37662
承认	-8.37885
老	-8.38197
情湟	-8.38264
此	-8.38514
标准	-8.38809
事	-8.38899
一样	-8.39027
位	-8.39054
将于	-8.3907
段	-8.39547
谈判	-8.396
限制	-8.39609
并不	-8.3968
台	-8.39798
1999	-8.39915
面	-8.39916
小组	-8.40005
亿美元	-8.40033
机	-8.40127
各国	-8.40184
说明	-8.40337
2002	-8.40442
出口	-8.40456
米	-8.4053
维持	-8.40629
甚至	-8.40698
如何	-8.40703
收入	-8.40716
▁而	-8.40774
呼吁	-8.41091
持续	-8.41189
近	-8.41325
省	-8.41353
访问	-8.41634
每	-8.41875
文件	-8.4245
总统	-8.4257
▁关于	-8.42582
协定	-8.42702
并且	-8.42708
地方	-8.42755
那	-8.42816
来说	-8.42862
重新	-8.43127
项	-8.43245
18	-8.43372
直接	-8.43377
保证	-8.43644
缔约国	-8.43664
同时	-8.43907
居民	-8.44081
阶段	-8.44324
19	-8.44347
困难	-8.44521
最后	-8.44613
业	-8.44631
低	-8.44844
以便	-8.44938
1998	-8.44958
城市	-8.44978
路	-8.45022
法庭	-8.45376
万美元	-8.45394
充分	-8.45616
协调	-8.45696
意见	-8.45963
秘书处	-8.46102
保持	-8.4637
现时	-8.46657
结束	-8.46792
了解	-8.46801
国内	-8.46832
只是	-8.47313
▁至于	-8.47555
双方	-8.47699
西	-8.47772
每年	-8.47814
还是	-8.47925
条例	-8.48044
责任	-8.48067
机会	-8.48421
达到	-8.48673
拥有	-8.49105
评估	-8.49121
称	-8.49151
大约	-8.4921
但是	-8.49508
设施	-8.49605
鼓励	-8.49759
关注	-8.50072
事务	-8.50097
▁这是	-8.50173
回	-8.50175
两个	-8.50485
这项	-8.50534
款	-8.5067
承诺	-8.5104
公	-8.51054
准备	-8.51152
基金	-8.51183
有效	-8.51217
实际	-8.51255
14	-8.5128
女	-8.51404
1997	-8.51589
警方	-8.51811
获	-8.51946
武器	-8.51989
当地	-8.52108
专家	-8.52148
法官	-8.52188
看到	-8.5235
局势	-8.52355
公布	-8.52386
方法	-8.52414
正式	-8.52482
.	-8.52516
书	-8.52692
的是	-8.52841
再次	-8.52908
见	-8.52917
人类	-8.52962
推动	-8.53003
独立	-8.53011
克	-8.53186
知道	-8.53363
稳定	-8.53398
战争	-8.53414
给予	-8.53458
大家	-8.53634
工作人员	-8.53707
支助	-8.53728
培训	-8.53788
今年	-8.53885
分析	-8.53933
风	-8.542
扩大	-8.54273
机制	-8.54583
工作组	-8.54761
▁他说	-8.54845
非政府组织	-8.55003
▁最后	-8.55092
▁联合国	-8.55309
转	-8.55321
更加	-8.55699
办法	-8.55759
会员国	-8.55854
巴	-8.55871
保障	-8.55873
及其	-8.55917
公开	-8.56544
整个	-8.56558
估计	-8.56567
社区	-8.56577
普遍	-8.56844
线	-8.56968
林	-8.5743
显示	-8.57539
资金	-8.57578
有些	-8.57663
重要	-8.5768
市	-8.57703
13	-8.57727
队	-8.57819
我国	-8.57899
业务	-8.57909
一种	-8.5803
缺乏	-8.5803
反	-8.58046
信息	-8.58155
预算	-8.58245
的发展	-8.58305
加入	-8.58331
作用	-8.58376
改变	-8.58695
单位	-8.5875
?	-8.58929
如此	-8.59047
卡	-8.59115
本身	-8.59314
运动	-8.59561
▁另外	-8.59568
战略	-8.59607
员	-8.59825
▁现在	-8.59983
军事	-8.60077
▁香港	-8.60349
批准	-8.60493
商	-8.60556
数据	-8.60661
▁虽然	-8.60703
某些	-8.6071
土地	-8.60723
似乎	-8.6079
的主要	-8.60966
案件	-8.61055
表	-8.6106
50	-8.61141
因素	-8.6148
本港	-8.61535
张	-8.61619
修订	-8.61687
一年	-8.61742
光	-8.6188
还有	-8.6193
一次	-8.61962
和其他	-8.62006
支付	-8.62015
协议	-8.62151
办事处	-8.62197
军	-8.62263
走	-8.62283
展开	-8.62652
上升	-8.62725
欧洲	-8.62742
这样	-8.62784
团体	-8.62866
花	-8.62868
带来	-8.62908
任务	-8.63266
破坏	-8.63373
的影响	-8.63375
人数	-8.63575
注意	-8.6362
健康	-8.63628
就业	-8.63873
内容	-8.6389
场	-8.63891
组	-8.63899
▁例如	-8.64098
安	-8.64368
先	-8.64664
实行	-8.64698
以上	-8.64766
▁从	-8.64786
立法	-8.64966
产生	-8.65146
进行了	-8.65195
17	-8.65394
提到	-8.65446
▁主席	-8.6562
南	-8.65623
华	-8.65678
解释	-8.6585
首	-8.65925
是一个	-8.65954
度	-8.66179
16	-8.663
虽然	-8.66413
大量	-8.66434
例如	-8.66455
打击	-8.66898
我们的	-8.66967
条约	-8.6701
存在	-8.67023
用于	-8.67205
中的	-8.674
行政	-8.67497
非法	-8.67539
训练	-8.67733
水平	-8.67808
前往	-8.67854
禁止	-8.67895
基本	-8.67976
所以	-8.67981
相	-8.68371
未来	-8.6842
设备	-8.68708
亿	-8.68911
产品	-8.69
之间的	-8.69051
自己的	-8.69229
制定	-8.69523
制	-8.69606
宗	-8.69986
现	-8.70056
▁为了	-8.70419
下降	-8.70564
工人	-8.70788
问	-8.70808
以后	-8.70926
精神	-8.70978
罗	-8.70988
全国	-8.71141
按照	-8.71462
具体	-8.71587
们	-8.71602
他的	-8.71808
出席	-8.71967
通知	-8.71993
节	-8.72143
▁她	-8.72205
同样	-8.72389
死亡	-8.72517
亿元	-8.7252
商业	-8.72799
价值	-8.72816
大部分	-8.72827
宪法	-8.72963
信	-8.7302
律师	-8.73033
当时	-8.7306
21	-8.73114
清	-8.73118
担任	-8.73191
公民	-8.73277
尤其是	-8.73428
尊重	-8.73871
全部	-8.74006
口	-8.74074
公务员	-8.7409
份	-8.74117
▁所以	-8.74267
历史	-8.7439
相信	-8.74409
符合	-8.74508
属于	-8.74665
气	-8.74758
最终	-8.74831
收	-8.74842
有关的	-8.74895
界	-8.74986
推行	-8.75069
危机	-8.75108
东	-8.75143
平	-8.75367
经验	-8.75392
门	-8.75482
范围	-8.75576
并没有	-8.75668
调整	-8.75982
需求	-8.76114
恐怖主义	-8.76292
1996	-8.76482
自然	-8.76845
针对	-8.76847
派	-8.76921
迅速	-8.76927
官员	-8.76952
亚洲	-8.77052
的建议	-8.77097
运输	-8.77171
重申	-8.77175
阿富汗	-8.77215
立即	-8.77234
连	-8.77324
课程	-8.77374
种	-8.77401
▁这种	-8.77425
制订	-8.77428
25	-8.77499
而言	-8.77541
医院	-8.77556
▁尽管	-8.77605
的一个	-8.77621
平均	-8.77684
电	-8.77995
民	-8.78036
的时候	-8.78052
站	-8.78121
进程	-8.78123
英国	-8.78235
价格	-8.78388
才能	-8.78469
暴力	-8.7847
体	-8.78731
开展	-8.78739
司法	-8.78739
挑战	-8.78841
加以	-8.78861
病	-8.79018
▁当然	-8.7904
广泛	-8.79204
登记	-8.79399
内地	-8.79405
证明	-8.79418
钱	-8.79463
公共	-8.7952
周	-8.79669
战	-8.79681
威胁	-8.79691
印度	-8.80066
定	-8.80199
将在	-8.8026
开放	-8.80296
议会	-8.80298
为了	-8.8034
▁事实上	-8.80422
预期	-8.80473
相当	-8.80483
爱	-8.80797
阿	-8.81053
宗教	-8.81198
设计	-8.81528
东帝汶	-8.81602
▁*	-8.81745
团	-8.81747
▁警方	-8.81835
的话	-8.81906
流	-8.82047
个月	-8.82102
规则	-8.82201
返回	-8.82244
极	-8.82286
领导人	-8.82348
的意见	-8.8247
资助	-8.82471
本地	-8.82513
的权利	-8.82721
半	-8.82818
声	-8.8291
交	-8.82929
集团	-8.83019
公众	-8.83066
他们的	-8.83085
网络	-8.83176
从事	-8.83329
24	-8.83539
一起	-8.8372
这样做	-8.83768
临时	-8.84014
方面的	-8.84197
若干	-8.84206
原	-8.8431
预计	-8.8433
分别	-8.84333
港	-8.84353
供	-8.84355
投票	-8.8452
通	-8.84534
不应	-8.84545
共和国	-8.8457
零	-8.84612
大多数	-8.84628
供应	-8.84828
愿意	-8.84851
当然	-8.84946
带	-8.85251
犯罪	-8.85312
1995	-8.85594
联合	-8.85596
需	-8.85626
贷款	-8.85647
交通	-8.85728
特派团	-8.85797
▁对于	-8.85832
损失	-8.85847
监测	-8.85898
管制	-8.85931
司	-8.85945
的报告	-8.85968
地位	-8.86143
街	-8.86183
未能	-8.86223
感谢	-8.8634
像	-8.86534
强	-8.86687
亚	-8.86943
原因	-8.86946
有人	-8.87024
教	-8.87036
引起	-8.87072
预防	-8.87113
农业	-8.8716
交易	-8.87433
▁在这方面	-8.87575
明显	-8.8764
感到	-8.87775
数字	-8.87928
尚未	-8.88125
讲	-8.88169
医疗	-8.88253
案	-8.8837
提	-8.8843
新闻	-8.88758
啊	-8.8883
):	-8.89125
提供了	-8.8926
重大	-8.89418
透过	-8.8942
白	-8.89463
1994	-8.89465
核	-8.89609
任	-8.89726
难	-8.89759
合同	-8.89768
面对	-8.89776
共有	-8.89801
车辆	-8.89893
青年	-8.90208
行业	-8.90279
主	-8.90307
签署	-8.90489
论坛	-8.9049
报	-8.90498
听	-8.90695
罪行	-8.90763
状况	-8.90945
竞争	-8.9108
联系	-8.91088
进	-8.91139
▁今天	-8.91201
▁其中	-8.91246
油	-8.91278
该国	-8.91431
○○	-8.91448
经过	-8.91474
火	-8.91482
▁中国	-8.91595
情	-8.91627
少	-8.91716
内部	-8.91865
防止	-8.91943
检讨	-8.91986
伊	-8.92015
国际法	-8.92016
明确	-8.92041
落	-8.92256
并非	-8.92302
40	-8.92385
意	-8.92429
协会	-8.92644
的活动	-8.92675
提出的	-8.92895
注意到	-8.93024
遵守	-8.93145
享有	-8.93175
深	-8.93309
贫困	-8.93335
取	-8.9366
举行的	-8.93732
动	-8.93806
身	-8.93874
令人	-8.93878
放	-8.9389
科技	-8.9396
这类	-8.94126
监督	-8.94211
电子	-8.94255
计算	-8.94374
不足	-8.94392
领导	-8.94413
进口	-8.94476
人道主义	-8.94496
金融	-8.94519
和平进程	-8.94576
的作用	-8.94588
草案	-8.94701
▁美国	-8.94799
协商	-8.94874
陈	-8.94883
党	-8.94996
理事会	-8.95012
这次	-8.95102
香港的	-8.95104
办公室	-8.95206
死	-8.95287
贫穷	-8.95314
单	-8.95333
楼	-8.95393
专业	-8.95426
大陆	-8.9549
程度	-8.9549
物	-8.95501
什么	-8.95512
图	-8.95546
保留	-8.95605
孩子	-8.95614
介绍	-8.9563
一切	-8.9564
▁对	-8.95679
往往	-8.95704
跟	-8.95718
部署	-8.95721
--	-8.95731
离开	-8.95736
建设	-8.95763
加拿大	-8.95843
联	-8.95858
几	-8.95892
进展	-8.95922
宣传	-8.95954
传统	-8.95972
检查	-8.96046
事实	-8.96095
采用	-8.96113
首次	-8.9612
布	-8.96165
一点	-8.96403
开支	-8.96499
记录	-8.96532
实	-8.96632
第一	-8.96663
拒绝	-8.96766
遭到	-8.96786
尼	-8.96828
巴勒斯坦	-8.96916
违反	-8.97238
画	-8.97365
空间	-8.97372
万元	-8.97402
消除	-8.97438
选	-8.97467
以前	-8.97536
王	-8.97653
日益	-8.9781
是在	-8.97856
过程	-8.97924
详细	-8.9801
医生	-8.98016
感	-8.98029
评价	-8.98171
额	-8.98197
语	-8.9825
难以	-8.98345
平民	-8.98445
太	-8.9874
疾病	-8.98835
咨询	-8.98911
运作	-8.98926
开发	-8.9909
网	-8.99132
外国	-8.99164
下跌	-8.99174
尽管	-8.992
28	-8.99253
工	-8.99388
有助于	-8.9946
变化	-8.99603
受害者	-8.99604
更多	-8.99642
也有	-8.99655
言	-8.99712
对话	-8.99972
发出	-9.0014
空	-9.00168
关	-9.00676
争取	-9.00754
法国	-9.00767
北	-9.00823
的经济	-9.00825
艾滋病	-9.00908
治疗	-9.01148
的重要	-9.01208
年代	-9.01302
数目	-9.01322
反映	-9.01384
收到	-9.01516
结构	-9.01517
飞机	-9.01541
通常	-9.0174
成员国	-9.01815
不少	-9.01844
基本法	-9.01887
其实	-9.01893
每个	-9.01987
▁自	-9.02058
民族	-9.0217
的资料	-9.02208
科索沃	-9.02215
邀请	-9.02312
男子	-9.02331
合	-9.02355
停止	-9.0243
红	-9.02432
在香港	-9.02477
提议	-9.02577
显然	-9.02601
古	-9.02618
改进	-9.02632
指	-9.02661
构成	-9.02728
肯定	-9.02739
领土	-9.02768
危险	-9.02811
适当	-9.02879
地点	-9.02945
第二	-9.03016
31	-9.03084
怀疑	-9.03099
辟免	-9.03167
往	-9.03211
男	-9.0329
不得	-9.03327
伊朗	-9.03429
条例草案	-9.03568
票	-9.03576
▁据	-9.03585
私人	-9.03638
的努力	-9.0375
法例	-9.0377
属	-9.03778
船	-9.03823
班	-9.04079
卫生	-9.04189
个国家	-9.04394
只能	-9.04454
城	-9.0478
统计	-9.04852
建筑	-9.04941
纳	-9.04958
常	-9.04961
满足	-9.05031
中央	-9.05153
的结果	-9.05191
旅游	-9.0521
李	-9.0527
几乎	-9.05335
▁我们认为	-9.054
石	-9.05603
亦会	-9.0566
年的	-9.05687
品	-9.05735
现象	-9.05811
的新	-9.05851
学习	-9.05946
除	-9.05979
理解	-9.06
住房	-9.0616
制裁	-9.0624
22	-9.06248
顾问	-9.0625
没	-9.06453
媒体	-9.0654
电脑	-9.06547
23	-9.06691
类	-9.06706
女性	-9.07034
器	-9.07183
100	-9.07283
现有	-9.07371
表现	-9.07415
视	-9.07472
北京	-9.07478
尽快	-9.07487
重建	-9.07516
觉得	-9.07617
卢旺达	-9.07697
起来	-9.07862
那么	-9.07919
已有	-9.07976
不要	-9.08008
电话	-9.08076
利益	-9.08105
级	-9.08152
保健	-9.08267
发表	-9.08402
位于	-9.08445
副	-9.08489
仅	-9.08548
具	-9.08616
万人	-9.08619
当中	-9.08756
全球化	-9.08816
去年	-9.08893
青少年	-9.09006
总部	-9.09019
格	-9.0905
代	-9.09259
寻求	-9.09265
教师	-9.09283
河	-9.09458
远	-9.09536
体制	-9.09737
确认	-9.09834
辩论	-9.09872
成本	-9.09889
的能力	-9.09908
形式	-9.09994
上的	-9.10071
生效	-9.10148
60	-9.10192
至少	-9.10234
落实	-9.10342
创造	-9.10364
资产	-9.10431
的方式	-9.1045
的时间	-9.10505
税	-9.10533
调	-9.10535
确实	-9.10637
的目标	-9.10813
定期	-9.10906
式	-9.10935
住	-9.10949
首先	-9.10955
平等	-9.11014
管	-9.11044
举办	-9.11081
越	-9.11103
制造	-9.11242
目的	-9.11264
组成	-9.11424
时期	-9.11436
写	-9.11486
俄罗斯	-9.11506
理	-9.11527
建	-9.1163
规划	-9.11677
道路	-9.11761
何	-9.11766
海关	-9.11772
运	-9.11906
紧急	-9.11975
第一次	-9.12043
记者	-9.12045
▁当	-9.1208
相互	-9.12189
真正	-9.123
权力	-9.12322
增加了	-9.12421
移民	-9.12483
产	-9.12517
的重要性	-9.12573
审判	-9.12595
哈	-9.12628
特别报告员	-9.1266
理由	-9.12736
三个	-9.12874
指标	-9.13
攻击	-9.13007
人的	-9.1325
谈	-9.13334
分配	-9.13364
机场	-9.13497
快	-9.13622
取消	-9.13623
▁今年	-9.13624
的所有	-9.13678
重视	-9.13684
罪	-9.13802
今后	-9.13862
财政	-9.13889
吃	-9.14012
承担	-9.14027
改	-9.14075
予以	-9.14114
岛	-9.14284
维护	-9.1436
基	-9.14457
驻	-9.14526
除了	-9.14575
履行	-9.14668
电视	-9.14894
26	-9.15007
经营	-9.15029
基础	-9.15032
话	-9.15055
不仅	-9.15169
装	-9.15185
萨	-9.15187
总理	-9.152
十二	-9.15255
列入	-9.15287
有权	-9.15293
遭受	-9.15304
州	-9.1531
提及	-9.15471
经费	-9.15473
报道	-9.15475
接触	-9.15587
联盟	-9.15621
将继续	-9.15942
股	-9.16107
地雷	-9.1635
一致	-9.16379
满	-9.16476
▁这一	-9.16487
1990	-9.1655
任命	-9.16609
乐	-9.16646
部长	-9.1678
而不是	-9.16814
▁这个	-9.16851
然后	-9.17012
之外	-9.17223
立	-9.17232
这个问题	-9.17277
能源	-9.17296
干	-9.17319
字	-9.17461
变	-9.175
层	-9.17673
的做法	-9.17716
汽车	-9.1776
袭击	-9.17966
注册	-9.18004
员工	-9.18133
数量	-9.1817
都有	-9.182
▁除了	-9.18228
其它	-9.18237
奖	-9.18283
索赔	-9.18297
象	-9.18411
边	-9.18449
的原则	-9.18473
面临	-9.18505
你们	-9.1853
的机会	-9.18737
修改	-9.18869
证实	-9.18874
成果	-9.18904
职业	-9.1902
不到	-9.19073
至今	-9.19103
件	-9.19182
优先	-9.19219
▁如	-9.19264
现实	-9.19324
推广	-9.1944
▁第二	-9.19507
眼	-9.19566
委员	-9.1957
证	-9.19586
关切	-9.197
统一	-9.19742
接	-9.19788
公平	-9.19823
决议	-9.19957
逐渐	-9.20097
致力于	-9.20147
买	-9.20155
全世界	-9.20161
我想	-9.20336
局长	-9.20447
将来	-9.20464
男女	-9.20592
小时	-9.20741
村	-9.20863
受伤	-9.21026
财产	-9.2113
允许	-9.21168
塞拉利昂	-9.2119
意义	-9.21216
曾经	-9.21296
各方	-9.21365
国家的	-9.21472
发挥	-9.21485
29	-9.21589
有必要	-9.21704
若	-9.2173
现场	-9.21738
各项	-9.21772
发生的	-9.21791
拨款	-9.21814
200	-9.21859
最大的	-9.21887
处于	-9.21989
手段	-9.22125
外交	-9.22155
的责任	-9.22271
▁其实	-9.22337
▁秘书长	-9.22368
购买	-9.2238
真	-9.22396
章	-9.22505
毒品	-9.22587
到了	-9.22605
校	-9.22648
防	-9.22651
托	-9.22658
鱼	-9.22659
▁特别报告员	-9.22695
▁有关	-9.22696
最高	-9.22828
越来越	-9.22998
的情湟	-9.23035
官	-9.23185
第三	-9.23202
大使	-9.23223
兰	-9.23246
色	-9.23343
附近	-9.23462
应用	-9.23477
▁主席先生	-9.23571
相关	-9.23597
短	-9.2374
收费	-9.23802
左右	-9.23856
伤	-9.24003
送	-9.24078
予	-9.24096
两名	-9.24117
院	-9.24156
传播	-9.24166
科威特	-9.2418
很难	-9.2423
赔偿	-9.24256
查	-9.24325
减	-9.24386
坚持	-9.24487
可能会	-9.24527
▁首先	-9.24546
提出了	-9.24719
看来	-9.24768
担心	-9.24883
石油	-9.24931
巴基斯坦	-9.25064
▁我认为	-9.25208
中东	-9.25209
个案	-9.25223
劳工	-9.25251
意外	-9.25269
黄	-9.25285
27	-9.25304
法治	-9.25363
署	-9.25529
日至	-9.25551
父母	-9.25564
房	-9.2561
房屋	-9.25651
重点	-9.25805
的政策	-9.25816
的原因	-9.26007
适当的	-9.26069
或者	-9.26094
▁另一方面	-9.26148
厂	-9.26195
照顾	-9.26408
一份	-9.26429
边界	-9.26504
清楚	-9.26544
专	-9.26651
▁鉴于	-9.26696
有可能	-9.26832
职	-9.26853
专门	-9.26883
下午	-9.26893
的一些	-9.26895
艺术	-9.27083
境内	-9.27128
另外	-9.27144
▁同样	-9.27158
高级	-9.27258
留	-9.2726
恶化	-9.27347
语言	-9.27401
座	-9.27441
联邦	-9.27465
致力	-9.27479
神	-9.27527
办	-9.27537
预测	-9.27577
个别	-9.27589
英	-9.27725
尽	-9.27809
龙	-9.27854
在这方面	-9.27871
尤其	-9.27874
用户	-9.27978
朋友	-9.28051
值得	-9.28097
十一	-9.28126
科学	-9.28147
值	-9.2825
做法	-9.2831
的任务	-9.28464
交流	-9.28502
补充	-9.28524
污染	-9.28538
编制	-9.28545
联络	-9.28557
僱主	-9.28562
旨在	-9.28577
有限	-9.28588
侵犯	-9.28715
监狱	-9.28843
传	-9.29012
这样的	-9.29082
也不	-9.29161
片	-9.29231
对此	-9.29325
每天	-9.29361
三年	-9.29366
整体	-9.29406
食物	-9.29585
适用	-9.29792
行政长官	-9.29872
▁这样	-9.29946
货物	-9.30007
爆炸	-9.30076
不可能	-9.30111
方便	-9.3013
不同的	-9.30146
主席先生	-9.3022
早	-9.30278
有所	-9.30433
岐视	-9.30604
这一点	-9.30642
福	-9.30678
决心	-9.30682
价	-9.30696
土	-9.30722
居住	-9.30726
的规定	-9.30798
晚	-9.30827
军队	-9.30836
朝	-9.31013
沙	-9.3102
五十	-9.31025
别	-9.31035
採取	-9.31078
夫	-9.31138
倒	-9.31226
粮食	-9.31258
雷	-9.31463
差	-9.31481
求	-9.31515
核武器	-9.31542
来源	-9.31563
概念	-9.31646
波	-9.31681
投入	-9.317
指导	-9.31726
模式	-9.31746
解	-9.31801
多数	-9.31998
压力	-9.32025
其后	-9.32026
▁2001	-9.32049
分钟	-9.32059
行使	-9.32072
问题的	-9.32273
力量	-9.3233
会谈	-9.3234
声明	-9.3243
知识	-9.32452
的支持	-9.32501
1993	-9.32862
损害	-9.32903
一位	-9.32952
世	-9.32966
义务	-9.32971
批评	-9.33099
展	-9.331
因而	-9.33255
地区的	-9.33309
请求	-9.33322
年龄	-9.33372
并无	-9.33414
保	-9.33445
进行的	-9.33498
候选人	-9.33597
那个	-9.3365
▁本	-9.33688
节目	-9.33697
出版	-9.33778
总额	-9.33883
失	-9.33891
一定	-9.33952
月底	-9.33952
商品	-9.34041
卫星	-9.3406
的安全	-9.34064
声称	-9.34111
民众	-9.34113
框架	-9.34126
儿	-9.34176
都会	-9.34177
回答	-9.34181
▁因为	-9.34291
期望	-9.34313
条款	-9.34318
主任	-9.34352
居	-9.34381
比赛	-9.34436
千	-9.34491
世纪	-9.34506
二十	-9.34609
过程中	-9.34609
海外	-9.34621
僱员	-9.34735
号决议	-9.34818
从而	-9.34886
室	-9.34895
三十	-9.34907
谁	-9.3492
▁第	-9.34943
泰国	-9.34969
考虑到	-9.35061
职位	-9.35092
倡议	-9.35095
没有任何	-9.35146
子女	-9.35152
球	-9.35244
容易	-9.35277
香港人	-9.3529
主要是	-9.35302
准则	-9.35311
瓦	-9.35374
富	-9.35375
结	-9.35394
也会	-9.35497
苏丹	-9.35539
库	-9.35542
70	-9.35644
应付	-9.35766
逐步	-9.35815
实际上	-9.35936
▁最近	-9.36011
正常	-9.36082
刚果民主共和国	-9.36098
拟订	-9.36137
债务	-9.36234
风险	-9.36254
的地方	-9.36284
绝对	-9.36288
良好	-9.36359
世界上	-9.36373
失业	-9.36418
综合	-9.36695
热	-9.36746
推出	-9.36861
计	-9.36877
的社会	-9.36996
情报	-9.3704
也没有	-9.37042
出来	-9.37121
通讯	-9.37271
工具	-9.37286
年度	-9.37317
1992	-9.37395
监察	-9.37448
举行了	-9.37563
占领	-9.37577
墨西哥	-9.37745
观察	-9.37783
复	-9.37815
资本	-9.3782
七月	-9.37828
女子	-9.37831
底	-9.37919
算	-9.37971
木	-9.37992
养	-9.38119
客	-9.38141
铁路	-9.38147
新加坡	-9.3819
澳大利亚	-9.38449
飞	-9.38497
病人	-9.3853
▁截至	-9.38552
类似	-9.38656
4.	-9.38723
贡献	-9.38917
所谓	-9.38987
编	-9.39005
以下	-9.39007
现正	-9.39017
反应	-9.39056
系	-9.39087
根本	-9.39095
然	-9.39157
观察员	-9.39167
上海	-9.39202
的法律	-9.39248
黑	-9.39251
古巴	-9.39282
的行为	-9.39384
材料	-9.39452
▁随着	-9.39452
接近	-9.39601
性的	-9.39808
降低	-9.39823
]	-9.39924
纽约	-9.40124
谴责	-9.40158
载	-9.40209
效率	-9.40243
用途	-9.40301
决议草案	-9.40496
进步	-9.4054
欧洲联盟	-9.40594
存	-9.40604
星期五	-9.40608
普	-9.40656
回应	-9.40734
的代表	-9.40767
高度	-9.40807
赞成	-9.40857
士	-9.40859
配合	-9.4087
提醒	-9.40945
证据	-9.40963
两年	-9.40968
不可	-9.41015
趋势	-9.41045
复杂	-9.41046
设	-9.41073
很少	-9.41089
收集	-9.41314
德国	-9.41318
叫	-9.41373
不过	-9.41438
事情	-9.41511
▁所有	-9.41541
销售	-9.41576
▁现时	-9.41613
找到	-9.41613
的人士	-9.41717
户	-9.41743
多个	-9.41808
家长	-9.4182
的政治	-9.41821
事项	-9.41831
消费	-9.41875
老人	-9.41913
关心	-9.42043
案文	-9.42063
发生了	-9.42095
教授	-9.42123
支出	-9.42149
本组织	-9.42334
货币	-9.42423
伙伴	-9.42439
布隆迪	-9.42442
监管	-9.42446
年来	-9.4247
既	-9.42528
认识到	-9.42586
被捕	-9.42605
百	-9.42634
我觉得	-9.42774
错	-9.4278
套	-9.42784
她们	-9.4281
仍然是	-9.42816
列	-9.4294
宣言	-9.42991
即使	-9.43008
显着	-9.43038
达成	-9.43048
物质	-9.43058
师	-9.43304
届会议	-9.43316
几个	-9.4334
游	-9.43424
形成	-9.43435
月份	-9.43464
礼	-9.43514
莫	-9.43537
待	-9.43594
国民	-9.43604
黎巴嫩	-9.43628
犯	-9.43782
奥	-9.43861
两国	-9.43868
塔	-9.43937
集体	-9.43941
生命	-9.4398
更为	-9.43989
2003	-9.4401
立法会	-9.44103
深入	-9.44193
性别	-9.442
福利	-9.44227
姆	-9.4428
编写	-9.44292
▁1999	-9.44307
授权	-9.44308
的方法	-9.44311
日期	-9.44393
轮	-9.44405
特殊	-9.44492
刑事	-9.44519
决策	-9.44796
小学	-9.4482
纳入	-9.44905
星	-9.44971
津贴	-9.44979
的决定	-9.45032
实在	-9.45111
维	-9.45307
安哥拉	-9.45352
索马里	-9.45353
采购	-9.45389
事故	-9.45399
随着	-9.45436
司机	-9.455
五年	-9.45517
▁我们希望	-9.45521
在其	-9.4556
▁第一	-9.456
排	-9.45666
▁许多	-9.45705
胡	-9.45772
尚	-9.45834
武装	-9.45899
种族	-9.46033
药	-9.46091
主持	-9.46179
务	-9.46298
的基础	-9.46313
的合作	-9.46331
巩固	-9.4637
大型	-9.46416
厅	-9.46429
树	-9.46516
合法	-9.46521
吨	-9.46606
被告	-9.46632
▁为	-9.46641
不得不	-9.46712
领	-9.46753
尽量	-9.46931
以往	-9.46959
政	-9.46969
资格	-9.47089
日在	-9.47132
我认为	-9.47163
工资	-9.47171
营	-9.47211
食	-9.47221
巴西	-9.47272
乘客	-9.47298
三月	-9.47398
牌	-9.47415
在此	-9.47471
300	-9.47494
亲	-9.47515
草	-9.47516
财务	-9.47589
▁它们	-9.47605
感染	-9.4766
利比里亚	-9.47677
适用于	-9.47692
联合国系统	-9.47694
我们必须	-9.47715
职员	-9.47799
名单	-9.47868
升	-9.47983
云	-9.47991
赞扬	-9.48063
干预	-9.48068
加上	-9.48096
年以来	-9.48189
印度尼西亚	-9.48211
修	-9.48254
非洲国家	-9.48283
社	-9.48348
有时	-9.48413
即将	-9.48505
增	-9.48616
只要	-9.48702
500	-9.48707
旧	-9.48759
农村	-9.48876
及时	-9.48906
很大	-9.48918
知	-9.48949
词	-9.49049
中学	-9.49109
足	-9.49168
夜	-9.49193
极为	-9.49202
现代	-9.49222
的要求	-9.49314
▁而且	-9.49327
志	-9.49347
现已	-9.49378
▁第三	-9.49569
范围内	-9.49587
采取行动	-9.49622
特定	-9.49675
相比	-9.4973
议程	-9.49832
跟进	-9.49919
▁去年	-9.49941
互联网	-9.50004
士兵	-9.50052
假	-9.50179
查询	-9.50228
苏	-9.50371
板	-9.50378
态度	-9.50385
▁必须	-9.50448
工作的	-9.50521
试验	-9.50707
就会	-9.50877
遭	-9.50895
的国际	-9.50923
裁军	-9.5096
有机会	-9.51038
呃	-9.51079
密切	-9.511
屋	-9.51111
鼓劢	-9.51122
印	-9.51181
──	-9.51195
农	-9.5121
四十	-9.51315
的行动	-9.51365
是由	-9.51553
一下	-9.51577
澄清	-9.51592
展览	-9.51626
之中	-9.51668
流动	-9.51687
常常	-9.5178
而是	-9.5185
障碍	-9.51981
人才	-9.52
食品	-9.52067
族	-9.521
包	-9.52122
换	-9.52149
事业	-9.52171
拘留	-9.52283
的关系	-9.52293
明白	-9.52335
南非	-9.52393
十五	-9.5246
赛	-9.52497
十月	-9.52528
年底	-9.52563
的立场	-9.5269
届	-9.52719
的费用	-9.52727
老师	-9.52759
迪	-9.52782
盖	-9.52793
迨捕	-9.52801
检察官	-9.52813
电影	-9.52819
▁1998	-9.52839
政权	-9.52846
延长	-9.52856
的经验	-9.52887
制作	-9.53004
该区域	-9.53066
田	-9.53169
并未	-9.5317
35	-9.53175
紧张	-9.53197
愿	-9.53282
失去	-9.53363
晚上	-9.53382
星期一	-9.53419
1991	-9.53549
选民	-9.53617
其中包括	-9.53731
基于	-9.5374
6.	-9.53911
参加了	-9.54008
货	-9.54055
强烈	-9.54068
停	-9.54327
数额	-9.54346
5.	-9.5437
初	-9.54516
乡	-9.54605
3.	-9.5471
纪念	-9.54726
不再	-9.54743
县	-9.54797
发言人	-9.54832
审计	-9.54856
是为了	-9.54874
母亲	-9.54883
学院	-9.54884
便是	-9.54887
的基本	-9.54889
自愿	-9.54927
打算	-9.54967
▁有	-9.55035
客户	-9.55042
设有	-9.55121
双	-9.55123
取决于	-9.55124
新西兰	-9.55215
兵	-9.55231
测试	-9.55253
立场	-9.55264
性质	-9.55283
指控	-9.55325
投	-9.55334
负担	-9.55383
公正	-9.55455
下来	-9.55461
血	-9.5551
药物	-9.55642
菲律宾	-9.55666
採用	-9.5567
作了	-9.55731
来看	-9.55748
关键	-9.55799
五月	-9.55868
参观	-9.56002
告	-9.56019
靠	-9.56043
灯	-9.56056
楼宇	-9.56071
吧	-9.56077
义	-9.56092
各个	-9.56092
初步	-9.56236
▁人们	-9.56248
其他国家	-9.56306
的需求	-9.56308
的任何	-9.56336
拘捕	-9.56395
的利益	-9.56433
后来	-9.56489
直	-9.56495
官方	-9.56524
大大	-9.56578
吸引	-9.56707
多次	-9.56723
在于	-9.56771
死刑	-9.56832
现金	-9.56896
意大利	-9.56921
群体	-9.56921
▁安理会	-9.57055
活动的	-9.57061
重要的	-9.57083
▁我希望	-9.57102
▁一些	-9.57146
还要	-9.57252
不知道	-9.5728
旅客	-9.57347
现行	-9.57356
公里	-9.57362
埃及	-9.57558
开发计划署	-9.57731
马来西亚	-9.57766
兴建	-9.57774
六十	-9.57847
指定	-9.57909
随后	-9.57926
九月	-9.57987
并不是	-9.57995
全体	-9.58022
终于	-9.58022
还没有	-9.58048
也许	-9.58156
企图	-9.58195
邻国	-9.58218
型	-9.58353
的成员	-9.58429
▁据说	-9.58436
政府的	-9.58443
稍后	-9.58498
根	-9.58508
轻	-9.58525
双边	-9.5858
掉	-9.58619
方向	-9.58789
盛	-9.58804
策略	-9.58958
离	-9.58985
短期	-9.59015
十三	-9.59031
恩	-9.5904
是因为	-9.59042
80	-9.59072
私营部门	-9.59083
持	-9.59102
有一个	-9.59126
研讨会	-9.59137
望	-9.59286
订	-9.5938
照	-9.59389
繁荣	-9.59456
哥伦比亚	-9.59461
时代	-9.59485
核准	-9.59489
试图	-9.5949
韩国	-9.59519
奇	-9.5953
判决	-9.59542
八月	-9.59605
源	-9.59712
约为	-9.59814
90	-9.59828
吉	-9.59871
微	-9.59877
掌握	-9.5989
广播	-9.599
首都	-9.5994
迂到	-9.6
土耳其	-9.60006
一条	-9.60006
广	-9.60051
得以	-9.60073
正是	-9.60085
相同	-9.60216
主管	-9.60339
勒	-9.60341
的需要	-9.60364
保险	-9.60367
形势	-9.60475
造成的	-9.60579
读	-9.6058
简单	-9.60683
研究所	-9.60693
的情况下	-9.60698
▁过去	-9.60742
观	-9.60757
机关	-9.60762
台北	-9.60763
诺	-9.60765
暂停	-9.60776
彻底	-9.60785
工会	-9.60824
暂时	-9.60841
合理	-9.60856
▁那么	-9.60975
平衡	-9.60986
经济发展	-9.61018
该地区	-9.61047
评论	-9.61062
提交人	-9.61082
武装冲突	-9.61097
索	-9.61133
条文	-9.61162
刚才	-9.61179
塞	-9.61182
曼	-9.61204
50%	-9.61232
始终	-9.61262
活	-9.61285
付	-9.61327
击	-9.61368
2.	-9.6142
无论	-9.61512
森林	-9.61676
答复	-9.61781
明年	-9.61787
一向	-9.6179
必要	-9.61803
二百	-9.61869
家人	-9.62006
▁我们还	-9.62022
一家	-9.62092
观众	-9.6211
劳动	-9.62172
欧盟	-9.62269
荷兰	-9.62273
会议上	-9.62405
▁2000	-9.62429
服	-9.62507
▁其他	-9.6258
将是	-9.62626
○	-9.62633
顺利	-9.62649
同事	-9.62709
关闭	-9.62772
步骤	-9.62791
告诉	-9.62872
享受	-9.62892
警	-9.62955
租	-9.62959
巨大	-9.63014
指数	-9.63039
更多的	-9.63219
卖	-9.63221
期待	-9.63226
▁我相信	-9.63246
余	-9.63277
被迫	-9.63308
不但	-9.63385
博	-9.63435
仪式	-9.63444
消费者	-9.63445
飞行	-9.63479
的一部分	-9.63481
规模	-9.63511
▁作为	-9.63521
最大	-9.63534
▁会议	-9.63539
▁当时	-9.63556
民主党	-9.63648
投诉	-9.6365
一旦	-9.63665
核心	-9.63677
▁大会	-9.63714
0	-9.63733
店	-9.63736
员额	-9.63764
网站	-9.63766
倍	-9.63791
区内	-9.63807
上诉	-9.63814
另	-9.63877
减轻	-9.6394
一系列	-9.63965
相对	-9.64024
普通	-9.64042
质量	-9.6406
拿	-9.64093
许多国家	-9.64142
6%	-9.64149
老年人	-9.64172
依然	-9.6422
星期四	-9.6426
枪	-9.6428
其余	-9.64308
纸	-9.64314
的人数	-9.64342
季	-9.6435
指示	-9.64356
审	-9.64369
步	-9.64405
集中	-9.64674
最好	-9.64676
据	-9.6468
报告中	-9.64702
备	-9.64721
政党	-9.64775
▁1997	-9.6479
叶	-9.64797
许	-9.6481
主张	-9.6484
退	-9.64896
出生	-9.64943
领袖	-9.64964
连续	-9.64971
圣	-9.65067
以外	-9.65108
独	-9.6511
本人	-9.65241
的生活	-9.65271
讲话	-9.6529
可持续发展	-9.65316
发达国家	-9.65352
样	-9.65405
物品	-9.65407
坐	-9.65415
大规模	-9.65417
刚	-9.65476
职务	-9.65483
一九九九年	-9.65599
议定书	-9.6572
依赖	-9.65721
表演	-9.65733
阿拉伯	-9.65735
一贯	-9.65751
越南	-9.65779
基础设施	-9.65855
目	-9.65981
资讯科技	-9.66006
别人	-9.6603
的看法	-9.66059
五百	-9.66152
主办	-9.662
表达	-9.66224
将由	-9.66229
七十	-9.66239
年轻	-9.66328
百分之	-9.66335
使得	-9.66348
版	-9.66402
意味着	-9.66416
比例	-9.66456
本国	-9.66589
国籍	-9.66618
否认	-9.66642
雇员	-9.66643
发行	-9.66876
星期三	-9.66908
约有	-9.66992
致辞	-9.67077
找	-9.6711
▁欧洲联盟	-9.67111
45	-9.67268
有利	-9.67279
铁	-9.674
我们认为	-9.67473
委任	-9.67487
汉	-9.67556
菜	-9.67574
不稳定	-9.6761
出售	-9.67613
加快	-9.67619
各位	-9.67633
起诉	-9.67642
的态度	-9.67659
设法	-9.67767
岁男子	-9.67813
表决	-9.67864
此种	-9.67876
文书	-9.68013
洛	-9.68019
创新	-9.68024
并在	-9.68034
额外	-9.68036
杨	-9.68044
您	-9.68044
导弹	-9.68048
▁为此	-9.68157
消息	-9.68252
600	-9.68254
当选	-9.68336
1%	-9.68362
不论	-9.68368
海洋	-9.68377
天气	-9.68493
断	-9.68501
身份	-9.68578
集	-9.6862
的措施	-9.6869
身体	-9.68694
提名	-9.68753
问题是	-9.68791
胜	-9.68856
英语	-9.68956
毛	-9.68961
建造	-9.68965
梅	-9.68989
召开	-9.69099
举	-9.69105
日后	-9.69156
分发	-9.69283
的局势	-9.6934
▁结果	-9.69385
生物	-9.69414
吴	-9.69465
问题上	-9.69542
免费	-9.69648
主义	-9.69656
少数	-9.6967
错误	-9.69772
1000	-9.69817
团结	-9.69855
净	-9.69915
宝	-9.69925
鲁	-9.69943
在这里	-9.70001
标	-9.70031
教学	-9.70035
有利于	-9.70092
▁以色列	-9.7018
善	-9.70185
我相信	-9.70188
推	-9.70189
记	-9.7019
▁我想	-9.70239
引	-9.70281
后果	-9.70284
条第	-9.70288
业界	-9.70291
紧	-9.70293
依据	-9.70302
废物	-9.70398
戏	-9.70407
抵达	-9.70441
登	-9.70563
人受伤	-9.70577
目前的	-9.70607
整	-9.70607
巴勒斯坦人	-9.70636
该项	-9.70638
西班牙	-9.70647
堂	-9.70826
语文	-9.70879
的资源	-9.70886
埃塞俄比亚	-9.70908
的承诺	-9.70911
商定	-9.70953
苦	-9.70955
发布	-9.70964
充满	-9.70966
农民	-9.71004
依	-9.71007
批	-9.71017
群	-9.71021
正确	-9.711
致	-9.71158
音乐	-9.71187
论	-9.71189
的事	-9.71234
真的	-9.71269
命	-9.7129
造	-9.71313
随	-9.71316
便会	-9.71333
维修	-9.71685
▁-	-9.71692
十一月	-9.71724
事实上	-9.71746
动议	-9.7177
俄罗斯联邦	-9.71787
总是	-9.71826
环保	-9.71851
永远	-9.71864
一天	-9.71876
齐	-9.71881
有效的	-9.71902
低于	-9.71942
年前	-9.72018
克罗地亚	-9.72091
岁的	-9.72138
产业	-9.72205
4%	-9.72259
刚果	-9.72327
会在	-9.7233
探讨	-9.72363
与会者	-9.72373
瑞士	-9.72376
十八	-9.72394
小型	-9.72437
星期二	-9.72479
归	-9.72519
十年	-9.72533
最低	-9.72554
良	-9.72573
成绩	-9.72653
完	-9.72697
▁这项	-9.72788
变成	-9.72817
资讯	-9.72854
安盟	-9.7287
软件	-9.7287
有助	-9.72895
制造业	-9.72904
提供的	-9.72909
长者	-9.72942
四个	-9.72949
女士	-9.73031
对其	-9.73032
人死亡	-9.73047
莱	-9.7305
受害人	-9.73142
巴士	-9.73202
次会议	-9.73265
结论	-9.73312
上午	-9.73324
玉	-9.73336
阻止	-9.73361
广告	-9.73367
转让	-9.73399
的范围	-9.73466
此类	-9.73525
的地区	-9.73539
▁工作组	-9.73547
回到	-9.73595
十四	-9.73655
互相	-9.73716
敦促	-9.73716
过渡	-9.73821
牛	-9.7385
杀	-9.73859
治安	-9.73873
的关键	-9.73888
据说	-9.73985
体毓	-9.74026
的项目	-9.74032
谈到	-9.7421
甚	-9.74236
湾	-9.74296
尽可能	-9.74331
抗议	-9.74349
乌克兰	-9.74354
爆发	-9.74373
一场	-9.74384
一套	-9.74487
架	-9.745
年期间	-9.74612
主题	-9.74627
至关重要	-9.74646
这些国家	-9.74664
对付	-9.74729
委员会成员	-9.74745
薪	-9.74746
获悉	-9.74838
转变	-9.74854
得到了	-9.74877
实体	-9.74893
成就	-9.74915
现有的	-9.74925
▁与此同时	-9.74942
利率	-9.74964
的办法	-9.74977
且	-9.75035
在过去	-9.75041
7.	-9.75104
脚	-9.75134
喜欢	-9.75142
伙伴关系	-9.75156
资	-9.75252
严格	-9.75338
航空	-9.75339
▁若	-9.75407
景	-9.75512
男性	-9.75545
相应	-9.75624
各自	-9.7566
报导	-9.75732
▁有人	-9.75825
笑	-9.75849
警告	-9.75866
艾滋病毒	-9.75868
分享	-9.75882
园	-9.75903
海地	-9.7598
毒	-9.76051
▁我们必须	-9.76066
咨询委员会	-9.76148
特别是在	-9.76189
考	-9.76308
习惯	-9.76332
雨	-9.76382
甚么	-9.7645
更新	-9.76478
专员	-9.76488
这方面的	-9.76514
谢	-9.7673
造成了	-9.76808
入境	-9.76825
惩罚	-9.76848
三百	-9.76891
塔利班	-9.76894
网页	-9.76905
药品	-9.7691
▁就	-9.7693
多边	-9.77023
中文	-9.77041
程	-9.77116
拖延	-9.77193
400	-9.77194
的内容	-9.77211
一段	-9.7722
的增长	-9.77238
内的	-9.77245
所需	-9.7726
寻找	-9.77311
课	-9.77393
乌干达	-9.7741
笔	-9.77436
盘	-9.77456
等待	-9.77506
可能是	-9.77523
▁安全理事会	-9.77564
听到	-9.77577
今	-9.77592
放弃	-9.77665
仍有	-9.77701
那样	-9.77711
这种情况	-9.77713
藏	-9.77718
发射	-9.77733
一九九七年	-9.77766
急	-9.77787
认识	-9.7787
荣	-9.77888
诉讼	-9.77895
我要	-9.77934
一级	-9.77946
警员	-9.77949
克服	-9.77951
命令	-9.7797
泰	-9.78085
磋商	-9.78162
载有	-9.78168
六月	-9.78177
认真	-9.78178
北部	-9.78209
切	-9.78231
的妇女	-9.78349
以为	-9.78417
弹	-9.78419
玩	-9.78435
作出了	-9.78446
是一种	-9.78465
女孩	-9.78507
否则	-9.7857
青	-9.78601
▁有些	-9.78609
导	-9.78645
一道	-9.7865
南部	-9.78678
小组委员会	-9.78773
失业率	-9.78804
试	-9.78855
修正案	-9.78931
腐败	-9.78954
杜	-9.78967
皮	-9.78967
囚犯	-9.78975
剧	-9.78979
星期六	-9.79011
易	-9.79087
一半	-9.79103
足够	-9.7915
四月	-9.79209
外地	-9.79248
业主	-9.79357
大厦	-9.79406
长远	-9.79435
江	-9.7945
秩序	-9.7948
滥用	-9.79493
制止	-9.79513
立法局	-9.79558
总督	-9.79609
主权	-9.79638
国际合作	-9.79686
有很多	-9.79699
访	-9.79703
执法	-9.79784
收益	-9.79856
购	-9.7993
▁按照	-9.79945
财富	-9.80032
自动	-9.80093
的危险	-9.80107
治	-9.80126
的人口	-9.8018
8%	-9.80204
死者	-9.80269
▁[	-9.80274
当前	-9.80299
劳	-9.803
▁可是	-9.8031
主动	-9.80326
地球	-9.80406
侵略	-9.80479
镇	-9.80516
永	-9.80544
▁日本	-9.80545
优惠	-9.80562
父亲	-9.80563
捐款	-9.80598
再度	-9.80685
▁1996	-9.80688
的环境	-9.80742
演	-9.8078
基地	-9.80811
女童	-9.80813
的其他	-9.80813
酒	-9.80817
高达	-9.80856
支	-9.80977
穿	-9.81026
▁新	-9.81031
已在	-9.81055
修正	-9.81072
酷刑	-9.81091
架构	-9.81096
圆	-9.81145
九龙	-9.81238
出现了	-9.8127
还将	-9.81289
已成为	-9.81353
音	-9.81517
祝贺	-9.81561
及其他	-9.81604
差距	-9.81616
状态	-9.81622
怎么	-9.81626
四年	-9.8165
的目的	-9.81746
角	-9.81786
精	-9.81813
做出	-9.81854
例子	-9.81861
来港	-9.81877
下去	-9.81974
年中	-9.82015
有效地	-9.8204
▁那	-9.82053
钟	-9.82063
类别	-9.82108
弱	-9.8211
封	-9.82116
多名	-9.82121
最多	-9.82123
博士	-9.8218
今次	-9.82303
形	-9.82345
各国政府	-9.8246
世界银行	-9.82517
我的	-9.82707
回顾	-9.82717
事宜	-9.82763
超	-9.82775
路线	-9.82842
新界	-9.82927
外交部长	-9.82933
特区政府	-9.82941
了一个	-9.83235
端	-9.83237
冲	-9.83248
伟	-9.83251
伯	-9.83261
叙利亚	-9.83263
公路	-9.83264
钻石	-9.83265
这些问题	-9.83302
一百	-9.83366
首脑会议	-9.83378
东西	-9.83479
装置	-9.83662
证人	-9.83671
各级	-9.83692
赞同	-9.83806
年初	-9.83808
穆斯林	-9.83811
我们会	-9.83811
削减	-9.83816
潜力	-9.83873
第四	-9.83914
退休	-9.83947
的精神	-9.83954
绝大多数	-9.83962
原来	-9.84076
的条件	-9.84125
9%	-9.84135
坏	-9.84142
严重的	-9.84153
每一	-9.84179
庆祝	-9.84236
▁要	-9.84337
所需的	-9.8436
雅	-9.84363
补偿	-9.84386
它的	-9.84479
▁国际社会	-9.84615
散	-9.84693
势	-9.84867
贝	-9.8487
燃料	-9.84908
监禁	-9.84913
讲习班	-9.8492
签证	-9.84924
妨碍	-9.84946
职能	-9.85002
文明	-9.85015
▁1994	-9.85097
目前正在	-9.851
残疾人	-9.85108
果	-9.852
绝	-9.85225
迄今	-9.85333
示威	-9.85398
支援	-9.85406
英文	-9.85417
索赔人	-9.85437
旅游业	-9.8545
他在	-9.85456
免	-9.85462
隧道	-9.85481
这两个	-9.85527
观点	-9.85554
000	-9.85579
本局	-9.85594
实质性	-9.85667
的观点	-9.85687
在这个	-9.85689
取代	-9.85727
思想	-9.85822
虐待	-9.85918
检控	-9.85986
茶	-9.86035
最不发达国家	-9.86041
争议	-9.86042
金额	-9.86056
5%	-9.86076
▁除	-9.86112
具备	-9.86128
合约	-9.86226
所述	-9.86272
广泛的	-9.86284
领域的	-9.8638
会继续	-9.8641
捐助	-9.86421
香	-9.86455
多年来	-9.86473
破	-9.86514
拨	-9.86589
丧失	-9.86609
速度	-9.86618
储存	-9.86629
录得	-9.86631
▁即使	-9.86676
理想	-9.86762
了一些	-9.86803
视为	-9.86807
▁还	-9.86815
的事件	-9.86823
管理局	-9.86843
委	-9.86923
异	-9.86941
自我	-9.87024
宪章	-9.87068
多年	-9.87087
中有	-9.87119
就此	-9.87135
提升	-9.87242
最初	-9.87274
基本上	-9.87463
思	-9.87473
不满	-9.8748
层面	-9.87483
不久	-9.87553
痛	-9.87626
威	-9.87654
也在	-9.87702
料	-9.8773
朝鲜	-9.87736
三千	-9.8774
柬埔寨	-9.87745
和发展	-9.87749
为止	-9.87763
情况下	-9.87819
将其	-9.87823
速	-9.87924
使我们	-9.87931
鸡	-9.87966
公司的	-9.88085
应在	-9.88094
失败	-9.88132
儿童基金会	-9.88156
的世界	-9.88222
智	-9.8824
梁	-9.88316
发展中国家的	-9.88354
外部	-9.88459
的士	-9.88519
临	-9.88632
中国人	-9.88635
选出	-9.88642
的方案	-9.88651
运用	-9.88653
十七	-9.88732
顿	-9.88757
以上的	-9.88781
▁1995	-9.88824
适合	-9.88845
委员会的	-9.88887
适应	-9.88918
指引	-9.88922
旅行	-9.88933
安装	-9.88935
36	-9.88935
负	-9.88945
副主席	-9.88967
遣返	-9.88988
禁	-9.88991
查明	-9.89036
促使	-9.89122
是我们	-9.8913
当天	-9.89143
亦有	-9.89164
会晤	-9.89164
住宅	-9.89173
必要的	-9.89179
3%	-9.89214
看法	-9.89315
学者	-9.89316
馆	-9.8935
贵	-9.89387
一千	-9.89466
虽	-9.8947
怎样	-9.8948
专题	-9.89481
装备	-9.89494
战斗	-9.89503
在内的	-9.89549
的成功	-9.89553
自行	-9.89559
看看	-9.89575
国会	-9.89581
署长	-9.89598
的发言	-9.89612
透明度	-9.8963
法定	-9.89644
工厂	-9.89653
道德	-9.89682
早上	-9.89766
这点	-9.89794
有责任	-9.89804
赶	-9.89826
味	-9.89945
撰文人	-9.90064
身上	-9.90097
尽早	-9.9011
牌照	-9.90196
的理由	-9.90209
所作的	-9.90223
的概念	-9.90243
增至	-9.90347
配	-9.90445
对这些	-9.90447
以确保	-9.90448
投资者	-9.90465
改为	-9.90521
放在	-9.90581
付款	-9.90626
雪	-9.9065
贸发会议	-9.90652
则是	-9.90661
少数民族	-9.90667
不够	-9.90669
二年	-9.90759
的标准	-9.90786
种种	-9.90825
释放	-9.90842
救	-9.90846
之下	-9.90893
促请	-9.90918
▁只有	-9.90953
大批	-9.9102
联合王国	-9.91117
细	-9.91123
顺	-9.91137
影	-9.91156
视察	-9.91211
近年来	-9.91215
▁实际上	-9.91225
申请人	-9.91231
边境	-9.91232
融资	-9.91244
▁发言人说	-9.91279
增强	-9.91327
息	-9.91375
7%	-9.91411
也可以	-9.91497
对香港	-9.91501
炸弹	-9.91529
几天	-9.9157
拟	-9.91691
新闻部	-9.91717
地面	-9.91802
兼	-9.91811
十九	-9.91816
陈水扁	-9.91839
沟通	-9.91841
人权委员会	-9.9192
罚款	-9.91961
心理	-9.91969
行动计划	-9.92
埃	-9.9215
质	-9.92197
警队	-9.9223
衣	-9.923
准	-9.92394
折	-9.92416
距离	-9.92429
......	-9.92438
不利	-9.92448
认可	-9.92477
阵	-9.92542
的可能性	-9.92563
▁我国	-9.92574
经济增长	-9.92646
审理	-9.92658
痛苦	-9.92756
史	-9.92794
会面	-9.9283
射	-9.92836
租金	-9.92905
为期	-9.92922
我希望	-9.92942
▁显然	-9.92951
的儿童	-9.92982
公顷	-9.93004
刀	-9.93013
▁2002	-9.93024
恐怕	-9.93042
革命	-9.93042
清洁	-9.93045
参考	-9.93046
差异	-9.9305
▁国际	-9.93057
不受	-9.93109
温	-9.93127
历史上	-9.9314
征	-9.93144
各方面	-9.93178
受影响	-9.93278
预	-9.93297
进行调查	-9.9343
的冲突	-9.93444
产量	-9.93482
伤害	-9.93504
康	-9.93601
替代	-9.93655
游戏	-9.93656
规范	-9.9368
容忍	-9.93681
一九九八年	-9.93693
会有	-9.93832
四百	-9.93832
在美国	-9.93858
社会发展	-9.93875
航	-9.93884
发言者	-9.93921
▁国家	-9.9396
在联合国	-9.94029
体系	-9.94076
拉丁美洲	-9.94089
压	-9.94136
围	-9.94173
也将	-9.94179
48	-9.94182
汇率	-9.94249
郑	-9.94256
短缺	-9.94264
此项	-9.94291
正义	-9.94318
的文件	-9.94331
她的	-9.94417
创	-9.9443
和解	-9.94526
华人	-9.94534
两次	-9.9463
这里	-9.94714
久	-9.94775
的地位	-9.94785
页	-9.94843
缅甸	-9.9487
阶层	-9.9487
未来的	-9.94883
变动	-9.94913
前景	-9.94959
为什么	-9.94962
美利坚合众国	-9.9507
自治	-9.95127
丰富	-9.95186
▁然后	-9.9519
动物	-9.95202
第二次	-9.95259
全港	-9.95261
32	-9.95275
人物	-9.95292
法案	-9.95324
另一	-9.95326
止	-9.95421
▁正如	-9.95433
丽	-9.95461
跳	-9.95483
操作	-9.95508
惯例	-9.9553
兴	-9.95537
的挑战	-9.95539
有需要	-9.95647
各地	-9.95664
申诉	-9.95735
销	-9.95754
大众	-9.95831
仍未	-9.95867
十六	-9.95872
从未	-9.95931
作业	-9.95933
实地	-9.95935
银	-9.95965
母	-9.95979
生活在	-9.96051
箱	-9.96073
这一问题	-9.96073
他说	-9.9612
有限公司	-9.96241
的确	-9.96264
的讨论	-9.96339
是要	-9.96395
维持和平	-9.96443
留下	-9.96516
是个	-9.96569
民警	-9.96588
患	-9.96589
灾难	-9.9659
作出决定	-9.966
多项	-9.96692
松	-9.96703
烧	-9.96728
定义	-9.96731
沙特阿拉伯	-9.96735
起草	-9.96815
守	-9.96817
些	-9.96905
▁它还	-9.9695
部份	-9.97
34	-9.97068
通过了	-9.9711
人手	-9.97197
缔约方	-9.97288
冷	-9.97321
的服务	-9.97326
肉	-9.97342
喜	-9.97342
依照	-9.97371
同一	-9.97387
较为	-9.97395
多少	-9.9744
二千	-9.9749
效	-9.9755
55	-9.97638
游客	-9.97676
波斯尼亚	-9.97711
第一个	-9.97742
询问	-9.9779
与其他	-9.97836
密	-9.97858
武	-9.97935
每次	-9.97941
面积	-9.97945
5000	-9.97945
严峻	-9.97995
诸如	-9.98015
赫	-9.98059
自杀	-9.98083
学员	-9.9809
听取	-9.98142
略	-9.98146
录	-9.98156
到达	-9.98181
▁应	-9.98188
民间	-9.9819
38	-9.9823
历	-9.98325
者的	-9.98338
在本	-9.98339
服务业	-9.98386
利润	-9.98398
为此	-9.98425
目的是	-9.98473
筹备	-9.98473
艺	-9.98521
此事	-9.98581
观念	-9.98598
附件	-9.986
许可证	-9.9864
的人员	-9.98644
近期	-9.98659
成功地	-9.98706
77	-9.98741
更是	-9.98743
加剧	-9.98845
直至	-9.98849
有了	-9.98878
1.	-9.98892
无须	-9.98996
欧	-9.99109
外交部	-9.99192
发生在	-9.9925
愈	-9.99273
建立了	-9.99362
▁相反	-9.99378
款项	-9.99392
用品	-9.99427
有着	-9.99432
▁预计	-9.99617
医	-9.99622
的核心	-9.9963
涉嫌	-9.99657
重复	-9.99763
希	-9.9987
基层	-9.99943
依靠	-9.99963
流行	-9.99988
发放	-9.99995
故	-10.0027
扩散	-10.0037
的数目	-10.0039
生存	-10.004
功能	-10.005
工作队	-10.0054
的变化	-10.0054
准确	-10.0056
伊朗伊斯兰共和国	-10.0057
透露	-10.0061
很快	-10.0062
每月	-10.0064
2004	-10.007
许多人	-10.0073
逃	-10.0076
的历史	-10.008
的一项	-10.0083
必	-10.0084
大楼	-10.0088
所有国家	-10.0093
蒂	-10.0093
作品	-10.0093
籍	-10.0108
委员会主席	-10.0113
杰	-10.0117
乌	-10.0122
信贷	-10.0123
偿还	-10.0123
40%	-10.0123
东南亚	-10.0124
武装部队	-10.0127
还在	-10.013
持久	-10.0132
灵	-10.0134
狗	-10.0134
联合国宪章	-10.0135
害	-10.0135
的实际	-10.0149
存在着	-10.0161
一间	-10.0163
原则上	-10.0163
静	-10.0167
调查结果	-10.0181
寄	-10.0182
随时	-10.0183
","	-10.0185
翻	-10.0186
左	-10.0188
分岐	-10.0188
阻碍	-10.0189
但却	-10.0193
纪录	-10.0194
的案件	-10.02
核裁军	-10.0204
土着人民	-10.0206
有关部门	-10.0209
讨论会	-10.0209
抗	-10.021
发动	-10.0211
所得	-10.0217
洗	-10.0218
面前	-10.0219
巡逻	-10.0236
▁我国代表团	-10.024
次会议上	-10.0242
译文	-10.0249
症	-10.0251
认同	-10.0258
剂	-10.0258
▁小组	-10.0261
的现象	-10.0262
分子	-10.0276
本报告	-10.0278
歌	-10.0282
这些人	-10.0285
就有	-10.029
下列	-10.0298
功	-10.0301
用作	-10.0305
所说的	-10.0306
五个	-10.0307
反而	-10.0308
森	-10.0319
摩洛哥	-10.0321
培养	-10.0321
交换	-10.0321
移动	-10.0322
英语发言	-10.0325
0.	-10.0327
我国代表团	-10.033
刘	-10.0332
清单	-10.0332
分类	-10.0341
生意	-10.0342
亦可	-10.0351
港元	-10.0351
的速度	-10.036
对抗	-10.0362
可在	-10.0363
书面	-10.0366
伊斯兰	-10.0369
▁行政长官	-10.0371
争端	-10.0379
贴	-10.0386
不幸	-10.0386
鸟	-10.0387
联合国的	-10.0388
矛盾	-10.0388
担保	-10.0388
帐户	-10.0388
固定	-10.0393
演出	-10.0394
节省	-10.0395
39	-10.0403
体现	-10.0407
○○○	-10.0411
计算机	-10.0411
的威胁	-10.0416
接着	-10.0421
数据库	-10.0424
参	-10.0432
施	-10.0437
素	-10.0437
赞赏	-10.044
佛	-10.044
快速	-10.044
▁2	-10.0442
雄	-10.0449
邦	-10.0453
赋予	-10.0456
公斤	-10.0456
条规定	-10.0461
必须在	-10.0462
便利	-10.0464
极端	-10.0464
一词	-10.0465
周年	-10.0472
人口的	-10.0477
▁非洲	-10.0479
会议的	-10.0483
环	-10.0487
接纳	-10.0487
▁上述	-10.049
的投资	-10.0492
答覆	-10.0501
这方面	-10.0507
原子能机构	-10.0511
二十一	-10.0512
脆弱	-10.0514
的各种	-10.0518
爱尔兰	-10.0522
比率	-10.0522
透明	-10.0523
孙	-10.0523
井	-10.0524
规例	-10.0524
贩运	-10.0526
规约	-10.0526
采取了	-10.0527
▁通过	-10.0532
有一些	-10.0536
伤亡	-10.0537
突出	-10.0539
恐怖	-10.0541
信心	-10.0542
百分之十	-10.0546
信任	-10.0553
良好的	-10.0553
国际组织	-10.0566
杀害	-10.0566
争	-10.0572
的程序	-10.0576
主席女士	-10.0578
的例子	-10.0578
刚刚	-10.0586
谨	-10.0586
生态	-10.0588
扎	-10.059
戴	-10.0591
范畴	-10.0592
判断	-10.0593
解决办法	-10.0594
单独	-10.0595
中小型企业	-10.0597
顶	-10.0597
通信	-10.0599
成了	-10.0604
都在	-10.0614
▁到	-10.0624
年至	-10.0628
▁据称	-10.0632
五千	-10.0636
▁还有	-10.0637
▁自从	-10.0642
继	-10.0643
只会	-10.0649
病毒	-10.0652
念	-10.0654
护照	-10.0658
的目的是	-10.0658
拍	-10.0659
尾	-10.066
传媒	-10.0661
突然	-10.0661
80%	-10.0662
邮票	-10.0662
席位	-10.0663
积极参与	-10.0663
薪金	-10.0664
的进展	-10.0665
含	-10.0666
中国的	-10.067
留在	-10.0672
出任	-10.0677
民兵	-10.0682
香港市民	-10.0686
阿根廷	-10.0687
▁伊拉克	-10.0691
定于	-10.0697
保安	-10.07
汇	-10.071
很好	-10.0711
相当于	-10.0712
特征	-10.0713
▁市民	-10.0715
众	-10.0716
大幅	-10.0717
昨日	-10.0717
日第	-10.0722
宽	-10.0726
舞	-10.0727
豁免	-10.0727
屯门	-10.073
商界	-10.0731
能否	-10.0731
建立一个	-10.0739
的研究	-10.0739
设想	-10.074
特别代表	-10.0743
那里	-10.0745
野	-10.0751
竞争力	-10.0752
回来	-10.0758
划	-10.0769
用来	-10.077
让我	-10.0778
日常	-10.0781
桥	-10.0784
两岸	-10.08
网址	-10.08
厄立特里亚	-10.08
核查	-10.0802
祖国	-10.0805
供应商	-10.0807
足以	-10.0814
的信息	-10.0814
实质	-10.0814
建筑物	-10.0829
电力	-10.084
宜	-10.0841
三名	-10.0845
最重要的	-10.085
社会的	-10.0866
证券	-10.0866
跑	-10.0867
标志	-10.0868
金管局	-10.0871
澳洲	-10.0871
彼此	-10.0871
顾客	-10.0871
冲突的	-10.0876
保存	-10.0877
44	-10.0878
来文	-10.0878
结合	-10.0878
更大	-10.0881
多人	-10.0891
人生	-10.0891
界定	-10.0894
组织的	-10.0899
▁在过去	-10.0901
减少了	-10.0903
没有人	-10.0907
领取	-10.0909
称为	-10.0918
另一个	-10.0918
的唯一	-10.0924
33	-10.0927
和社会	-10.0929
总数	-10.0932
的各项	-10.0934
状	-10.0938
谷	-10.094
帕	-10.0941
横	-10.0941
格鲁吉亚	-10.0942
涵盖	-10.0942
规管	-10.0942
结婚	-10.0943
房委会	-10.0943
不敢	-10.0945
难民署	-10.0947
是由于	-10.0948
港口	-10.0949
答	-10.0952
特区	-10.0963
转移	-10.0969
日前	-10.097
已于	-10.0972
的数据	-10.0975
据称	-10.0982
经历	-10.0983
的运作	-10.099
交给	-10.0997
▁发言人	-10.0998
优势	-10.1
证书	-10.1001
开会	-10.1001
妇女的	-10.1005
坚决	-10.1005
人力资源	-10.1008
电讯	-10.101
储备	-10.1011
开幕	-10.1011
希腊	-10.1013
终止	-10.1014
终	-10.1014
加速	-10.1016
有任何	-10.1016
1980	-10.1017
现代化	-10.1018
意识	-10.1034
死亡率	-10.1038
借	-10.1045
东部	-10.1047
日起	-10.1054
这场	-10.1054
补	-10.1057
年轻人	-10.1057
▁你	-10.1059
十二月	-10.1063
友	-10.1067
不应该	-10.1071
着手	-10.1072
计划的	-10.1073
陆	-10.108
图书馆	-10.1084
伦	-10.1084
八十	-10.1084
帮	-10.1084
的具体	-10.1085
颁布	-10.1085
技能	-10.1086
社会福利	-10.1087
大力	-10.109
和谐	-10.1092
包含	-10.1093
机构的	-10.1093
有点	-10.1094
同期	-10.1094
协调员	-10.1097
相关的	-10.1103
▁呃	-10.1106
恶	-10.1108
设立了	-10.1111
▁1993	-10.1115
▁只要	-10.112
第五	-10.112
船只	-10.1125
蒙	-10.1127
仍在	-10.1129
延	-10.1135
使其	-10.1138
地震	-10.1141
的程度	-10.1142
讨论了	-10.1147
颁发	-10.1153
曲	-10.1155
救济	-10.1157
途径	-10.1157
亮	-10.1157
阐述	-10.1158
公屋	-10.1161
私	-10.1164
财政司	-10.1168
继续努力	-10.1173
春	-10.118
政府官员	-10.1184
扬	-10.1185
月初	-10.1189
治理	-10.1189
能力建设	-10.1196
在一起	-10.1206
载于	-10.1209
毫无	-10.1225
廾	-10.123
斯里兰卡	-10.123
东道国	-10.1231
贪污	-10.1231
哪些	-10.1231
70%	-10.1231
陷入	-10.1232
斗争	-10.1236
出了	-10.1237
动员	-10.1238
▁这次	-10.1238
所谓的	-10.1251
暴	-10.1254
民间社会	-10.1261
觉	-10.1261
六百	-10.1263
世界经济	-10.1264
一宗	-10.1268
容	-10.127
让人	-10.1272
本来	-10.1275
期限	-10.1276
人在	-10.128
有意	-10.1284
出现的	-10.1287
回收	-10.1288
二十四	-10.1291
位置	-10.13
唱	-10.1302
▁请	-10.1302
兹	-10.1304
30%	-10.1308
10%	-10.1309
▁董建华	-10.131
收回	-10.1311
▁报告	-10.1312
产生了	-10.1318
港人	-10.1322
我们也	-10.1327
注	-10.1331
最新	-10.1333
健	-10.1337
就可以	-10.134
等等	-10.1341
在该	-10.1342
庆	-10.1343
两地	-10.1345
的贡献	-10.1346
二十八	-10.1347
昨天	-10.135
有许多	-10.1352
施政报告	-10.1357
议案	-10.136
非洲的	-10.1365
招	-10.1365
和美国	-10.1366
怀	-10.1367
追	-10.137
在中国	-10.137
洋	-10.137
南亚	-10.1374
幕	-10.1375
的会议	-10.1376
婚	-10.1376
喝	-10.1377
牺牲	-10.1378
危地马拉	-10.1378
行动中	-10.1387
互	-10.1389
任期	-10.1393
报告说	-10.1393
联合国秘书长	-10.1395
巴勒斯坦人民	-10.1396
太多	-10.1404
设置	-10.1414
巨大的	-10.1416
的家庭	-10.142
凡	-10.1426
成长	-10.143
文学	-10.1432
该公司	-10.1435
规定的	-10.1435
特别委员会	-10.1441
跌	-10.1443
邮	-10.1445
对待	-10.1447
总共	-10.1448
辩护	-10.1451
拜	-10.1451
冰	-10.1452
皆	-10.1453
1989	-10.1454
确立	-10.1454
我会	-10.1458
指南	-10.1461
负责人	-10.1461
判	-10.1462
的同时	-10.1463
自由党	-10.1463
▁由	-10.1472
▁缔约国	-10.1477
的收入	-10.1481
外国人	-10.1492
取得了	-10.1493
的安排	-10.1493
不好	-10.1506
回家	-10.1506
见到	-10.1515
47	-10.1519
饭	-10.1526
危害	-10.1528
业绩	-10.1529
引致	-10.1529
辞职	-10.153
维持和平行动	-10.1531
电视台	-10.1531
深刻	-10.1532
是不	-10.1534
获取	-10.1535
刑法	-10.1535
随即	-10.1539
明天	-10.154
和平与安全	-10.1542
香港经济	-10.1546
句	-10.1549
43	-10.1556
助	-10.1558
核可	-10.1561
委会	-10.1562
续	-10.1566
售	-10.157
政府对	-10.1573
湖	-10.1578
▁没有	-10.1579
推迟	-10.1581
本港的	-10.1581
▁据报	-10.1582
普及	-10.1583
失踪	-10.1586
里面	-10.1588
依法	-10.1589
永久	-10.1591
提供援助	-10.1591
已被	-10.1595
指挥	-10.16
无疑	-10.1601
技术合作	-10.1602
也要	-10.1603
贾	-10.1604
菲	-10.1604
约旦	-10.1605
直到	-10.1608
种族主义	-10.1611
缺少	-10.1611
效果	-10.1617
很大的	-10.1617
迟	-10.1617
在非洲	-10.1627
于是	-10.1633
块	-10.1633
引发	-10.164
之内	-10.1641
乱	-10.1643
▁经过	-10.1647
地带	-10.1649
幅	-10.1649
剥夺	-10.1649
▁后来	-10.1654
▁双方	-10.1657
扩展	-10.166
勤	-10.1662
认	-10.1664
忽视	-10.1668
统治	-10.1669
电台	-10.1672
影响到	-10.1674
谋	-10.1675
沉	-10.1675
限	-10.1678
政府部门	-10.1679
呼	-10.1679
封闭	-10.1679
袋	-10.168
迷	-10.168
考试	-10.168
90%	-10.168
强迫	-10.1681
的未来	-10.1685
反对派	-10.1685
小心	-10.1689
每日	-10.1692
解除	-10.1694
表示关注	-10.1695
▁大家	-10.1701
自然资源	-10.1705
月至	-10.1712
沿	-10.1712
二十五	-10.1716
二十六	-10.1718
采	-10.173
这份	-10.174
解决问题	-10.1746
例	-10.1751
事件中	-10.1752
▁秘书处	-10.1753
时候	-10.1755
婴儿	-10.1757
康复	-10.1758
浪费	-10.1759
聘用	-10.176
达成协议	-10.1761
档案	-10.1763
为香港	-10.1763
指称	-10.177
得不到	-10.177
气氛	-10.1773
西方	-10.1775
文本	-10.1776
▁近年来	-10.1777
会员	-10.1778
市区	-10.178
穷人	-10.178
细节	-10.1781
切实	-10.1782
700	-10.1782
两项	-10.1788
的手段	-10.1795
是中国	-10.18
他人	-10.1808
助理	-10.1811
两年期	-10.1819
一些国家	-10.1824
二十七	-10.1824
严	-10.1828
据报	-10.1828
经济和社会	-10.1829
夏	-10.183
绿	-10.1831
股票	-10.1833
42	-10.1834
首席	-10.1834
而非	-10.1834
丁	-10.1834
塞尔维亚	-10.1834
卢	-10.1834
推进	-10.1837
派遣	-10.1839
洲	-10.184
的比例	-10.184
即时	-10.1841
仲裁	-10.1841
撤出	-10.1843
我们要	-10.1844
中期	-10.1845
惊	-10.1847
多种	-10.1862
才会	-10.1866
皇	-10.1869
席	-10.1873
最严重的	-10.1882
各位议员	-10.1883
中间	-10.1888
民事	-10.1897
政府在	-10.1903
一再	-10.1906
没收	-10.1908
教毓署	-10.1909
停火	-10.1909
布什	-10.1911
阿塞拜疆	-10.1913
国家安全	-10.1914
丹麦	-10.1914
轨道	-10.1915
升级	-10.1915
智利	-10.1916
他们在	-10.1917
九十	-10.1919
黄金	-10.1921
客观	-10.1923
的共同	-10.1924
星期日	-10.1926
大致	-10.1929
活跃	-10.1929
零点	-10.193
而不	-10.1932
减低	-10.1935
是指	-10.1937
刑	-10.1941
院长	-10.1941
服务的	-10.1942
我就	-10.1957
检	-10.1966
的道路	-10.1971
)(	-10.1976
档	-10.1985
相反	-10.1987
的成果	-10.1988
怕	-10.1991
休息	-10.1992
等于	-10.1992
谋求	-10.1992
的表现	-10.1994
发表的	-10.1995
游行	-10.1996
合并	-10.1997
前面	-10.1998
解放	-10.1999
容许	-10.2005
所有人	-10.2007
并将	-10.201
印尼	-10.2015
一直在	-10.2017
▁李	-10.2021
的小	-10.2022
被视为	-10.2024
辆	-10.2024
是以	-10.2025
是对	-10.2028
▁她说	-10.2028
庭	-10.2031
脱	-10.2032
49	-10.2036
广东	-10.2037
分区	-10.2041
拖	-10.2051
创作	-10.2052
决	-10.2059
的计划	-10.2065
旗	-10.2065
彩	-10.2068
的反应	-10.207
罪犯	-10.207
$	-10.2071
婚姻	-10.2071
泽	-10.2071
朱	-10.2071
实践	-10.2071
情绪	-10.2071
!	-10.2071
童	-10.2072
两位	-10.2072
假设	-10.2074
采取措施	-10.2075
议题	-10.2076
家属	-10.2077
劳工处	-10.208
当年	-10.2083
所在	-10.2087
迂	-10.2089
末	-10.2089
2005	-10.209
筹资	-10.2092
举行会议	-10.2095
消	-10.2095
待迂	-10.2098
还需要	-10.2098
不知	-10.21
的许多	-10.2103
不想	-10.2106
华盛顿	-10.2106
某	-10.2111
渠道	-10.2113
唯一	-10.2114
得多	-10.2115
展示	-10.2117
▁他还	-10.2118
我们在	-10.212
我们希望	-10.2121
秘书	-10.2123
缺	-10.2126
调解	-10.2126
▁印度	-10.2127
在那里	-10.213
夫人	-10.2131
乃	-10.2133
表示欢迎	-10.2136
介绍了	-10.214
对联合国	-10.2146
截至	-10.2148
厚	-10.2149
亚美尼亚	-10.2151
描述	-10.2151
纷纷	-10.2151
杂志	-10.2151
敏感	-10.2152
部门的	-10.2152
删除	-10.2152
乐观	-10.2153
订立	-10.2153
审讯	-10.2156
阿尔巴尼亚	-10.216
促成	-10.2161
谋杀	-10.2162
出于	-10.2163
不管	-10.2169
好的	-10.2172
共识	-10.2172
群众	-10.2181
的消息	-10.2183
建设性	-10.2193
少年	-10.2201
▁他表示	-10.2202
存款	-10.2203
专家组	-10.2204
竟	-10.2207
一直是	-10.2208
提案	-10.2208
20%	-10.2209
逐	-10.2219
对象	-10.2221
理论	-10.2223
变得	-10.2225
高于	-10.2226
质疑	-10.2227
葡萄牙	-10.223
▁理事会	-10.2231
大韩民国	-10.2231
仁	-10.2231
搜查	-10.2232
追求	-10.2232
的性质	-10.2233
捐助者	-10.2244
种植	-10.2245
的事情	-10.2245
▁应该	-10.2248
的土地	-10.2251
使命	-10.2255
看见	-10.226
应该是	-10.2269
二十三	-10.2273
矿	-10.2274
各类	-10.228
▁委员会还	-10.2285
缴	-10.2285
欠	-10.2288
的权力	-10.2296
▁我们相信	-10.2297
削弱	-10.2299
应由	-10.23
失望	-10.2304
灵活	-10.2306
▁他指出	-10.2307
坚	-10.2309
阳	-10.231
▁咨询委员会	-10.2311
甲	-10.2311
我是	-10.2312
塞浦路斯	-10.2313
桌	-10.2313
殴打	-10.2313
的大	-10.2317
价值观	-10.232
很高	-10.232
▁我觉得	-10.232
差别	-10.2327
幅度	-10.2327
人力	-10.233
然而	-10.2339
潜在	-10.2345
职责	-10.2346
工作方案	-10.2351
的趋势	-10.236
的水平	-10.236
美洲	-10.2368
共同努力	-10.2369
南方	-10.2374
适	-10.2378
很可能	-10.2378
大多	-10.2378
的自由	-10.2382
是很	-10.2388
梦	-10.2391
西部	-10.2393
仅仅	-10.2394
骨	-10.2394
移徙	-10.2395
卖淫	-10.2395
酌情	-10.2395
跌幅	-10.2395
许可	-10.2395
差不多	-10.2395
雇用	-10.2395
后者	-10.2396
渔业	-10.2397
优先事项	-10.2397
合格	-10.2399
每一个	-10.2401
国际法院	-10.2403
背后	-10.2408
的说法	-10.241
市长	-10.241
必然	-10.2417
任何人	-10.2419
两人	-10.242
▁一	-10.2421
的执行	-10.2421
副秘书长	-10.2437
中心的	-10.2438
信息技术	-10.2439
示	-10.2442
移	-10.2446
大概	-10.2446
颇	-10.2447
真正的	-10.2452
真是	-10.2465
54	-10.2468
被发现	-10.2469
的最	-10.2472
替	-10.2473
慢	-10.2473
瑞典	-10.2475
内战	-10.2476
▁换言之	-10.2477
尼日利亚	-10.2477
纠正	-10.2478
护理	-10.2478
管辖权	-10.2478
的资金	-10.248
九七年	-10.2483
的关注	-10.2485
▁我们也	-10.2486
守则	-10.2487
人均	-10.2487
流入	-10.2488
学会	-10.2488
非常重要	-10.2495
就必须	-10.2495
的平均	-10.2503
发起	-10.2508
取得进展	-10.2508
的数字	-10.2509
2%	-10.2511
的因素	-10.2512
付出	-10.2514
毓	-10.2516
对我们	-10.2518
同样的	-10.252
现任	-10.2521
对他们	-10.2522
候	-10.2524
国外	-10.2524
有关国家	-10.2529
佳	-10.2532
也不能	-10.2535
统筹	-10.2536
早日	-10.2538
日内瓦	-10.2539
而已	-10.254
我们对	-10.2543
某一	-10.2544
37	-10.2545
家中	-10.2556
惠	-10.2556
抽	-10.2556
很重要	-10.2557
有待	-10.2557
辞	-10.2558
唐	-10.256
私家车	-10.256
检验	-10.2561
表现出	-10.2561
出版物	-10.2564
总值	-10.2565
就业机会	-10.2571
正面	-10.2572
美军	-10.2573
表格	-10.2574
▁在此	-10.2576
敌	-10.258
可见	-10.258
有兴趣	-10.2587
管辖	-10.2588
背景	-10.2589
稍	-10.2594
毕业	-10.2599
我们将	-10.2599
象征	-10.26
的义务	-10.2607
的角色	-10.2609
任职	-10.2609
基金会	-10.2609
残疾	-10.2612
中方	-10.2615
点六	-10.2617
质素	-10.2621
▁其	-10.2624
背	-10.2626
做到	-10.2626
反映了	-10.2627
假期	-10.2627
对他	-10.2628
餐	-10.2629
为何	-10.2631
的受害者	-10.2636
讯	-10.2636
文字	-10.2637
戈	-10.2638
名为	-10.2639
凭	-10.2641
软	-10.2643
患者	-10.2643
冒	-10.2644
裁谈会	-10.2645
荃湾	-10.2645
撤离	-10.2645
不大	-10.2645
消失	-10.2646
挪威	-10.2647
选票	-10.2648
队伍	-10.2649
总体	-10.2652
它是	-10.2654
列出	-10.2654
是根据	-10.2655
答案	-10.2656
说过	-10.2667
流离失所	-10.2672
的后果	-10.2681
设立一个	-10.2683
控	-10.2684
哪	-10.2687
述	-10.2687
私营	-10.269
的形式	-10.2698
美国政府	-10.27
受理	-10.27
的困难	-10.2703
接受了	-10.2704
众多	-10.2706
收取	-10.2708
年内	-10.2709
详情	-10.2712
责	-10.2719
并于	-10.2723
可行	-10.2723
是香港	-10.2724
的技术	-10.2725
可持续	-10.2726
蓝	-10.2727
挂	-10.2729
佩	-10.2729
南斯拉夫联盟共和国	-10.2729
圈	-10.2729
债券	-10.273
强奸	-10.273
启动	-10.273
签署了	-10.2732
东亚	-10.2736
才是	-10.2746
议程项目	-10.275
协	-10.2754
休	-10.276
150	-10.2762
事务部	-10.277
动用	-10.2774
供水	-10.2778
是有	-10.278
未经	-10.2784
不需要	-10.2785
人道主义援助	-10.2791
无辜	-10.2804
驾驶	-10.281
割	-10.281
大家都	-10.2811
的重点	-10.2811
搞	-10.2811
无核武器区	-10.2814
欣赏	-10.2815
秋	-10.2815
签订	-10.2816
公园	-10.2816
买卖	-10.2817
手续	-10.2822
订正	-10.2823
捐助国	-10.2823
一辆	-10.2825
获准	-10.283
鉴于	-10.2831
都没有	-10.2833
高级别	-10.2836
最近的	-10.284
不太	-10.2842
学术	-10.2843
迫使	-10.2846
它们的	-10.285
枚	-10.2851
排除	-10.2854
仍是	-10.2856
还包括	-10.2858
较低	-10.286
三个月	-10.2863
二十一世纪	-10.2864
警察部队	-10.2865
港岛	-10.287
执行局	-10.2872
不愿	-10.2873
中国政府	-10.2879
元朗	-10.288
二十九	-10.288
▁当局	-10.288
香港特别行政区	-10.2881
二零零零年	-10.2888
炮	-10.2895
所涉	-10.2895
护	-10.2896
耶路撒冷	-10.2899
丈夫	-10.2901
增幅	-10.2902
销毁	-10.2902
出色	-10.2906
交通意外	-10.2908
前南斯拉夫	-10.2909
的东西	-10.291
机器	-10.2911
也不会	-10.2911
八百	-10.2911
电信	-10.2915
卫生署	-10.2919
特别注意	-10.2919
置	-10.2927
53	-10.293
故事	-10.2938
一方	-10.2939
偷	-10.2942
或许	-10.2944
的限制	-10.2948
尽力	-10.295
工作小组	-10.2951
行事	-10.2952
将近	-10.2952
接获	-10.296
主席团	-10.2961
此次	-10.2966
过境	-10.2967
也可	-10.2969
中共	-10.2969
独立的	-10.2971
承受	-10.2976
鞋	-10.2984
隆	-10.2984
破产	-10.2986
除非	-10.2986
兄弟	-10.2988
萨达姆	-10.2988
混乱	-10.2988
继承	-10.2988
变革	-10.2988
一九九五年	-10.2989
形容	-10.2989
巴黎	-10.2989
妻子	-10.299
伦敦	-10.299
谈谈	-10.3003
800	-10.3011
该处	-10.3017
美国的	-10.3021
简	-10.3026
以期	-10.3028
非正式	-10.3029
脑	-10.303
的认识	-10.3033
女儿	-10.3035
65	-10.3037
死于	-10.3041
的压力	-10.3042
安理会成员	-10.3046
悲剧	-10.3053
完善	-10.3055
分为	-10.3059
优	-10.3063
墙	-10.307
空气	-10.3071
是一项	-10.3072
移交	-10.3072
逾	-10.3073
中华人民共和国	-10.3076
工发组织	-10.3076
尼加拉瓜	-10.3076
尼泊尔	-10.3076
诗	-10.3076
优秀	-10.3076
立刻	-10.3077
不错	-10.3088
的谈判	-10.3105
场所	-10.3107
如今	-10.3109
绝不	-10.3113
未有	-10.3123
在未来	-10.3125
长时间	-10.3127
▁特别代表	-10.3129
之一是	-10.3144
空中	-10.3146
过于	-10.3149
的机构	-10.3149
练	-10.3151
专家小组	-10.3153
还可以	-10.3155
▁二	-10.3156
意图	-10.3156
南斯拉夫	-10.3156
稿	-10.3159
政府已	-10.3159
▁卫生署	-10.3161
太平洋	-10.3162
氏	-10.3164
安置	-10.3164
怀孕	-10.3164
挺	-10.3164
肯尼亚	-10.3164
投标	-10.3166
波兰	-10.3167
火警	-10.3167
注重	-10.3167
祖	-10.3168
不必	-10.3169
的调查	-10.317
可以在	-10.3182
有能力	-10.3182
贩毒	-10.3186
二八	-10.3187
政策和	-10.3187
举办了	-10.3189
住户	-10.3191
酒店	-10.3195
消灭	-10.3197
好像	-10.3202
旅	-10.3203
军人	-10.3205
900	-10.3207
忠	-10.321
跨	-10.3213
完成了	-10.3213
▁希望	-10.3221
▁此	-10.3221
法规	-10.3222
降	-10.3227
一体化	-10.3228
的进程	-10.3234
承	-10.324
回皈	-10.3241
似	-10.3247
敬	-10.3251
洗钱	-10.3253
物资	-10.3256
行动纲领	-10.3256
入境处	-10.3256
使用的	-10.3257
较高	-10.3261
高层	-10.3266
区的	-10.3268
有时候	-10.3274
街头	-10.3276
世界各地	-10.3283
中断	-10.3285
来到	-10.3289
亦是	-10.329
一定要	-10.329
住在	-10.3316
报告书	-10.3318
高等教毓	-10.3319
冷战	-10.3322
局面	-10.3324
宁	-10.3325
传统的	-10.333
正当	-10.3337
分别为	-10.334
青年人	-10.334
营运	-10.3343
加勒比	-10.3343
凯	-10.3344
一国两制	-10.3344
救援	-10.3344
紧迫	-10.3344
某种	-10.3345
内阁	-10.3346
最佳	-10.3348
不符合	-10.3351
潮	-10.3353
尤	-10.3356
分布	-10.3361
的长期	-10.3364
很多人	-10.3364
特点	-10.3366
41	-10.3369
说话	-10.3375
增长率	-10.3377
的学生	-10.3378
我谨	-10.3383
侵犯人权	-10.3385
成效	-10.3388
六年	-10.3389
满意	-10.3389
的情湟下	-10.3402
忧虑	-10.3402
▁一个	-10.3404
将有	-10.3414
与发展	-10.3416
般	-10.3417
先后	-10.3418
3000	-10.3423
会上	-10.3424
连接	-10.3424
参加者	-10.3428
右	-10.3431
缘	-10.3433
丰	-10.3434
竹	-10.3434
三分之一	-10.3435
冻结	-10.3435
增加到	-10.3435
补贴	-10.3435
空缺	-10.3435
陈述	-10.3436
1988	-10.3436
气候	-10.3437
男童	-10.3437
集中在	-10.3439
的定义	-10.3439
股市	-10.3441
组合	-10.3441
开办	-10.3442
着重	-10.3445
的第	-10.3454
都必须	-10.3456
主导	-10.3459
表示支持	-10.3459
疑问	-10.3461
两者	-10.3461
国际关系	-10.3462
报名	-10.3467
工程处	-10.3468
会计	-10.3476
的状况	-10.3476
无人	-10.3478
金属	-10.3482
外来	-10.3486
系统的	-10.3494
欲	-10.3503
广大	-10.3504
存在的	-10.3506
强制	-10.3506
一日	-10.3507
十分重要	-10.351
偏	-10.3511
题为	-10.3513
发达	-10.3521
乘	-10.3522
欢	-10.3525
检获	-10.3525
旋	-10.3526
博物馆	-10.3526
多样化	-10.3526
突尼斯	-10.3526
缔结	-10.3526
雇主	-10.3526
妥善	-10.3527
采访	-10.3527
走私	-10.3529
形象	-10.3529
沉重	-10.3529
势力	-10.353
几个月	-10.3532
册	-10.3538
例外	-10.3538
在这一	-10.3539
抢劫	-10.354
有些人	-10.3542
幼	-10.3542
过往	-10.3546
越来越多的	-10.3552
行人	-10.3557
他是	-10.3557
对外	-10.3564
就要	-10.3565
56	-10.3565
的那样	-10.357
一般性	-10.3584
代价	-10.3591
人事	-10.3593
社会上	-10.3596
床	-10.36
法令	-10.3601
或其他	-10.3602
援	-10.3613
的文化	-10.3613
嘉	-10.3617
辛	-10.3618
该名	-10.3619
莫斯科	-10.3619
在这	-10.362
蒙古	-10.362
摊款	-10.3621
征收	-10.3621
的选举	-10.3624
于二	-10.3629
当日	-10.3635
的效率	-10.3638
时间表	-10.3638
为主	-10.3638
最少	-10.3642
该等	-10.3646
进出口	-10.3652
的和平	-10.3654
但我们	-10.3657
三日	-10.3661
只有在	-10.3662
说明了	-10.3663
没有得到	-10.3666
难民营	-10.3666
带来了	-10.3668
扣	-10.3675
▁各	-10.3678
脸	-10.3685
技术援助	-10.3691
都要	-10.3698
迈	-10.3699
抵	-10.3703
通胀	-10.3708
宫	-10.371
瑞	-10.3711
耶	-10.3711
耳	-10.3712
突破	-10.3712
提供服务	-10.3713
视乎	-10.3713
放缓	-10.3713
60%	-10.3714
手册	-10.3715
白俄罗斯	-10.3716
航天	-10.3717
签发	-10.3717
友好	-10.3717
国民党	-10.3726
案例	-10.3736
15%	-10.3737
处长	-10.3739
男人	-10.3741
和联合国	-10.3744
附	-10.3744
表示关切	-10.3746
激烈	-10.3747
▁妇女	-10.3749
级别	-10.3751
百分之五	-10.3752
近年	-10.3752
七百	-10.3756
的日子	-10.3758
不安	-10.3758
民意	-10.3758
这项工作	-10.3758
化学	-10.3759
九八年	-10.376
债	-10.3761
热烈	-10.3764
台湾的	-10.3767
区议会	-10.3771
交由	-10.3773
回国	-10.3775
正如	-10.3776
好处	-10.3776
无意	-10.3785
旁	-10.3787
▁我们会	-10.3788
评	-10.3792
持有	-10.3792
巨	-10.3795
无论是	-10.3796
排雷	-10.3799
最为	-10.3801
杂	-10.3803
远远	-10.3803
知识产权	-10.3803
抓	-10.3806
壮	-10.3807
辅导	-10.3807
介入	-10.3808
52	-10.3808
附表	-10.3808
冲击	-10.3809
估计为	-10.381
受惠	-10.3811
跨国公司	-10.3811
土着	-10.3813
99	-10.3814
▁教毓署	-10.3816
都知道	-10.3817
百分之二十	-10.3817
恐怖分子	-10.3819
的过程	-10.3822
手术	-10.3824
犯下	-10.3828
都能	-10.3836
的生命	-10.3837
未必	-10.384
产出	-10.3842
在今年	-10.3847
刻	-10.3848
场地	-10.3848
▁法国	-10.3851
却是	-10.3855
恰当	-10.3859
和非	-10.3859
所列	-10.3866
缩短	-10.3868
执行情况	-10.3875
乡村	-10.3876
罪案	-10.3877
维也纳	-10.3879
意识到	-10.388
铺	-10.3885
一万	-10.3886
较大	-10.3888
大会第	-10.389
▁我谨	-10.389
营业	-10.3894
当事方	-10.3895
受害	-10.3896
无线电	-10.3898
丧生	-10.3899
后续行动	-10.39
皈	-10.39
撞	-10.3901
逻辑	-10.3902
兆	-10.3902
面临的	-10.3904
大使馆	-10.3909
更大的	-10.3912
作出贡献	-10.3915
的领导	-10.392
之间的关系	-10.3925
得知	-10.3925
等问题	-10.3926
▁3	-10.3934
该组织	-10.394
运送	-10.3942
暴力行为	-10.3949
区分	-10.3949
返	-10.3959
会见	-10.3962
犯人	-10.3962
的申请	-10.3964
一步	-10.3965
鲜	-10.3966
抢	-10.3966
通报	-10.397
结束后	-10.3974
始	-10.3978
坚定	-10.3983
民国	-10.399
粉	-10.3996
的整体	-10.3996
桑	-10.3997
摄影	-10.3998
朝鲜民主主义人民共和国	-10.3998
赴	-10.3998
妈妈	-10.3998
纠纷	-10.3998
尝试	-10.3998
因特网	-10.3999
防治	-10.4
沙田	-10.4
索取	-10.4001
留意	-10.4001
的力量	-10.4004
致命	-10.4005
加沙	-10.4005
平静	-10.4009
这两	-10.4014
安全和	-10.4015
这些建议	-10.4016
协作	-10.4022
的健康	-10.4022
物业	-10.4026
在北京	-10.4029
口头	-10.4032
地说	-10.4033
密切合作	-10.404
早已	-10.4044
的事实	-10.4054
时限	-10.4057
代表团认为	-10.406
对方	-10.4061
呼吁市民	-10.4083
意思	-10.4085
迁	-10.4086
渔	-10.4086
测	-10.4089
洪	-10.409
敏	-10.4094
庇护	-10.4094
垄断	-10.4095
承建商	-10.4095
秘鲁	-10.4095
宗旨	-10.4095
种类	-10.4096
输入	-10.4096
指责	-10.4097
核试验	-10.4098
打开	-10.4098
干事	-10.41
点九	-10.4107
在场	-10.4108
但在	-10.4108
46	-10.4108
第七	-10.4109
▁1992	-10.4112
印发	-10.4113
舍	-10.4114
地铁	-10.4115
完整	-10.4115
特色	-10.4117
▁同	-10.4118
的公司	-10.4122
村庄	-10.4125
提请	-10.4132
搜集	-10.4133
热线	-10.4136
二零零一年	-10.4136
使他们	-10.4136
角色	-10.4138
三分之二	-10.4144
▁安理会成员	-10.4144
之处	-10.4151
言论	-10.4156
的决议	-10.4159
预算案	-10.4162
四千	-10.4168
单一	-10.4171
响	-10.418
校长	-10.4182
险	-10.4186
的辩论	-10.4189
武力	-10.4191
国际会议	-10.4191
还会	-10.4193
哥斯达黎加	-10.4193
韦	-10.4193
印刷	-10.4193
封锁	-10.4193
癌症	-10.4194
查阅	-10.4194
天然气	-10.4194
热情	-10.4194
否决权	-10.4195
人民币	-10.4195
巴格达	-10.4196
携带	-10.4198
调动	-10.4198
庞大	-10.4201
骗	-10.4202
▁他认为	-10.4209
的改革	-10.4211
衡量	-10.4214
居住在	-10.4214
的主题	-10.4216
不时	-10.4223
贩卖	-10.4226
社会经济	-10.4229
在世界	-10.4231
聚	-10.4232
台北市	-10.4234
感觉	-10.4236
九七	-10.4239
两种	-10.4241
一九九六年	-10.4252
还应	-10.4258
集会	-10.4265
零售	-10.4269
强制性	-10.4271
75	-10.4274
当今	-10.4277
点四	-10.4279
六千	-10.4282
朗	-10.4286
覆盖	-10.4287
设在	-10.4288
埋	-10.429
庄	-10.4291
摄	-10.4291
我们应该	-10.4292
睡	-10.4292
奥地利	-10.4292
技巧	-10.4292
在国际	-10.4292
艰难	-10.4293
预料	-10.4293
照片	-10.4294
城镇	-10.4294
总干事	-10.4295
简化	-10.4295
上学	-10.4296
广场	-10.4296
外汇	-10.4299
▁经	-10.4301
副主席先生	-10.4303
▁运输署	-10.4303
七年	-10.4303
过分	-10.4303
全面的	-10.4305
选手	-10.4305
▁4	-10.4308
成立了	-10.432
高兴	-10.4322
家里	-10.4328
万名	-10.4331
的财政	-10.4334
主要的	-10.4338
的总	-10.4343
妇女在	-10.4348
有害	-10.435
其他人	-10.4353
和政治	-10.4353
经济体系	-10.4355
藉	-10.4356
转口	-10.4356
途	-10.4361
上市	-10.4365
社会服务	-10.4371
在纽约	-10.4372
25%	-10.4372
也就是	-10.4387
二零零二年	-10.4389
卷	-10.4391
点三	-10.4392
禽流感	-10.4392
艾	-10.4392
恶劣	-10.4392
违背	-10.4392
缴付	-10.4393
澳门	-10.4393
东京	-10.4394
营养	-10.4394
聘请	-10.4394
升幅	-10.4396
将为	-10.4398
董事会	-10.4403
全力	-10.4405
继续进行	-10.4406
可致电	-10.4407
组成的	-10.441
地下	-10.4413
次数	-10.4414
开设	-10.4415
政府和	-10.4416
事主	-10.4424
▁5	-10.443
的基础上	-10.4433
所说	-10.4436
的武器	-10.4439
的第一	-10.4444
单方面	-10.4444
[	-10.4446
显得	-10.4446
给我	-10.4447
的价值	-10.4451
的最后	-10.4451
二十日	-10.4451
一批	-10.4452
百分之四	-10.4454
事先	-10.4459
全球性	-10.4461
▁啊	-10.4465
营地	-10.4469
发言人表示	-10.4473
启	-10.448
国际社会的	-10.448
▁1	-10.448
伊拉克政府	-10.4482
融入	-10.4486
还必须	-10.4488
▁台湾	-10.4488
59	-10.4488
办公	-10.4489
技术和	-10.4489
竞选	-10.4489
纯	-10.4491
国际贸易	-10.4491
斗	-10.4491
▁在这	-10.4492
秀	-10.4493
纪律	-10.4493
招聘	-10.4493
表示感谢	-10.4495
举报	-10.4496
施加	-10.4496
气象	-10.4498
刊	-10.4499
清理	-10.4499
增进	-10.4502
出来的	-10.4502
不足以	-10.4503
列为	-10.4505
灾害	-10.4505
显	-10.4505
最高法院	-10.4506
至于	-10.4507
塞族	-10.4511
曾在	-10.4515
隔	-10.4523
▁一名	-10.4537
海上	-10.4542
已开始	-10.4545
儿子	-10.4549
赖	-10.455
政府应	-10.4551
都市	-10.4553
人口基金	-10.4554
作为一个	-10.4554
可以说	-10.4558
不存在	-10.456
赤字	-10.4563
下降了	-10.4563
的一种	-10.4564
人权问题	-10.4565
丹	-10.457
第六	-10.457
早期	-10.4571
的工作人员	-10.4574
便可	-10.4575
麻	-10.4583
的这个	-10.4585
示范	-10.4591
邨	-10.4592
祝	-10.4592
烟	-10.4594
饰	-10.4594
平方米	-10.4595
难民专员办事处	-10.4595
比利时	-10.4595
娱乐	-10.4595
撤销	-10.4595
入侵	-10.4596
警务人员	-10.4597
那时	-10.4599
机构间	-10.4601
世界卫生组织	-10.4602
文章	-10.4605
准许	-10.4606
与其	-10.461
六个月	-10.4614
执行主任	-10.4615
帐	-10.4621
质询	-10.4628
与联合国	-10.4629
妇女和儿童	-10.463
废除	-10.4633
的城市	-10.464
入口	-10.4641
你的	-10.4646
概算	-10.4646
俄	-10.465
弄	-10.4652
房屋署	-10.4653
董建华	-10.4653
解决冲突	-10.4655
轻微	-10.466
的最大	-10.4667
地理	-10.4669
第一季	-10.467
之时	-10.4672
让我们	-10.4675
▁本港	-10.4679
违反了	-10.4682
岸	-10.4687
警官	-10.4688
一件	-10.4693
毕业生	-10.4695
缓慢	-10.4696
呀	-10.4697
累	-10.4697
鼓	-10.4697
振	-10.4698
舞蹈	-10.4698
甘	-10.4698
孔	-10.4698
穆	-10.4698
严厉	-10.4698
迎接	-10.4699
招标	-10.4699
保密	-10.47
和管理	-10.47
杰出	-10.4706
中国内地	-10.4706
引进	-10.4706
该报告	-10.4709
要素	-10.4714
第二季	-10.4715
中美洲	-10.4731
给我们	-10.4734
道理	-10.4736
外债	-10.4741
因为他们	-10.4743
中国大陆	-10.4745
联合国在	-10.4746
做了	-10.4748
网上	-10.4751
另有	-10.4754
极其	-10.4756
其工作	-10.4756
的出口	-10.4757
行政当局	-10.476
习	-10.476
和技术	-10.4761
类似的	-10.4765
这次会议	-10.4768
▁假如	-10.4769
的传统	-10.4772
联合会	-10.4772
深圳	-10.4774
行径	-10.4774
一支	-10.4782
和非政府组织	-10.4783
辖下	-10.4783
董事	-10.4786
告知	-10.4789
筹备委员会	-10.4789
植物	-10.4792
多了	-10.4792
定居	-10.4795
倾向	-10.4796
全年	-10.4798
浪	-10.4798
引起了	-10.4802
医管局	-10.4802
审慎	-10.4803
减薪	-10.4804
联阵	-10.4805
汇报	-10.4806
自然灾害	-10.4806
结束时	-10.4808
利息	-10.4809
拟定	-10.481
的管理	-10.4811
的名字	-10.4817
和平协定	-10.4819
尤其是在	-10.482
军事行动	-10.4823
民主化	-10.4828
新闻界	-10.4829
族裔	-10.483
工商	-10.4832
派出	-10.4834
极大	-10.4837
很容易	-10.4838
龄	-10.4842
该项目	-10.4843
成人	-10.4844
的根源	-10.4846
的必要	-10.4848
▁委员会认为	-10.4854
自卫	-10.4854
管理和	-10.4855
货车	-10.4856
▁按	-10.4859
都不	-10.4861
的损失	-10.4861
▁一九九八年	-10.4862
仔细	-10.487
运行	-10.4871
商人	-10.4872
周期	-10.4875
香港政府	-10.4889
裁定	-10.489
不如	-10.4895
己	-10.4901
八千	-10.4905
律政司	-10.4908
谅解	-10.4908
委内瑞拉	-10.4908
蔡	-10.4908
披露	-10.4908
个百分点	-10.4908
复兴	-10.4909
强劲	-10.4914
全力支持	-10.4915
水准	-10.4916
信仰	-10.4916
之际	-10.4917
约束	-10.4917
的指控	-10.4918
记得	-10.492
其他地方	-10.492
▁特别是	-10.4921
金钱	-10.4921
▁财政司司长	-10.4924
航空公司	-10.4924
被认为是	-10.4924
前进	-10.4929
代表说	-10.4947
接受治疗	-10.4949
七日	-10.4957
新机场	-10.4959
的援助	-10.4961
诊所	-10.4961
北方	-10.4962
代表性	-10.4966
公安	-10.4971
遗	-10.4971
有关各方	-10.4974
办事	-10.4975
成功的	-10.4978
▁嗯	-10.4985
身份证	-10.499
的军事	-10.4994
▁如今	-10.4998
辟	-10.4999
直升机	-10.5001
的价格	-10.5002
议	-10.5006
▁其次	-10.5007
忙	-10.5009
豪	-10.501
仪	-10.5011
大规模的	-10.5012
不愿意	-10.5012
霍	-10.5014
糖	-10.5014
哈萨克斯坦	-10.5014
这么多	-10.5014
裁军谈判会议	-10.5014
利比亚	-10.5014
凌晨	-10.5014
排斥	-10.5014
详尽	-10.5015
排放	-10.5015
从来没有	-10.5016
有义务	-10.5017
自决	-10.5018
东盟	-10.5018
成熟	-10.5021
间接	-10.5024
区别	-10.5027
效应	-10.5035
探	-10.504
明日	-10.5042
地盘	-10.5043
非洲大陆	-10.5043
原本	-10.5043
大国	-10.5045
不平等	-10.5045
我也	-10.5046
徒	-10.5047
限于	-10.5048
▁本人	-10.5048
发给	-10.5049
一些人	-10.5053
▁他强调	-10.5054
几次	-10.5054
反映出	-10.5063
的预算	-10.5064
家园	-10.5068
总结	-10.5074
址	-10.5081
年间	-10.5083
6000	-10.5087
货品	-10.5096
获释	-10.5096
担忧	-10.5097
泥	-10.5107
发了言	-10.5107
释	-10.5113
哥	-10.5115
不确定	-10.5115
困	-10.5118
尖沙嘴	-10.5122
嘉宾	-10.5122
摆脱	-10.5122
商讨	-10.5122
思考	-10.5123
▁与会者	-10.5123
?"	-10.5123
报纸	-10.5125
启用	-10.5128
此外	-10.5128
一群	-10.5129
57	-10.5131
第二个	-10.5132
冠	-10.5138
司法机构	-10.5139
中非共和国	-10.514
递交	-10.5148
究竟	-10.5153
这些活动	-10.5153
参与者	-10.5154
我不	-10.5155
▁俄罗斯	-10.5157
教毓和	-10.5161
输	-10.5163
多万	-10.5163
核武器国家	-10.5164
卫	-10.5168
一个人	-10.517
码头	-10.5171
消防	-10.5177
75%	-10.5178
目标是	-10.5178
同学	-10.5178
会见了	-10.518
68	-10.5182
这笔	-10.5183
更有	-10.5197
我们都	-10.5197
▁我要	-10.5205
▁今日	-10.5208
捕	-10.5209
就在	-10.5209
东北	-10.5211
弗	-10.5215
为其	-10.5216
的目标是	-10.5218
外资	-10.5219
▁届时	-10.5224
阻	-10.5225
冬	-10.5226
先进	-10.5226
不用	-10.5228
─	-10.523
寒	-10.523
庙	-10.523
辱	-10.523
耀	-10.523
辉	-10.523
赞比亚	-10.523
恐吓	-10.523
宋	-10.523
累积	-10.5231
面向	-10.5231
西岸	-10.5233
评审	-10.5234
办理	-10.5234
紧密	-10.5235
活力	-10.5236
98	-10.5239
名额	-10.5242
司法部	-10.5243
2006	-10.5254
自从	-10.5257
▁警方今日	-10.5261
提供给	-10.5262
让他们	-10.5266
可供	-10.5266
不公平	-10.5267
马里	-10.5268
主流	-10.5269
不一定	-10.5272
的选择	-10.5274
和国际	-10.5277
和环境	-10.528
湾仔	-10.5284
的意愿	-10.5285
五十周年	-10.5287
该计划	-10.5292
何时	-10.5298
读者	-10.5299
财	-10.5304
在国内	-10.5308
在全国	-10.531
如下	-10.5313
的最新	-10.5319
▁1990	-10.5322
苏联	-10.5325
呈	-10.5326
经济活动	-10.5326
固	-10.5327
水质	-10.5327
通货膨胀	-10.5329
富有	-10.5329
内政部	-10.5331
复苏	-10.5332
败	-10.5335
蓄	-10.5339
签字	-10.5339
醒	-10.5339
着名	-10.5339
波多黎各	-10.534
舆论	-10.534
引渡	-10.5341
不妨	-10.5341
百分之三十	-10.5341
其实是	-10.5341
开采	-10.5344
麦	-10.5345
了许多	-10.5345
作物	-10.5348
权益	-10.5348
日趋	-10.5352
动力	-10.5353
不当	-10.5356
这位	-10.5356
被判	-10.5357
带着	-10.5359
品牌	-10.536
时刻	-10.5364
百分之三	-10.5365
禁毒	-10.5366
空前	-10.5373
误	-10.5375
不良	-10.5378
▁估计	-10.5379
中华	-10.538
同等	-10.5382
大选	-10.5384
增多	-10.5388
因应	-10.5388
该国政府	-10.5395
农村地区	-10.5396
中英	-10.5396
至少有	-10.5399
都可以	-10.5403
马上	-10.5409
这条	-10.5409
委员会的工作	-10.5412
97	-10.5416
遗憾	-10.5418
因为它	-10.542
社会人士	-10.542
的机制	-10.5421
灾	-10.5426
走向	-10.5428
分裂	-10.5443
劳动力	-10.5448
灭	-10.5451
尸体	-10.5451
嘛	-10.5451
延续	-10.5452
特别会议	-10.5452
多元化	-10.5453
超越	-10.5454
服装	-10.5454
谈论	-10.5454
保养	-10.5454
势头	-10.5458
但它	-10.5459
▁面对	-10.5461
▁随后	-10.5461
现行的	-10.5462
阅读	-10.5462
部落	-10.5467
▁本报告	-10.5469
我们亦	-10.547
必需	-10.5472
同情	-10.5478
这些措施	-10.5488
▁应当	-10.5489
世界各国	-10.549
才可	-10.5493
后面	-10.5498
月二十五日	-10.55
▁大多数	-10.5501
这问题	-10.5501
关税	-10.5509
想要	-10.5509
日开始	-10.551
的一切	-10.551
百分比	-10.551
也必须	-10.5511
裁决	-10.5513
反恐	-10.5516
衣服	-10.5517
改组	-10.5526
拖欠	-10.5526
两天	-10.5533
的报道	-10.5534
预定	-10.5539
受益	-10.5547
严重影响	-10.5554
阁下	-10.5556
抱	-10.5557
中央政府	-10.556
牙	-10.556
损	-10.5561
在内	-10.5563
癌	-10.5563
粗	-10.5563
扎伊尔	-10.5564
锡	-10.5564
几内亚	-10.5564
厄瓜多尔	-10.5564
炉	-10.5564
蔓延	-10.5564
赞助	-10.5564
勇气	-10.5564
的经费	-10.5565
传染病	-10.5565
审核	-10.5567
梦想	-10.5568
将对	-10.5568
送交	-10.5569
民生	-10.5572
样本	-10.5573
疫苗	-10.5576
大会堂	-10.558
损坏	-10.5583
成为一个	-10.5587
生产力	-10.5588
愿望	-10.5598
是可以	-10.5611
八年	-10.5612
▁其后	-10.5617
一句	-10.5618
是没有	-10.5618
英国政府	-10.5626
进一步加强	-10.5627
找出	-10.5635
大小	-10.5638
宝贵的	-10.5639
面临着	-10.5641
超出	-10.5641
今晚	-10.5641
我们已	-10.5646
的联系	-10.5647
含有	-10.5651
重要的是	-10.5652
侧	-10.5656
通道	-10.5657
寻	-10.5657
剥削	-10.5664
迫	-10.5667
掌	-10.5671
的成就	-10.5672
截止	-10.5677
爸爸	-10.5677
纳米比亚	-10.5677
秒	-10.5677
典礼	-10.5677
一部分	-10.5677
填补	-10.5678
营养不良	-10.5678
扭转	-10.5678
聚集	-10.5678
停车场	-10.5679
收容	-10.568
摘要	-10.5682
▁该名	-10.5682
北约	-10.5683
接收	-10.5684
获得了	-10.5686
▁巴基斯坦	-10.5688
并会	-10.5692
代表发了言	-10.5693
示威者	-10.5694
的车辆	-10.5694
结果是	-10.5695
使人	-10.5696
的存在	-10.57
各界	-10.5701
调查显示	-10.5702
▁这就是	-10.5703
的生产	-10.5704
我请	-10.5705
初期	-10.5711
▁我现在	-10.5713
民主和	-10.5715
感兴趣	-10.5719
▁第四	-10.5719
将以	-10.5722
各会员国	-10.5723
当作	-10.573
法律规定	-10.5733
的个人	-10.5734
▁任何	-10.5736
载列	-10.574
的风险	-10.5741
66	-10.5748
海关人员	-10.5751
今早	-10.5751
合理的	-10.5752
▁委员会建议	-10.5754
全球经济	-10.5754
的罪行	-10.576
我刚才	-10.5765
引起的	-10.5766
是非常	-10.5767
干涉	-10.577
的前景	-10.5771
▁所有这些	-10.5776
生毓	-10.5782
在伊拉克	-10.5784
京	-10.5785
账	-10.5788
宾	-10.5791
圆桌会议	-10.5792
蛋	-10.5792
数码	-10.5793
演奏	-10.5793
动荡	-10.5793
柴油	-10.5793
深感	-10.5795
包装	-10.5795
引入	-10.5798
▁案件	-10.5803
就像	-10.5805
巴林	-10.5807
更换	-10.5812
用以	-10.5814
版本	-10.5814
积极的	-10.5819
▁答	-10.5821
伤者	-10.5823
层次	-10.5826
就能	-10.5826
▁世界	-10.583
先前	-10.5841
产生的	-10.5842
78	-10.5845
深信	-10.5845
一段时间	-10.5847
也应	-10.5849
五日	-10.5854
触	-10.5854
忘记	-10.5862
他对	-10.5883
尼亚	-10.5885
的重大	-10.5886
基础上	-10.5887
绑架	-10.5889
财政司司长	-10.5891
识	-10.5892
的改变	-10.5892
孟加拉国	-10.5892
国内流离失所者	-10.5895
在第	-10.5895
确	-10.59
残	-10.5904
岛屿	-10.5905
遍	-10.5906
▁众所周知	-10.5908
!"	-10.5908
毕竟	-10.5908
雾	-10.5909
匈牙利	-10.5909
羊	-10.5909
鬼	-10.5909
困扰	-10.5909
征聘	-10.5909
逃离	-10.591
月中旬	-10.591
基准	-10.5911
可靠	-10.5912
残疾人士	-10.5914
▁我们对	-10.5914
科索沃特派团	-10.5916
日本政府	-10.5916
快乐	-10.5917
经理	-10.5918
的理想	-10.5921
将与	-10.5922
站在	-10.5923
一事	-10.5923
▁这将	-10.5924
的战略	-10.5924
也不是	-10.5926
提醒市民	-10.5927
的人权	-10.5927
的专业	-10.5932
分摊	-10.5936
那种	-10.5938
租用	-10.5939
强调了	-10.5944
唯一的	-10.5948
我对	-10.5949
的修正案	-10.5949
百分之一	-10.5953
本届会议	-10.5953
以免	-10.5955
框架内	-10.5957
专业人员	-10.5964
与中国	-10.5972
实力	-10.5976
搬	-10.598
处罚	-10.5981
方针	-10.5985
上涨	-10.5991
了很多	-10.5992
政府当局	-10.5998
使用者	-10.5998
定为	-10.5998
工作者	-10.5999
▁曾荫权	-10.6002
幼儿	-10.6005
51	-10.6005
闻	-10.6007
和文化	-10.6012
过来	-10.6014
杯	-10.6016
不允许	-10.6022
▁(2)	-10.6022
翻译	-10.6023
边缘	-10.6025
汤	-10.6026
信托基金	-10.6026
屋宇署	-10.6026
考验	-10.6026
朝鲜半岛	-10.6026
私有化	-10.6028
将于明日	-10.6029
军火	-10.6029
发售	-10.6031
转交	-10.6032
权威	-10.6034
军事观察员	-10.6035
军方	-10.6039
无关	-10.6041
结果显示	-10.6042
可望	-10.6042
并对	-10.6043
有一	-10.6045
很有	-10.6047
发言人今日	-10.6048
在二	-10.6049
少于	-10.605
此一	-10.6051
培训班	-10.6051
中亚	-10.6054
各代表团	-10.6057
一定会	-10.6061
人为	-10.6062
各部门	-10.6063
我们可以	-10.6063
政府会	-10.6063
想象	-10.6064
暂	-10.6065
会使	-10.6067
有不少	-10.607
率为	-10.6071
废	-10.6071
不清楚	-10.6074
已经在	-10.6088
更改	-10.6088
初级	-10.6096
的职责	-10.6096
被拘留	-10.6101
加工	-10.6102
后续	-10.6108
播	-10.6108
的全面	-10.6111
和平解决	-10.6114
指挥官	-10.6118
4000	-10.612
派发	-10.6122
安全问题	-10.6124
其中一个	-10.6124
见附件	-10.6127
亲自	-10.6128
震	-10.6131
驶	-10.6134
范	-10.6134
正好	-10.6135
监	-10.6137
将有助于	-10.6137
施政	-10.6137
储	-10.6139
住所	-10.6139
将成为	-10.6139
▁据报道	-10.6139
禁运	-10.6142
较少	-10.6142
怪	-10.6143
炎	-10.6145
锋	-10.6145
萨尔瓦多	-10.6145
逊	-10.6145
拯救	-10.6145
旺角	-10.6146
谢谢	-10.6147
在大会	-10.6149
1985	-10.615
陆续	-10.615
债权人	-10.6152
展出	-10.6154
流通	-10.6154
被拘留者	-10.6154
香港邮政	-10.6156
近日	-10.6156
孩子们	-10.616
西非	-10.616
月以来	-10.6162
召开的	-10.6164
秘书长报告	-10.6166
转型	-10.6167
心里	-10.6168
争论	-10.6169
的非	-10.6174
达致	-10.6176
高中	-10.618
61	-10.618
亚太区	-10.6188
吸收	-10.6191
当然是	-10.6193
医学	-10.6197
挑	-10.62
一带	-10.6201
市场经济	-10.6201
现状	-10.6203
▁无论	-10.6204
可是	-10.6205
维和行动	-10.6208
具体的	-10.6209
其他地区	-10.621
被人	-10.6215
的工具	-10.6217
统	-10.6221
▁我们欢迎	-10.6222
▁预期	-10.6223
个月内	-10.6223
原因是	-10.6224
一片	-10.6229
加强了	-10.6234
足够的	-10.6234
万吨	-10.6236
联合国会员国	-10.6239
形式的	-10.624
对所有	-10.6241
所造成的	-10.6242
猪	-10.6247
尊严	-10.6249
复杂的	-10.625
的斗争	-10.625
滑	-10.6257
与合作	-10.6257
人是	-10.6257
域	-10.6257
的居民	-10.6259
逢	-10.626
货柜	-10.6263
虎	-10.6263
刑罚	-10.6264
什	-10.6264
祥	-10.6265
非统组织	-10.6266
非自治领土	-10.6266
恐惧	-10.6266
爱滋病	-10.6266
忽略	-10.6266
妥协	-10.6266
智慧	-10.6266
官方发展援助	-10.6266
授予	-10.6266
芬兰	-10.6266
机械	-10.6267
品质	-10.6268
领先	-10.6271
其中一些	-10.6274
疑	-10.6274
该部	-10.6276
公报	-10.6277
订定	-10.6277
▁刚才	-10.628
盈余	-10.6281
阿尔	-10.6282
段中	-10.6283
对伊拉克	-10.6283
也能	-10.6286
卫生部	-10.6287
在这些	-10.6288
以至	-10.629
波动	-10.6292
任何国家	-10.6293
过度	-10.6303
大量的	-10.6305
的请求	-10.6306
向委员会	-10.631
上次	-10.6311
的答复	-10.6313
是联合国	-10.6325
与美国	-10.6329
已经成为	-10.6329
不同意	-10.6333
第一阶段	-10.6335
五名	-10.6337
做好	-10.6339
法制	-10.6342
运输署	-10.6342
以致	-10.6343
房地产	-10.6344
规定了	-10.6344
可于	-10.6349
国防	-10.6352
个星期	-10.6354
但我	-10.6362
动机	-10.6366
人质	-10.6367
夺	-10.6369
低收入	-10.6373
欧元	-10.6375
1970	-10.6376
经由	-10.6382
重大的	-10.6385
牧	-10.6386
锦	-10.6387
壁	-10.6388
吊	-10.6388
阿拉伯叙利亚共和国	-10.6388
借此机会	-10.6388
骂	-10.6388
驱逐	-10.6388
秘密	-10.6388
僵局	-10.6388
编辑	-10.6388
课题	-10.6388
海岸	-10.6388
售卖	-10.6389
公营	-10.6389
化验	-10.6389
成本效益	-10.6389
求助	-10.6389
探员	-10.639
宣称	-10.639
二十二	-10.6392
群岛	-10.6393
建造业	-10.6397
流离失所者	-10.6398
输往	-10.6398
均衡	-10.6399
大约有	-10.6399
已将	-10.64
▁于是	-10.6403
历来	-10.6406
最新的	-10.6407
熟悉	-10.6408
的想法	-10.6411
多达	-10.6411
有很大	-10.6413
某个	-10.6417
和国家	-10.6423
的感觉	-10.6426
▁据报告	-10.6426
的声音	-10.6427
每人	-10.6428
一百五十	-10.6428
兴趣	-10.6429
俗	-10.643
附近的	-10.6437
大幅度	-10.6437
发展权	-10.6451
组织和	-10.6453
▁9	-10.6453
上了	-10.6455
在本港	-10.6456
违法	-10.6458
▁毫无疑问	-10.6459
是这样	-10.646
已经开始	-10.6461
的证据	-10.6469
的局面	-10.647
▁让我们	-10.6471
▁(1)	-10.6478
前途	-10.6479
最重要	-10.6482
下令	-10.6482
▁否则	-10.6485
可用	-10.6488
120	-10.6489
顾及	-10.6492
这种做法	-10.6498
▁陈	-10.65
急剧	-10.6503
教训	-10.6504
轨	-10.6508
篇	-10.6509
洞	-10.651
经贸	-10.651
奶	-10.6511
虫	-10.6511
吹	-10.6511
泳滩	-10.6511
特遣队	-10.6511
缺陷	-10.6511
杀伤地雷	-10.6512
教材	-10.6512
登记册	-10.6512
1987	-10.6513
保守	-10.6513
的立法	-10.6513
两千	-10.6514
时代的	-10.6516
姓名	-10.6518
商务	-10.6519
谈及	-10.6522
所提出的	-10.6523
犯罪行为	-10.6525
毁坏	-10.6525
反恐怖主义	-10.6527
个小时	-10.6528
南北	-10.653
对妇女	-10.6533
年年底	-10.6536
几年	-10.654
至二	-10.6542
缓解	-10.6543
商会	-10.6545
制品	-10.6548
制定了	-10.6551
的全球	-10.6552
有力	-10.6562
应对	-10.6564
我们不能	-10.6565
手法	-10.6567
和平与	-10.6567
接到	-10.6567
▁每	-10.6568
的痛苦	-10.6571
制定的	-10.658
父	-10.6587
百分之二	-10.6597
一度	-10.6599
的愿望	-10.6601
人选	-10.6602
是从	-10.6604
有关方面	-10.6605
劫	-10.6609
缓	-10.6614
也就	-10.6614
毁	-10.662
▁据估计	-10.662
知名	-10.662
顾	-10.6621
较多	-10.6621
表面	-10.6623
技	-10.6623
的暴力	-10.6627
赢	-10.6631
的数量	-10.6632
▁德国	-10.6632
丧	-10.6632
此案	-10.6634
一开始	-10.6635
不容易	-10.6636
鸿	-10.6636
证监会	-10.6636
保加利亚	-10.6636
部队派遣国	-10.6636
酸	-10.6636
辅助	-10.6636
的组织	-10.6637
外国直接投资	-10.6637
电子商务	-10.6637
讲述	-10.6638
之上	-10.6639
根据第	-10.6639
借口	-10.6639
在全球	-10.6639
亿港元	-10.6639
亲属	-10.664
医疗服务	-10.6641
既定	-10.6641
份额	-10.6645
这件事	-10.6645
十六日	-10.6646
不等	-10.6646
厂商	-10.6651
我国政府	-10.6652
和支持	-10.6653
正在进行	-10.6653
越来越多	-10.6659
由政府	-10.6661
提出建议	-10.6664
▁张	-10.6669
薪酬	-10.6674
消防处	-10.6677
原有	-10.6677
审议了	-10.6689
的最佳	-10.6695
在所有	-10.6697
的市民	-10.6697
业者	-10.6704
领域中	-10.6712
污水	-10.6713
可向	-10.6715
诚	-10.6719
64	-10.6721
北美	-10.6721
计划在	-10.6722
出席了	-10.6723
星期	-10.6724
则为	-10.6726
弃	-10.6741
这一切	-10.6742
三十分	-10.6743
共和国总统	-10.6747
论点	-10.6749
已向	-10.675
和安全	-10.6752
盗	-10.6753
也可能	-10.6756
警察局	-10.6757
不对	-10.6757
稳	-10.6757
的一个重要	-10.6758
力求	-10.6759
黎	-10.6761
珍	-10.6761
侨	-10.6761
玛	-10.6762
辈	-10.6763
大规模毁灭性武器	-10.6763
啦	-10.6763
鸭	-10.6763
刺激	-10.6763
谨慎	-10.6763
仓库	-10.6763
竟然	-10.6764
弹药	-10.6765
参选	-10.6765
基建	-10.6766
预先	-10.6766
协商一致	-10.6766
使用武力	-10.6771
打破	-10.6773
国集团	-10.6778
流量	-10.6779
收到的	-10.678
弹性	-10.6784
▁8	-10.6785
很高兴	-10.6786
发表了	-10.6792
必定	-10.6797
从此	-10.6798
所做的	-10.6803
学位	-10.6804
在执行	-10.6808
地方当局	-10.6813
长期以来	-10.6815
有关资料	-10.6816
所带来的	-10.6817
效力	-10.6823
一边	-10.6824
约占	-10.6827
幸	-10.6828
露	-10.6833
起了	-10.6837
研究报告	-10.6839
▁欧盟	-10.6844
舞台	-10.6849
的审议	-10.685
落后	-10.6853
和平与发展	-10.6855
的企业	-10.686
经济体	-10.6862
紧急情况	-10.6863
负有	-10.6872
第三个	-10.6873
请秘书长	-10.6875
历史性	-10.6875
合作伙伴	-10.6875
所有这些	-10.6877
贫	-10.6881
改造	-10.6881
病例	-10.6884
十日	-10.6888
巧	-10.6889
荷	-10.6889
栏	-10.689
刺	-10.6891
邓	-10.6891
养恤金	-10.6891
堡	-10.6891
辐射	-10.6891
隔离	-10.6891
新技术	-10.6891
幼稚园	-10.6891
吸毒	-10.6891
经济及社会理事会	-10.6891
奇怪	-10.6892
祝愿	-10.6892
69	-10.6892
参照	-10.6892
播放	-10.6892
互动	-10.6893
航班	-10.6893
坚信	-10.6894
气温	-10.6894
环节	-10.6896
观察团	-10.6896
问题时	-10.6897
渔船	-10.6897
标志着	-10.6899
在台湾	-10.69
提问	-10.69
这一进程	-10.69
基本原则	-10.6901
迫切需要	-10.6902
管理人员	-10.6905
可疑	-10.6905
非常重视	-10.6909
老人家	-10.6909
缩小	-10.6911
▁的确	-10.6912
走上	-10.6912
是最	-10.6917
的分析	-10.6918
遭迂	-10.6919
▁委员会对	-10.692
系列	-10.6924
头部	-10.6925
税收	-10.6926
2%。	-10.6929
今天的	-10.693
和执行	-10.693
集中于	-10.6931
的设计	-10.6931
打击恐怖主义	-10.6934
社会和	-10.6936
挑选	-10.6939
该署	-10.694
百分之六	-10.6942
▁相信	-10.6944
摆	-10.6947
企业家	-10.6947
届时	-10.6953
境内的	-10.6954
的个案	-10.6957
我们欢迎	-10.6957
题	-10.6964
▁一旦	-10.6964
▁好	-10.6964
的保护	-10.6967
常设	-10.6968
进行研究	-10.6973
延误	-10.6975
事务委员会	-10.6975
看待	-10.6978
并向	-10.6981
份子	-10.6984
特性	-10.6986
对中国	-10.6988
积	-10.699
的时刻	-10.6992
剩	-10.6995
惊人	-10.6996
在今后	-10.6999
毫不	-10.7002
屠杀	-10.7009
硬	-10.7009
聘	-10.701
伍	-10.7012
加大	-10.7014
隐	-10.7017
经常预算	-10.7019
早在	-10.7021
实验	-10.7021
枝	-10.7021
拥挤	-10.7021
奖学金	-10.7021
将使	-10.7021
弥补	-10.7021
富裕	-10.7021
制衡	-10.7021
中小企业	-10.7022
观测	-10.7022
色彩	-10.7022
代替	-10.7023
近来	-10.7023
居留权	-10.7023
到目前为止	-10.7023
玩具	-10.7024
花园	-10.7025
副总理	-10.7026
紧张局势	-10.7027
一般人	-10.7029
中立	-10.7032
曾荫权	-10.7032
等候	-10.7033
分散	-10.7034
基因	-10.7041
所致	-10.7043
执政	-10.7044
罪名	-10.7045
有所增加	-10.705
学年	-10.7051
今天上午	-10.7054
的朋友	-10.7059
的战争	-10.7061
是否有	-10.7064
对该	-10.7065
但仍	-10.7066
危及	-10.7068
第三次	-10.7069
能够在	-10.7072
民主国家	-10.7075
的信心	-10.7077
这些都是	-10.7078
▁(3)	-10.7083
胜利	-10.7083
在一个	-10.7088
三人	-10.7089
做得	-10.7089
境	-10.709
不准	-10.7091
地图	-10.7096
山区	-10.7098
89	-10.7098
的部分	-10.7099
月十五日	-10.7101
的同事	-10.7104
金融市场	-10.7105
的制度	-10.711
简报	-10.711
裔	-10.7114
无数	-10.7114
详	-10.7116
够	-10.7118
策	-10.7118
可怕的	-10.712
强大	-10.7129
喀布尔	-10.713
在港	-10.7135
▁调查	-10.7136
司法制度	-10.7137
上面	-10.7141
分开	-10.7142
达到了	-10.7142
的方向	-10.7143
85	-10.7145
的声明	-10.7145
补救	-10.7147
创业	-10.7149
有两个	-10.715
钢	-10.7152
闹	-10.7152
吓	-10.7152
贤	-10.7152
吗	-10.7152
外层空间	-10.7152
崩溃	-10.7152
途迳	-10.7153
自决权	-10.7153
毫米	-10.7153
含义	-10.7154
1986	-10.7154
题目	-10.7154
议席	-10.7155
香港特区	-10.7155
修复	-10.7155
警署	-10.7158
流失	-10.7158
讲座	-10.7158
大埔	-10.7159
股东	-10.716
益	-10.7161
的命运	-10.7163
暴行	-10.7166
排雷行动	-10.7166
世贸组织	-10.7167
工业化国家	-10.7167
罚	-10.7167
强化	-10.7171
台商	-10.7171
信号	-10.7171
特别重视	-10.7177
清除	-10.7178
预防冲突	-10.7178
重要作用	-10.718
代理	-10.7183
高科技	-10.7183
身分	-10.7183
话题	-10.7184
拨出	-10.7185
▁我们要	-10.7186
特权	-10.7186
退出	-10.7188
▁图片	-10.7193
时机	-10.7193
殖民地	-10.7195
尊重人权	-10.7197
工作中	-10.7201
的商业	-10.7202
最重要的是	-10.7202
国防部	-10.7204
人家	-10.7211
百分之五十	-10.7213
的条款	-10.7213
58	-10.7213
自主	-10.7215
赢得	-10.7219
又有	-10.722
开枪	-10.7221
认捐	-10.723
和加强	-10.7232
为基础	-10.7234
国际和平与安全	-10.7239
分区域	-10.7239
警卫	-10.7245
有资格	-10.7246
教毓部	-10.7249
目睹	-10.7252
工作方法	-10.7252
颗	-10.7257
他们对	-10.7257
奉	-10.7262
▁可惜	-10.7263
明确的	-10.7264
发言人说	-10.7265
组成部分	-10.7269
交付	-10.727
阅	-10.7271
邻	-10.7274
走出	-10.7275
影响力	-10.728
它将	-10.7282
相似	-10.7282
模	-10.7282
宏	-10.7285
传染	-10.7285
迳	-10.7285
琴	-10.7285
溪	-10.7286
教科文组织	-10.7286
慷慨	-10.7286
卅	-10.7286
共产党	-10.7286
吸蔫	-10.7286
简介	-10.7286
罗马尼亚	-10.7286
宿舍	-10.7286
巡查	-10.7286
注射	-10.7287
简短	-10.7287
创意	-10.7289
广州	-10.7289
旅费	-10.7289
机迂	-10.7289
几十年	-10.7294
合法性	-10.7296
加价	-10.7297
共计	-10.7297
任意	-10.73
上升至	-10.73
工业化	-10.7301
▁委员会注意到	-10.7305
中午	-10.7307
第三季	-10.7309
的议案	-10.7311
在日内瓦	-10.7314
新兴	-10.7318
致使	-10.7324
界别	-10.7328
经营者	-10.7328
西区	-10.733
▁她们	-10.733
应予	-10.7333
该问题	-10.7334
▁很多	-10.734
估计数	-10.7341
都不能	-10.7344
▁但在	-10.7346
▁另一个	-10.7346
健全	-10.7349
上任	-10.735
拟议	-10.735
以此	-10.7357
由此	-10.7359
的主要原因	-10.7363
取得成功	-10.7364
出发	-10.7365
房屋委员会	-10.7366
的规则	-10.7366
▁王	-10.7366
一时	-10.7368
的孩子	-10.737
东欧	-10.7371
坐在	-10.7372
款额	-10.7377
作出努力	-10.738
但没有	-10.7382
发展计划	-10.7385
澳	-10.7385
环境保护	-10.7387
地产	-10.7391
批出	-10.7393
暴力和	-10.7395
中所	-10.7395
访问了	-10.7404
制造商	-10.7404
一百一十	-10.7412
察	-10.7413
女生	-10.7413
妇	-10.7414
的业务	-10.7414
配额	-10.7414
大为	-10.7414
召	-10.7415
拒	-10.7415
祸	-10.7418
尊	-10.7418
贺	-10.7419
役	-10.7419
▁如果我们	-10.7419
的难民	-10.742
耗	-10.742
前所未有的	-10.7421
塔吉克斯坦	-10.7421
彭	-10.7421
铜	-10.7421
翁	-10.7421
渴望	-10.7421
储蓄	-10.7421
荣幸	-10.7421
62	-10.7422
密集	-10.7422
拍卖	-10.7422
机密	-10.7423
演讲	-10.7423
管理国	-10.7423
广东省	-10.7425
产品的	-10.7427
太太	-10.7428
财政预算案	-10.7429
九九年	-10.7429
的开支	-10.743
私营机构	-10.7431
被送往	-10.7433
首相	-10.7435
▁该公司	-10.7435
政治意愿	-10.7435
去世	-10.7438
违	-10.7438
食四	-10.7438
长达	-10.7438
保健服务	-10.744
情形	-10.7441
剩余	-10.7442
大部份	-10.7444
常会	-10.7444
前来	-10.745
后勤	-10.7451
角度	-10.7451
所提供的	-10.7453
该区	-10.7453
特设委员会	-10.7456
那是	-10.7463
木材	-10.7466
来往	-10.7466
的身份	-10.7467
的最高	-10.7468
宣传活动	-10.7473
将军	-10.7474
无效	-10.7481
临时立法会	-10.7485
的市场	-10.749
集团的	-10.7492
的训练	-10.7498
上周	-10.7501
不明	-10.7512
执	-10.7514
院校	-10.7515
每周	-10.7515
该条约	-10.7516
▁索赔人	-10.7518
税务	-10.7522
不多	-10.7524
人被	-10.7527
普通法	-10.7528
年起	-10.7534
对这种	-10.7536
▁主席说	-10.7539
很低	-10.7539
提出的问题	-10.754
的兴趣	-10.7541
零零	-10.7547
一张	-10.7548
我很	-10.7549
社会问题	-10.7549
劲	-10.755
深切	-10.7551
死因	-10.7554
几乎所有	-10.7555
沃	-10.7555
纵	-10.7556
消费物价指数	-10.7557
默	-10.7557
和其它	-10.7557
捍卫	-10.7558
乙	-10.7558
脉	-10.7558
坎	-10.7558
盐	-10.7558
友谊	-10.7558
荣誉	-10.7558
不起	-10.7558
入境事务处	-10.7558
策划	-10.7558
探索	-10.7559
删去	-10.7559
草拟	-10.756
确信	-10.756
儿童权利公约	-10.7561
访港	-10.7562
池	-10.7562
计画	-10.7563
回归	-10.7564
这些机构	-10.7564
雇佣军	-10.7566
原先	-10.757
杀死	-10.7572
斯特	-10.7572
必要时	-10.7574
余额	-10.7574
中非	-10.7575
管道	-10.7576
案中	-10.7576
▁我还要	-10.7579
经历了	-10.7581
这样一个	-10.7582
市场上	-10.7585
了解到	-10.7586
监督厅	-10.7588
四名	-10.759
无论如何	-10.759
国王	-10.7594
国家元首	-10.7596
一生	-10.7597
国际上	-10.7599
际	-10.7602
和促进	-10.7602
▁劳工处	-10.7608
摧毁	-10.7609
▁在这个	-10.7609
也很	-10.7612
说服	-10.7615
巴勒斯坦问题	-10.7616
一九九	-10.7625
有趣	-10.7633
何种	-10.7635
肯	-10.7637
加重	-10.7641
规	-10.7642
过去几年	-10.7646
诸	-10.7647
意愿	-10.7647
第十	-10.7654
重案组	-10.7654
致电	-10.7656
摊	-10.7659
▁我还	-10.7659
点七	-10.766
水资源	-10.7661
浮	-10.7666
向他们	-10.7667
盟	-10.7667
内外	-10.7668
的详细	-10.7668
局局长	-10.767
特设	-10.7671
进度	-10.7676
所能	-10.7677
举办的	-10.7678
说法	-10.7678
该决议	-10.7681
得出	-10.7681
的倡议	-10.7686
▁加拿大	-10.7689
违例	-10.7689
体现了	-10.7692
晓	-10.7692
卸	-10.7694
混	-10.7695
与香港	-10.7696
仙	-10.7697
牙买加	-10.7697
逼	-10.7697
爱沙尼亚	-10.7697
腾	-10.7697
脂	-10.7697
一九六	-10.7697
进攻	-10.7698
保卫	-10.7698
黑色	-10.7698
新闻稿	-10.7699
问卷	-10.7699
除外	-10.77
射击	-10.77
找不到	-10.77
定居点	-10.7702
色情	-10.7703
商机	-10.7716
有更多	-10.772
学家	-10.7722
已经有	-10.7723
▁我们将	-10.7731
都已	-10.7732
筹备工作	-10.7733
丰富的	-10.7733
绝不能	-10.7735
穷	-10.7736
不治	-10.7736
手机	-10.7739
焦点	-10.7743
的心情	-10.7743
儿童权利	-10.7743
实现和平	-10.7752
88	-10.7753
跨国	-10.7754
日举行	-10.7759
人群	-10.7761
涉及到	-10.7763
目的地	-10.7763
常规	-10.7764
这是一个	-10.7766
受到了	-10.7766
普遍性	-10.7769
月十二日	-10.7774
讯息	-10.778
珠	-10.7784
大门	-10.7786
筹	-10.7786
生活水平	-10.7789
前线	-10.779
往往是	-10.779
的交通	-10.7792
政府认为	-10.7793
到底	-10.7793
文化和	-10.7798
须要	-10.7799
负债	-10.78
有信心	-10.7802
总会	-10.7803
社会保障	-10.7811
亦已	-10.7812
8000	-10.7812
中国代表团	-10.7812
千年	-10.7814
任何其他	-10.7815
高速	-10.7816
附属	-10.7816
特别关注	-10.7817
有关当局	-10.7817
市民对	-10.7819
愈来愈	-10.7821
▁警方今	-10.7825
迫切	-10.7826
把他	-10.7827
添	-10.783
峰	-10.7831
伙	-10.7831
六个	-10.7833
的人道主义	-10.7834
10%。	-10.7835
粮	-10.7835
毁灭	-10.7835
多谢	-10.7836
的意义	-10.7837
专用	-10.7837
的积极	-10.7837
幢	-10.7837
1500	-10.7837
货运	-10.7837
佣	-10.7837
火箭	-10.7837
笼	-10.7837
陶	-10.7837
拉丁美洲和加勒比	-10.7838
毅	-10.7838
奋斗	-10.7838
法律和	-10.7838
融合	-10.7838
开拓	-10.7838
抵抗	-10.7838
探访	-10.7838
冬季	-10.7838
港府	-10.7839
奉行	-10.784
收购	-10.7842
季节	-10.7843
防火	-10.7844
试验计划	-10.7846
真相	-10.7846
种族岐视	-10.7848
取得的进展	-10.7851
咨询文件	-10.7851
响应	-10.7851
▁古巴	-10.7852
▁这方面	-10.7853
发电	-10.7854
好象	-10.786
缺点	-10.7863
提案国	-10.7864
而定	-10.7865
采取步骤	-10.7865
他认为	-10.7867
四十五	-10.787
庞大的	-10.787
胡锦涛	-10.787
将被	-10.7872
的工资	-10.7873
▁7	-10.7874
播出	-10.7875
能在	-10.7875
公里的	-10.7879
▁这类	-10.7886
如同	-10.7887
一一	-10.7893
杀人	-10.7893
三十五	-10.7894
订明	-10.7895
想到	-10.7903
▁在这些	-10.7903
脱离	-10.7905
有罪	-10.7906
的对话	-10.7911
战胜	-10.7917
韩	-10.7919
的候选人	-10.792
对儿童	-10.7923
在当地	-10.7926
▁英国	-10.7926
落成	-10.7927
79	-10.7929
专利	-10.7933
有用	-10.7935
越多	-10.7937
就职	-10.7938
太阳	-10.7939
年为	-10.7944
影片	-10.7953
秘书长特别代表	-10.7953
法律援助	-10.7955
营商	-10.7955
现在已经	-10.7959
的危机	-10.796
府	-10.7961
香港作为	-10.7963
志愿	-10.7969
同时也	-10.7971
国际公约	-10.7972
日上午	-10.7972
王国	-10.7972
还指出	-10.7973
该缔约国	-10.7973
自由化	-10.7974
喉	-10.7979
遂	-10.798
□	-10.798
莫桑比克	-10.798
斜坡	-10.798
船舶	-10.7981
拓展	-10.7981
借贷	-10.7981
支柱	-10.7981
屍体	-10.7981
夫妻	-10.7981
审批	-10.7982
海牙	-10.7984
▁6	-10.7986
行程	-10.7986
游泳	-10.7987
过了	-10.7988
不仅是	-10.7988
感情	-10.7989
场合	-10.7989
乐意	-10.7992
九年	-10.7998
无辜平民	-10.7999
自身	-10.8
实在是	-10.8002
百万	-10.8003
街道	-10.8004
▁这里	-10.8005
高级官员	-10.8006
上限	-10.8009
了大量	-10.8009
根除	-10.8013
嗯	-10.8019
该方案	-10.8019
高峰	-10.8022
在全世界	-10.8022
来处理	-10.8023
(1)	-10.8024
受到影响	-10.8024
我说	-10.8027
在发展中国家	-10.803
就没有	-10.8033
所有其他	-10.8033
给他	-10.8037
的意思	-10.8042
材	-10.8054
一本	-10.8054
投票权	-10.8058
▁其余	-10.8059
另一项	-10.806
以及其他	-10.8067
95	-10.8072
本年	-10.8072
提及的	-10.8074
声音	-10.8082
的决议草案	-10.809
将可	-10.8091
类型	-10.8091
▁我国政府	-10.8096
效益	-10.8098
全体会议	-10.8099
在日本	-10.8112
季度	-10.8112
骚扰	-10.8117
以外的	-10.8119
操	-10.8119
是美国	-10.8121
碎	-10.8125
喷	-10.8125
杀伤人员地雷	-10.8125
积金局	-10.8125
昌	-10.8125
慈善	-10.8126
邮件	-10.8126
干旱	-10.8126
精简	-10.8126
演辞	-10.8126
报酬	-10.8126
精彩	-10.8126
镇压	-10.8127
性质的	-10.8127
▁总之	-10.8127
撤回	-10.8127
必须确保	-10.8127
是如何	-10.8128
不利影响	-10.8131
高雄	-10.8131
也需要	-10.8132
代表团团长	-10.8133
村民	-10.8133
统计数字	-10.8135
恐怖主义行为	-10.8135
出庭	-10.8136
水域	-10.8136
申报	-10.8137
不包括	-10.8142
其中有	-10.8142
设立的	-10.8147
▁俄罗斯联邦	-10.8147
深远	-10.815
百分之八十	-10.8153
卫生组织	-10.8158
▁迄今为止	-10.8158
委员会认为	-10.8159
在欧洲	-10.8163
农业部门	-10.8164
高级专员	-10.8168
所有权	-10.8169
身为	-10.817
既然	-10.817
进行合作	-10.8172
困境	-10.8177
96	-10.8181
敌对	-10.8184
生产和	-10.8186
第二阶段	-10.8187
应以	-10.8194
主人	-10.8194
建成	-10.8198
不断增加	-10.8202
艘	-10.8205
想像	-10.8211
的区域	-10.8215
以确定	-10.8216
是什么	-10.8216
到来	-10.8217
等方面	-10.822
有不同	-10.823
二十二日	-10.823
00	-10.8231
未成年人	-10.8233
▁林	-10.8234
决定性	-10.8237
有益	-10.8237
一代	-10.8242
独立专家	-10.8243
去了	-10.825
▁他在	-10.8253
案件中	-10.8256
▁黄	-10.8262
可以看到	-10.8263
邻近	-10.8266
这些努力	-10.8267
饮食	-10.8268
的障碍	-10.8269
竞	-10.8269
窗	-10.827
介乎	-10.8272
柱	-10.8272
敦	-10.8272
胶	-10.8272
克什米尔	-10.8272
联塞特派团	-10.8272
合併	-10.8272
徐	-10.8272
聆讯	-10.8272
频繁	-10.8273
鸦片	-10.8273
外界	-10.8273
消耗	-10.8273
拍摄	-10.8273
宽容	-10.8273
一同	-10.8275
购物	-10.8276
假定	-10.8278
住院	-10.8278
选定	-10.8279
校园	-10.828
农产品	-10.828
信件	-10.8281
希望能	-10.8281
67	-10.8281
亚太地区	-10.8283
报警	-10.8283
▁我们在	-10.8283
更好地	-10.8284
灵活性	-10.8287
房子	-10.8289
确切	-10.8291
年青人	-10.8291
空袭	-10.8291
项目厅	-10.8291
▁看来	-10.8293
合作关系	-10.8294
海军	-10.8295
带头	-10.8296
提到了	-10.8298
▁基于	-10.8299
上诉法院	-10.8299
▁澳大利亚	-10.83
东区	-10.8301
环境中	-10.8305
经常性	-10.8306
该国的	-10.8308
聚会	-10.8311
生产者	-10.8318
并与	-10.8319
淡	-10.8323
本身就	-10.8325
日常生活	-10.8328
假如	-10.8336
实用	-10.834
在各	-10.8342
的经济发展	-10.8345
这项计划	-10.8353
最好的	-10.8365
的角度	-10.8368
状湟	-10.8369
的修订	-10.837
看不到	-10.8374
决定将	-10.8376
市政	-10.8377
发出的	-10.8385
发展局	-10.8385
似乎是	-10.839
不了	-10.8392
桶	-10.8395
渡	-10.8396
染	-10.8398
迹	-10.8398
我们现在	-10.8404
本着	-10.8408
▁但我们	-10.8409
努	-10.8413
涌	-10.8416
摩	-10.8418
柏	-10.842
牵	-10.842
定罪	-10.8421
狂	-10.8421
绕	-10.8421
闲	-10.8421
劝	-10.8422
罐	-10.8422
嘴	-10.8422
民建联	-10.8422
踊跃	-10.8422
悲惨	-10.8422
违规	-10.8422
百分之四十	-10.8422
标签	-10.8422
气候变化	-10.8424
英雄	-10.8424
科研	-10.8424
当地的	-10.8424
故意	-10.8425
降至	-10.8426
前夕	-10.8426
延期	-10.8427
大臣	-10.8428
观光	-10.8428
分配给	-10.8429
核实	-10.8431
生活中	-10.8434
一座	-10.8434
机构和	-10.8435
期内	-10.8437
言论自由	-10.8438
事件发生	-10.8438
▁若干	-10.8439
与内地	-10.8443
特别重要	-10.8444
科学家	-10.8446
小朋友	-10.8451
台风	-10.8453
午	-10.8454
苦难	-10.8454
过去两年	-10.846
演习	-10.8461
想法	-10.8463
占有	-10.8466
很小	-10.847
一个月	-10.8474
成立以来	-10.8475
问责制	-10.8475
一方面	-10.8475
我们看到	-10.8477
所需要的	-10.8479
的成绩	-10.8487
时间内	-10.8489
妇女参与	-10.8489
并为	-10.8489
爱国	-10.8489
因为他	-10.849
我们会继续	-10.849
这个目标	-10.849
裂	-10.8494
不可以	-10.8498
会导致	-10.8498
的结构	-10.8499
国际恐怖主义	-10.8499
报章	-10.8504
的地点	-10.8504
的空间	-10.8507
让他	-10.8507
国有	-10.851
有几	-10.8511
直选	-10.8511
本月	-10.8515
就不可能	-10.8517
▁阿富汗	-10.8521
本条	-10.8523
名称	-10.8526
▁该报告	-10.8526
伸	-10.8531
忘	-10.8534
的投诉	-10.8539
概述	-10.8539
我们已经	-10.8541
月十四日	-10.8542
缩	-10.8543
经济转型	-10.855
国际法庭	-10.8551
乎	-10.8552
250	-10.8552
完全是	-10.8554
透	-10.8555
▁开发计划署	-10.8558
票价	-10.8562
在一九九九年	-10.8565
在阿富汗	-10.8565
湟	-10.8567
▁再	-10.8567
优质	-10.8569
霸	-10.857
泛	-10.8572
炒	-10.8573
漏	-10.8573
浅	-10.8573
津巴布韦	-10.8573
立陶宛	-10.8573
绳	-10.8573
轰炸	-10.8573
茨	-10.8573
君	-10.8573
措辞	-10.8573
纾缓	-10.8573
扮演	-10.8573
细菌	-10.8574
缩减	-10.8574
夫妇	-10.8574
纺织品	-10.8574
幸福	-10.8575
当事人	-10.8575
控诉	-10.8576
信念	-10.8577
难免	-10.8577
根源	-10.8577
测量	-10.8577
接待	-10.8577
处置	-10.8579
国家机构	-10.8579
1983	-10.858
的期望	-10.858
批发	-10.8582
债务人	-10.8582
女人	-10.8583
发表意见	-10.8586
一国	-10.8588
主动行动	-10.8589
中期计划	-10.8589
通货膨胀率	-10.8589
全额	-10.859
每个人	-10.8591
引用	-10.8591
强行	-10.8592
所属	-10.8594
所在地	-10.8597
饮用水	-10.8597
不难	-10.8599
两个月	-10.8607
令人担忧	-10.8607
表示赞赏	-10.8609
文物	-10.8609
加深	-10.8612
人道	-10.8616
的真正	-10.8618
极大的	-10.8619
会影响	-10.8625
诊	-10.8627
被剥夺	-10.8632
内政	-10.8633
好转	-10.8636
将根据	-10.8639
极为重要	-10.8639
前后	-10.8645
▁11	-10.8647
进修	-10.8648
的某些	-10.8649
真实	-10.8653
日子	-10.8659
押	-10.8659
是通过	-10.8662
搜	-10.8662
可以通过	-10.8667
组别	-10.8667
选举委员会	-10.8669
丝	-10.8676
充足	-10.8677
虚	-10.8679
地上	-10.8684
是世界	-10.8684
把这些	-10.8688
重要性	-10.869
.4%。	-10.8691
省份	-10.8692
自由和	-10.8694
坦	-10.8695
更高	-10.8698
感到关切	-10.8699
82	-10.8699
生活方式	-10.8704
判处	-10.8707
履行其	-10.8711
烈	-10.8715
小说	-10.8715
的产品	-10.8718
多方面	-10.8718
是正确的	-10.872
议事规则	-10.872
不顾	-10.8721
轮候	-10.8724
考察	-10.8726
63	-10.8726
发病率	-10.8727
肠	-10.8727
阿布哈兹	-10.8727
咖啡	-10.8727
民进党	-10.8727
沈	-10.8727
壳	-10.8727
恒	-10.8727
免疫	-10.8727
培毓	-10.8727
阴影	-10.8727
人类住区	-10.8728
振兴	-10.8728
模型	-10.8728
害怕	-10.8728
遥感	-10.8728
一九九四年	-10.8728
年里	-10.8728
充份	-10.8728
夏季	-10.8728
混合	-10.8728
离婚	-10.8728
支配	-10.8728
分担	-10.8729
难题	-10.8729
仪器	-10.8729
跨越	-10.8729
少数群体	-10.8729
▁迄今	-10.8729
创伤	-10.8729
综援	-10.8731
急需	-10.8731
棒	-10.8731
构想	-10.8732
红色	-10.8733
外地办事处	-10.8734
高龄	-10.8735
解决争端	-10.8737
格式	-10.8737
的动议	-10.8738
的培训	-10.8742
传真	-10.8742
和协调	-10.8744
深深	-10.8744
条款草案	-10.8746
全民	-10.8746
两百	-10.8747
赤	-10.8748
转入	-10.8753
的好处	-10.8754
▁正是	-10.8756
积极参加	-10.8757
只不过是	-10.8758
社会主义	-10.8759
的详情	-10.876
散发	-10.8762
军官	-10.8762
的大部分	-10.8762
熟	-10.8771
年上半年	-10.8773
法文	-10.8773
公约草案	-10.8777
的经历	-10.8785
社会和经济	-10.8786
本文件	-10.8787
香港的经济	-10.8789
向大会	-10.8792
早就	-10.8793
成分	-10.8799
目前正	-10.8801
▁一般	-10.8803
一个国家	-10.8805
都需要	-10.8812
本会	-10.8812
证明了	-10.8815
有关问题	-10.8818
有关人士	-10.8821
中部	-10.8825
亚太	-10.8826
工商界	-10.8827
学科	-10.8837
的质量	-10.8838
失去了	-10.8841
被控	-10.8843
民航	-10.8843
农业和	-10.8845
是不会	-10.8851
向其	-10.8852
肩	-10.8853
缓和	-10.8866
发现了	-10.8867
届会	-10.8867
83	-10.8871
该委员会	-10.8875
提起	-10.8877
济	-10.8879
宿	-10.888
燃	-10.888
日下午	-10.888
宇	-10.8882
纺织	-10.8882
国际刑事法院	-10.8883
疟疾	-10.8883
绳之以法	-10.8883
吉尔吉斯斯坦	-10.8883
墨	-10.8883
光碟	-10.8884
伪造	-10.8884
总监	-10.8884
港币	-10.8884
扇动	-10.8884
展望	-10.8884
实验室	-10.8884
推翻	-10.8885
的动机	-10.8885
吃饭	-10.8886
1979	-10.8886
征求	-10.8886
水浸	-10.8886
声援	-10.8886
家禽	-10.8886
放松	-10.8887
就是说	-10.8887
附加	-10.8887
.0%	-10.8888
检察官办公室	-10.8888
演员	-10.8889
便可以	-10.8893
缴款	-10.8893
和第	-10.8893
的福利	-10.8894
画家	-10.8895
是次	-10.8895
不断地	-10.8896
在去年	-10.8896
的竞争	-10.8896
销售额	-10.89
的家属	-10.89
入学	-10.8902
罗马	-10.8906
有所改善	-10.8906
给他们	-10.8906
为每	-10.8907
的迹象	-10.8908
的节目	-10.891
时常	-10.8911
应是	-10.8913
就不会	-10.8915
诚意	-10.8916
应变	-10.8918
达成的	-10.8922
不满意	-10.8928
可以说是	-10.893
多年的	-10.8936
两份	-10.8939
下落	-10.8939
促	-10.8943
中国人民	-10.8944
一周	-10.8951
没有必要	-10.8955
意志	-10.896
皇家	-10.897
空运	-10.8971
任务期限	-10.8971
的现实	-10.8975
特使	-10.8977
一部	-10.8978
的故事	-10.898
决策者	-10.8982
政府和人民	-10.8984
▁我深信	-10.8987
几位	-10.8992
▁我们现在	-10.8996
扫	-10.9
年开始	-10.9
的结论	-10.9002
所有会员国	-10.9004
第二天	-10.9004
增长了	-10.9004
走了	-10.9006
第五委员会	-10.9006
分离	-10.901
税率	-10.9012
冠军	-10.9018
国务院	-10.9018
不扩散条约	-10.9018
充满了	-10.9021
敢	-10.9021
是不是	-10.9023
陷	-10.9025
强积金	-10.9031
的制裁	-10.9033
泉	-10.9037
饱	-10.9038
凶	-10.9039
耐	-10.9039
伴	-10.904
薄	-10.9041
艇	-10.9041
寿	-10.9041
多样性	-10.9041
委员会审议	-10.9042
怨	-10.9042
不能够	-10.9042
不扩散核武器条约	-10.9042
欧安组织	-10.9042
贯彻	-10.9042
皮肤	-10.9042
法兰克福机场	-10.9042
切勿	-10.9042
兴奋	-10.9042
作法	-10.9043
巿民	-10.9043
召集	-10.9043
卡塔尔	-10.9043
傍晚	-10.9043
承包商	-10.9043
桥梁	-10.9043
的巨大	-10.9043
体验	-10.9043
轻松	-10.9044
令人满意	-10.9044
环保署	-10.9045
回返	-10.9045
环境规划署	-10.9046
阵线	-10.9046
非正式协商	-10.9046
净额	-10.9046
期待着	-10.9047
名单上	-10.9048
农场	-10.9049
施行	-10.9049
证实死亡	-10.9051
发牌	-10.9052
的对象	-10.9053
入学率	-10.9056
事态发展	-10.9058
应急	-10.9058
内陆	-10.9058
大麻	-10.906
单元	-10.9061
裁员	-10.9061
上文第	-10.9063
地域	-10.9065
86	-10.9068
由于缺乏	-10.9068
▁代理主席	-10.9071
▁墨西哥	-10.9074
新闻自由	-10.9074
保护人权	-10.9079
明智	-10.9082
▁来自	-10.9091
哪里	-10.9091
的事项	-10.9092
而又	-10.9093
纪	-10.9095
受影响的	-10.9095
宝贵	-10.9095
应有	-10.9096
开展了	-10.9096
另一些	-10.9096
的袭击	-10.9099
这个世界	-10.9104
控告	-10.9105
职权	-10.9113
番	-10.912
刊物	-10.9121
解决方案	-10.9121
国别	-10.9125
亦应	-10.9127
利益的	-10.9129
塞族人	-10.9136
香港特别行政区政府	-10.9138
法律制度	-10.914
国际标准	-10.9141
的负担	-10.9143
的首要	-10.9147
许多发展中国家	-10.9148
的待迂	-10.915
企	-10.9151
是妇女	-10.9152
分工	-10.9154
划分	-10.9156
几百	-10.9156
该决议草案	-10.9156
来了	-10.9159
提交报告	-10.9165
都将	-10.9165
而且还	-10.9167
首要	-10.9168
进行谈判	-10.9169
则有	-10.9171
撤	-10.9173
工作地点	-10.9174
联合国机构	-10.9174
政制	-10.9175
下台	-10.9177
申	-10.9178
开了	-10.9181
与会	-10.9182
作家	-10.9186
上班	-10.9186
最早	-10.9187
亿人	-10.9188
植	-10.9189
岁月	-10.919
会费	-10.9191
常任理事国	-10.9195
都应	-10.9195
转向	-10.9195
该中心	-10.9196
序	-10.9197
一百零	-10.9198
川	-10.9198
径	-10.9199
式的	-10.92
圣诞	-10.92
陪同	-10.92
自由贸易	-10.92
插	-10.9201
函	-10.9201
循	-10.9202
纷	-10.9203
晴	-10.9203
有限的	-10.9203
凤	-10.9203
喀麦隆	-10.9203
寸	-10.9203
防御	-10.9204
习俗	-10.9204
积累	-10.9204
温暖	-10.9204
加沙地带	-10.9204
慢慢	-10.9204
的若干	-10.9205
餐厅	-10.9205
解除武装	-10.9205
1976	-10.9205
专责小组	-10.9206
潮流	-10.9206
创立	-10.9206
得悉	-10.9207
发挥作用	-10.9207
的有效	-10.9207
供资	-10.9208
西欧	-10.9209
身穿	-10.921
示范法	-10.9211
调查工作	-10.9211
一律	-10.9211
公告	-10.9211
公然	-10.9213
南极	-10.9218
该公约	-10.9224
完全没有	-10.9227
重组	-10.9228
却不	-10.9229
均为	-10.923
但也	-10.9233
商品价格	-10.9233
收到了	-10.9233
指明	-10.9234
心中	-10.9234
前提	-10.9239
拿出	-10.9241
该机构	-10.9248
学童	-10.9251
激	-10.9253
的决心	-10.9254
批准了	-10.9255
国民议会	-10.9257
▁政府今日	-10.9257
联合国大学	-10.9259
如果不	-10.926
三项	-10.926
▁凡	-10.9262
资深	-10.9262
参与了	-10.9263
的准则	-10.9265
签	-10.9267
火车	-10.9268
同联合国	-10.927
▁在本报告所述期间	-10.9273
演变	-10.9273
一人	-10.9274
的根本	-10.9275
▁多年来	-10.9275
的思想	-10.9275
个案件	-10.9276
导致了	-10.9276
就是要	-10.9277
必须得到	-10.9277
证件	-10.9279
海港	-10.928
连同	-10.9285
无限	-10.9285
受过	-10.9288
游说	-10.9291
提出的建议	-10.9291
审查了	-10.9297
三点	-10.9297
即便	-10.9298
本区域	-10.93
140	-10.9304
▁刘	-10.9307
可能导致	-10.9307
的解释	-10.9307
这不是	-10.9308
极其重要	-10.9309
政府间	-10.9311
说得	-10.9318
的官员	-10.9318
均有	-10.9319
涨	-10.9321
11%	-10.9321
获得通过	-10.9321
并已	-10.9321
趋	-10.9323
的决策	-10.9326
诉	-10.9327
社会中	-10.9329
提供的资料	-10.9333
的气氛	-10.9334
更好	-10.9335
的规模	-10.9336
▁监督厅	-10.9337
▁当前	-10.9338
我现在	-10.9338
▁南非	-10.9347
克拉	-10.9348
五点	-10.9349
相同的	-10.935
倾	-10.9351
辩	-10.9358
子弹	-10.9359
在整个	-10.9361
▁不幸的是	-10.9361
填	-10.9362
足球	-10.9362
▁挪威	-10.9363
蔫	-10.9363
拔	-10.9363
棉	-10.9365
赏	-10.9366
寿命	-10.9366
她们的	-10.9366
塘	-10.9367
涂	-10.9367
瓶	-10.9367
巴拿马	-10.9367
相互依存	-10.9367
终审法院	-10.9367
2000-2001	-10.9367
▁换句话说	-10.9367
舱	-10.9367
遵循	-10.9367
坑	-10.9367
食环署	-10.9367
吕	-10.9367
葵涌	-10.9367
玻璃	-10.9367
阐明	-10.9367
捐赠	-10.9367
诉诸	-10.9367
中华民国	-10.9368
昂贵	-10.9368
干扰	-10.9368
回忆	-10.9368
犯有	-10.9368
基督教	-10.9368
婴儿死亡率	-10.9368
逗留	-10.9368
误解	-10.9369
捷克共和国	-10.9369
国内生产总值	-10.9369
小岛屿发展中国家	-10.9369
达成共识	-10.9369
饮水	-10.9369
常规武器	-10.937
肇事者	-10.937
迁移	-10.937
晋升	-10.9371
▁这些措施	-10.9374
立法机关	-10.9375
高出	-10.9378
提前	-10.9379
行动者	-10.9382
中等	-10.9384
关岛	-10.9385
共同体	-10.9386
事后	-10.9386
东方	-10.9388
日渐	-10.9388
认定	-10.9388
运动员	-10.9389
百分之八	-10.9389
核问题	-10.9391
▁第五	-10.9391
晨	-10.9392
这些地区	-10.9392
均可	-10.9393
采矿	-10.9395
当代	-10.9395
等地	-10.9396
空军	-10.9397
主要是由于	-10.9398
情湟下	-10.9399
的日期	-10.9406
典	-10.941
马拉	-10.941
主体	-10.941
犯罪活动	-10.9414
合作社	-10.9415
五十五	-10.9418
的男子	-10.942
被称为	-10.9421
与政府	-10.9421
的工人	-10.9425
令人鼓舞	-10.9429
二三	-10.9431
民主制度	-10.9432
往来	-10.9433
的稳定	-10.9433
监测和	-10.9434
人们对	-10.944
84	-10.944
▁而在	-10.9441
恢复正常	-10.9445
十八岁	-10.9448
最多的	-10.9449
管理委员会	-10.9455
后代	-10.9455
总局	-10.9455
的过程中	-10.9459
有关人员	-10.9462
的资产	-10.9462
的感受	-10.9464
行政部门	-10.9469
欠款	-10.9471
我感谢	-10.9472
要求赔偿	-10.9473
仔	-10.9477
的特点	-10.9479
余下	-10.948
▁全球化	-10.9481
温和	-10.9485
87	-10.9485
物体	-10.9486
会出现	-10.9496
▁我也	-10.9496
的时间内	-10.9498
见面	-10.95
有大量	-10.9502
深受	-10.9506
他自己	-10.9509
于今日	-10.9509
的条文	-10.9511
平均每	-10.9512
我们还	-10.9513
因为我们	-10.9513
截	-10.9515
通过其	-10.9522
家庭暴力	-10.9523
还未	-10.9524
参赛	-10.9525
订单	-10.9527
递	-10.9527
代表发言	-10.9529
利亚	-10.9532
和资源	-10.9533
晶	-10.9533
阔	-10.9533
专责	-10.9533
磨	-10.9533
备忘录	-10.9534
政务司司长	-10.9534
猛	-10.9534
民政事务处	-10.9534
黑塞哥维那	-10.9534
浏览	-10.9534
豆	-10.9534
贝尔格莱德	-10.9534
内罗毕	-10.9534
腿	-10.9534
锅	-10.9534
潘	-10.9534
大屿山	-10.9534
渔农处	-10.9534
牵涉	-10.9534
闭幕	-10.9534
宣读	-10.9534
暗杀	-10.9534
老百姓	-10.9535
观塘	-10.9535
购置	-10.9535
燃油	-10.9535
预备	-10.9536
委托	-10.9537
生活条件	-10.9537
核查团	-10.9537
该批	-10.9538
流血	-10.954
幸运	-10.954
不让	-10.954
危险的	-10.954
贝尔	-10.9542
老板	-10.9544
图像	-10.9544
版权	-10.9545
开始时	-10.9546
会否	-10.9546
提供资料	-10.9549
细则	-10.9551
不行	-10.9556
经济状况	-10.9557
的销售	-10.9561
稳定部队	-10.9563
无视	-10.9568
时至	-10.9569
为例	-10.9569
高昂	-10.9569
这对	-10.9572
军事人员	-10.9575
不宜	-10.9576
行车	-10.958
阳光	-10.9582
补助	-10.9584
根本不	-10.9585
所指的	-10.9586
附有	-10.9589
提供有关	-10.959
财政资源	-10.9597
东帝汶人民	-10.9598
行政长官董建华	-10.9601
严重关切	-10.9603
备受	-10.9605
而被	-10.9609
惜	-10.9609
小巴	-10.961
我们需要	-10.961
天然	-10.9611
提出申请	-10.9612
生产国	-10.9616
没有理由	-10.9619
数千	-10.9619
一番	-10.962
显然是	-10.962
的失业率	-10.9623
停车	-10.9624
仅有	-10.9626
周围	-10.9627
▁巴西	-10.9629
学费	-10.9631
首先是	-10.9633
对这一	-10.9639
手中	-10.9646
的适当	-10.9647
▁我们知道	-10.9649
一名男子	-10.9651
副部长	-10.9653
占地	-10.9654
和家庭	-10.9657
非政府	-10.9659
于今年	-10.9661
而来	-10.9664
拆	-10.9664
通往	-10.967
告诉我们	-10.9672
平台	-10.9672
年度报告	-10.9673
搭	-10.9674
▁第一个	-10.9677
处决	-10.9678
煤	-10.9684
检察	-10.9686
也都	-10.9688
130	-10.969
宪	-10.969
新生	-10.9691
为基础的	-10.9691
正规	-10.9692
姓	-10.9693
常见	-10.9694
频	-10.9695
新增	-10.9697
惨	-10.9699
的广泛	-10.97
炸	-10.97
一组	-10.97
袭	-10.9701
的统计	-10.9702
书记官长	-10.9702
悬	-10.9703
屏	-10.9703
大不列颠及北爱尔兰联合王国	-10.9703
雅加达	-10.9703
谭	-10.9703
近东救济工程处	-10.9703
愉快	-10.9703
招募	-10.9704
循环	-10.9704
配偶	-10.9704
搜索	-10.9704
晚宴	-10.9704
救灾	-10.9704
邻居	-10.9705
1960	-10.9705
规章	-10.9705
防范	-10.9705
把它	-10.9705
精英	-10.9706
同胞	-10.9706
创建	-10.9706
崇高	-10.9707
已从	-10.9707
反过来	-10.9708
压制	-10.9708
修建	-10.9709
交换意见	-10.9709
盗版	-10.9709
发觉	-10.971
带领	-10.971
报复	-10.971
公务	-10.971
小型武器	-10.971
属实	-10.9712
一九九一年	-10.9714
海底	-10.9716
无需	-10.9719
可能需要	-10.972
十分重视	-10.972
对社会	-10.9723
请允许我	-10.9723
善用	-10.9725
疾病的	-10.9725
一般性辩论	-10.9726
我们就	-10.9731
家具	-10.9734
发挥了	-10.9737
在同一	-10.9737
体重	-10.974
派别	-10.9742
两方面	-10.9743
主持人	-10.9745
实际上是	-10.9748
九千	-10.9749
20%。	-10.9756
可以看出	-10.9758
观看	-10.976
必须有	-10.9761
使之	-10.9762
以色列政府	-10.9763
在职	-10.9764
的焦点	-10.9767
处处	-10.9768
▁这就	-10.9768
作进一步	-10.977
进出	-10.9771
过去三年	-10.9772
并希望	-10.9773
有多少	-10.9792
令我们	-10.9793
的母亲	-10.9793
为实现	-10.9795
作战	-10.9796
交易所	-10.9798
欧洲国家	-10.9798
迅速发展	-10.9801
的实质	-10.9805
应考虑	-10.9805
淡水	-10.9813
很简单	-10.9813
进行审查	-10.9814
要做	-10.9815
社会各界	-10.9819
不承认	-10.9822
很清楚	-10.9823
工程师	-10.9824
▁第二个	-10.9828
迹象	-10.9828
态	-10.9829
房地	-10.9832
的另一	-10.9841
可从	-10.9847
该法	-10.985
总数的	-10.9851
渐	-10.9852
动作	-10.9852
▁在我们	-10.9853
的任期	-10.9856
二七	-10.9856
我亦	-10.986
坊	-10.986
码	-10.986
银行业	-10.9864
粮食计划署	-10.9865
沿海	-10.9866
乐团	-10.9869
偶	-10.9869
最近在	-10.987
攻	-10.987
遗产	-10.987
距	-10.9872
下文	-10.9873
貌	-10.9874
锁	-10.9874
培	-10.9874
挤	-10.9875
阴	-10.9875
跃	-10.9875
总裁	-10.9876
抛	-10.9876
拳	-10.9876
先到先得	-10.9876
瓜	-10.9876
联刚特派团	-10.9876
芳	-10.9876
玻利维亚	-10.9876
惟	-10.9876
紫	-10.9876
郭	-10.9876
转口货值	-10.9876
仇恨	-10.9876
叙述	-10.9876
护士	-10.9877
这份报告	-10.9878
科学和技术	-10.9878
如果我们	-10.9878
76	-10.9879
航运	-10.9879
情势	-10.9879
增设	-10.988
非法入境者	-10.988
边缘化	-10.988
使人们	-10.988
敌对行动	-10.9882
社团	-10.9883
谈话	-10.9883
财政年度	-10.9883
以供	-10.9884
分庭	-10.9884
石油气	-10.9884
把握	-10.9886
的比率	-10.9886
出国	-10.9886
标题	-10.9887
施工	-10.9888
▁再者	-10.9889
▁新西兰	-10.9891
安南	-10.9894
加纳	-10.9894
专家会议	-10.9898
警区	-10.9901
出席会议	-10.9901
不扩散	-10.9901
▁1991	-10.9902
在很大程度上	-10.9902
同步	-10.9903
执业	-10.9904
另一种	-10.9907
提供协助	-10.9914
和平与稳定	-10.9916
这项建议	-10.9916
最近几年	-10.9917
该名男子	-10.992
日期间	-10.9923
余地	-10.9928
条件下	-10.9935
研	-10.9937
被杀	-10.9938
送往	-10.9938
停留	-10.9941
有关机构	-10.9943
▁有时	-10.9944
信息系统	-10.9944
西北	-10.9952
阿富汗人民	-10.9952
冲突中	-10.9953
出境	-10.9959
类型的	-10.996
几千	-10.9961
统计调查	-10.9964
的提议	-10.9967
的形象	-10.997
如果没有	-10.997
八十年代	-10.9973
经济改革	-10.9978
位议员	-10.9979
的议员	-10.9982
也门	-10.9985
清楚地	-10.9985
但他们	-10.9987
冲突后	-10.9987
中药	-10.9989
职权范围	-10.999
▁故此	-10.9991
和区域	-10.9992
听说	-10.9998
提供支助	-11
会令	-11.0003
船上	-11.0005
爆	-11.0006
制订了	-11.0007
独特的	-11.0009
中止	-11.001
得很	-11.001
不超过	-11.0016
不安全	-11.0017
更具	-11.0017
太大	-11.0018
73	-11.0018
名册	-11.0019
每天都	-11.0021
选择了	-11.0023
将于二	-11.0025
繁忙	-11.0027
制约	-11.0027
西亚	-11.0029
它对	-11.003
安全部队	-11.0031
三十八	-11.0033
正处于	-11.0034
真诚	-11.0034
欧洲委员会	-11.0036
多于	-11.0037
才可以	-11.0039
得益	-11.0043
一九八	-11.0045
伏	-11.0047
的第一个	-11.0048
媒介	-11.0049
暗	-11.0049
卓	-11.005
颜	-11.005
乔	-11.0051
政变	-11.0051
哭	-11.0051
炼	-11.0051
切尔诺贝利	-11.0051
同性恋	-11.0051
乌拉圭	-11.0051
鸣	-11.0051
李柱铭议员	-11.0051
桃	-11.0051
眼睛	-11.0051
堕胎	-11.0051
盆	-11.0051
麻烦	-11.0051
种族灭绝	-11.0051
抱怨	-11.0052
失蹤	-11.0052
跨境	-11.0052
逝世	-11.0052
霍乱	-11.0052
▁除非	-11.0052
三十年	-11.0052
▁乌克兰	-11.0052
看作是	-11.0052
热闹	-11.0052
鼓舞	-11.0053
南韩	-11.0053
漫长	-11.0054
算是	-11.0055
耐心	-11.0055
灰	-11.0055
偏见	-11.0055
解放军	-11.0055
财经	-11.0056
货量	-11.0057
阿曼	-11.0057
福建	-11.0057
糟糕	-11.0057
油价	-11.0059
解散	-11.0059
与否	-11.006
排队	-11.006
靠近	-11.0061
一百二十	-11.0063
带动	-11.0063
更重要的是	-11.0064
结束了	-11.0067
费率	-11.0067
画面	-11.0068
可达	-11.007
下降到	-11.0071
克制	-11.0071
小组成员	-11.0072
看到了	-11.0074
武装人员	-11.0074
可谓	-11.0074
生长	-11.0076
实施了	-11.0081
生计	-11.0081
伊拉克人民	-11.0084
所规定的	-11.0085
一些问题	-11.0086
死亡人数	-11.0086
即可	-11.0087
可靠的	-11.0092
本土	-11.0092
建设和平	-11.0092
年纪	-11.0093
已久	-11.0093
的悲剧	-11.0098
无可	-11.0098
伊斯兰教	-11.0099
花费	-11.0099
的财产	-11.0107
▁考虑到	-11.0107
已完成	-11.0109
和设备	-11.011
的代价	-11.0111
越来越大	-11.0112
宗案件	-11.0115
地址	-11.0115
这将	-11.0115
更好的	-11.0116
可怕	-11.0116
白色	-11.0116
难得	-11.0118
国际人权	-11.0119
将需要	-11.012
金融危机	-11.012
1.5	-11.0122
找到工作	-11.0122
署署长	-11.0126
有理由	-11.0127
可能性	-11.0129
针	-11.013
强大的	-11.0134
转为	-11.0139
党派	-11.014
国际人道主义法	-11.0142
应将	-11.0143
各组织	-11.015
必须加强	-11.015
少女	-11.0151
多元	-11.0155
路上	-11.0158
▁一位	-11.016
双方都	-11.0161
17%	-11.0163
老年	-11.0164
好了	-11.0167
一块	-11.0168
作者	-11.017
涉	-11.0171
外长	-11.0173
三十一	-11.0176
品种	-11.0181
印象	-11.0181
到场	-11.0181
该小组	-11.0182
上星期	-11.0182
决定是否	-11.0183
报告员	-11.0187
的透明度	-11.0188
增值	-11.0191
延迟	-11.0192
离职	-11.0193
不属于	-11.0194
角度来看	-11.0196
关注的问题	-11.0198
并不能	-11.0199
▁无论如何	-11.02
强烈的	-11.0202
提交给	-11.0202
有机	-11.0204
队员	-11.0208
▁各位	-11.021
现在已	-11.021
苗	-11.021
最严重	-11.0215
忍	-11.0215
▁埃及	-11.0217
许多地区	-11.0217
在亚洲	-11.022
确定了	-11.0221
肥	-11.0225
梯	-11.0227
暖	-11.0228
公积金	-11.0228
摇	-11.0228
扶	-11.0228
绑	-11.0229
挖	-11.023
骑	-11.023
敲	-11.023
南南合作	-11.023
任择议定书	-11.023
灌溉	-11.023
谱	-11.023
乌兹别克斯坦	-11.023
差饷	-11.023
链	-11.023
波斯尼亚和黑塞哥维那	-11.023
征询	-11.023
捷克	-11.023
记忆	-11.023
赛事	-11.023
珍惜	-11.023
被占领土	-11.023
爵士	-11.023
练习	-11.023
抑制	-11.0231
扫雷	-11.0231
年龄介乎	-11.0231
缉获量	-11.0231
研制	-11.0231
固然	-11.0231
百分之七十	-11.0232
功夫	-11.0232
缴纳	-11.0232
放宽	-11.0233
流行病	-11.0234
完工	-11.0234
稳定和	-11.0235
现今	-11.0236
的解决办法	-11.0237
紧密合作	-11.0238
吸引力	-11.024
股份	-11.024
深表	-11.0241
下滑	-11.0242
调节	-11.0242
的必要性	-11.0244
房间	-11.0247
免税	-11.0249
证明书	-11.025
通知书	-11.025
▁这意味着	-11.0251
缔约方会议	-11.0252
作出回应	-11.0254
政府统计处	-11.0254
作出反应	-11.0254
高等法院	-11.0256
口译	-11.0256
都认为	-11.0258
18%	-11.0259
选区	-11.0259
▁今后	-11.0259
证据表明	-11.0263
更有效	-11.0263
有赖	-11.0263
的岐视	-11.0267
下面	-11.0272
必须要	-11.0273
上网	-11.0274
的作品	-11.0276
买方	-11.0276
节约	-11.0277
名被告	-11.0278
日益增加	-11.0278
专业人士	-11.0285
生命权	-11.0285
世界各地的	-11.0288
哲学	-11.0288
有些国家	-11.0292
多半	-11.0293
颇为	-11.0294
三天	-11.0295
八个	-11.0298
输出	-11.0298
▁2.	-11.0299
被杀害	-11.0304
过去十年	-11.0305
患有	-11.0308
九个	-11.031
各界人士	-11.0312
七点	-11.0314
大自然	-11.0314
一大	-11.0315
▁法庭	-11.0316
希望政府	-11.0316
家务	-11.0319
界限	-11.0319
的数额	-11.032
另一方面	-11.0327
缔约国会议	-11.0327
岁以上的	-11.0327
选举中	-11.0332
名妇女	-11.0336
保险业	-11.0339
已经完成	-11.034
车队	-11.0344
作决定	-11.0346
的转变	-11.0347
生命的	-11.0348
说出	-11.0348
完成后	-11.0348
过去五年	-11.035
提供资金	-11.0354
五十年	-11.0359
眼中	-11.0361
因为我	-11.0362
一直以来	-11.0365
要比	-11.0367
术	-11.037
不论是	-11.037
居屋	-11.037
社会福利署	-11.0375
是确保	-11.0377
心情	-11.0379
听取了	-11.038
典型	-11.0383
数年	-11.0387
译	-11.0388
于本年	-11.0392
很明显	-11.0393
否定	-11.0394
菌	-11.0397
分别有	-11.04
个人和	-11.0401
▁如果不	-11.0405
柜	-11.0406
▁小组认为	-11.0408
堆	-11.0409
预警	-11.0409
巴尔干	-11.041
喊	-11.0411
砍	-11.0412
冯	-11.0412
娘	-11.0412
拉脱维亚	-11.0412
拼	-11.0412
赵	-11.0412
寺	-11.0412
四分之一	-11.0412
金融风暴	-11.0412
野蛮	-11.0412
渐渐	-11.0412
将军澳	-11.0412
悬挂	-11.0412
遏制	-11.0412
西贡	-11.0412
涉案	-11.0413
1984	-11.0414
1982	-11.0414
蓝图	-11.0414
原始	-11.0414
民族和解	-11.0415
春节	-11.0416
应否	-11.0417
显示出	-11.0417
短短	-11.0418
72	-11.0418
之间的合作	-11.0418
发表声明	-11.0418
强加	-11.0419
很多时候	-11.0421
作了发言	-11.0424
交战	-11.0425
奖项	-11.0425
协同	-11.0425
船员	-11.0425
秘书长关于	-11.0426
十万元	-11.0426
不单	-11.0428
几点	-11.0428
古老	-11.0429
行驶	-11.0429
并由	-11.0431
一面	-11.0435
问题之一	-11.0437
上帝	-11.0439
在东帝汶	-11.0439
发言时	-11.0443
重重	-11.0444
外交政策	-11.0445
会期	-11.0453
当初	-11.0459
各区域	-11.046
不仅仅是	-11.0461
离去	-11.0462
性剥削	-11.0464
就这样	-11.0465
的特征	-11.0466
的提案	-11.0469
敌人	-11.047
从来不	-11.047
印制	-11.047
公众人士	-11.0479
百分之六十	-11.0479
最新资料	-11.0479
继续对	-11.0481
三十七	-11.0483
的裁决	-11.0487
只好	-11.049
周末	-11.0494
行政和	-11.05
的情形	-11.0501
今天下午	-11.0505
中最	-11.0506
偷运	-11.0507
方面发挥	-11.051
千九百	-11.0512
应有的	-11.0515
本会议	-11.0516
库存	-11.0518
在科索沃	-11.0525
▁我们呼吁	-11.0526
以加强	-11.0527
减免	-11.0528
章程	-11.0534
有意义的	-11.0536
月期间	-11.0536
三十四	-11.054
总面积	-11.0541
和社区	-11.0543
区域合作	-11.0544
圆满	-11.0552
多位	-11.0552
▁一些代表团	-11.0553
所有成员	-11.0554
供款	-11.0556
▁在第	-11.0557
踏	-11.0558
构	-11.0559
转到	-11.0562
▁遗憾的是	-11.0563
不久将	-11.0565
我们大家	-11.0565
教会	-11.0566
美国人	-11.057
届会议上	-11.0571
概	-11.0571
所载	-11.0573
售价	-11.0575
三位	-11.0576
就算	-11.0576
免受	-11.0578
海事处	-11.058
这批	-11.0581
议程上	-11.0583
实现了	-11.0586
命运	-11.0587
的特殊	-11.0588
合适的	-11.059
津	-11.0592
的综合	-11.0593
衰	-11.0595
的初步	-11.0595
小姐	-11.0595
冻	-11.0595
胎	-11.0596
卢萨卡	-11.0596
世界人权宣言	-11.0597
舰	-11.0597
叹	-11.0597
週	-11.0597
威慑	-11.0597
奖励	-11.0597
盼望	-11.0597
宵禁	-11.0597
谅解备忘录	-11.0597
半数	-11.0597
掩盖	-11.0597
沿岸	-11.0598
(2001)	-11.0598
虚假	-11.0598
▁据悉	-11.0598
赠款	-11.0598
优良	-11.0598
公尺	-11.0598
清晨	-11.0599
弃权	-11.0599
暴力事件	-11.0599
引导	-11.0599
蓄意	-11.0599
名男子	-11.0599
市区重建	-11.06
地中海	-11.06
消防员	-11.06
1978	-11.06
强烈谴责	-11.0601
主角	-11.0602
▁他补充说	-11.0602
树立	-11.0602
指望	-11.0602
总经理	-11.0602
高度重视	-11.0602
的步伐	-11.0607
短暂	-11.0609
率领	-11.0609
驱	-11.061
运往	-11.0611
事发	-11.0612
这套	-11.0613
亦须	-11.0613
投票站	-11.0617
劳工组织	-11.0618
所有有关	-11.0619
了不少	-11.0623
口号	-11.0623
那时候	-11.0623
地方政府	-11.0625
整个社会	-11.0627
这也	-11.0628
▁此后	-11.0633
可观	-11.0637
全文	-11.0643
大湖区	-11.0649
条的规定	-11.0649
▁我们亦	-11.0649
占据	-11.0653
步行	-11.0654
划作	-11.0661
列明	-11.0666
7000	-11.067
名义	-11.0671
向他	-11.0671
都很	-11.0671
岁以下	-11.0673
每年都	-11.0677
太空	-11.0681
▁这也是	-11.0682
热烈欢迎	-11.0683
已达	-11.0687
造成严重	-11.0688
音乐会	-11.0688
▁目前正在	-11.069
的捐款	-11.0691
无疑是	-11.0695
可行的	-11.0697
工作量	-11.0698
过去一年	-11.0699
交出	-11.0699
▁被告	-11.0699
职工	-11.0702
一百三十	-11.0703
▁如果没有	-11.0703
会带来	-11.0704
把他们	-11.071
申诉人	-11.071
性别问题	-11.0714
不予	-11.0715
以协助	-11.0716
年级	-11.0717
克斯	-11.0719
不易	-11.072
该地区的	-11.0721
捐	-11.0722
的时代	-11.0725
高兴地	-11.0726
各国人民	-11.0727
国际经济	-11.0728
少量	-11.0728
变为	-11.073
受损	-11.0731
全国性	-11.0736
导演	-11.0737
最高的	-11.0738
国际性	-11.0739
辩论中	-11.075
▁如有	-11.0758
各省	-11.0759
处境	-11.076
采取的行动	-11.0762
继续下去	-11.0762
医药	-11.0763
呼吁国际社会	-11.0766
小国	-11.077
文盲	-11.0771
不合理	-11.0773
立法会议员	-11.0773
作证	-11.0775
对这个	-11.0777
镜	-11.0778
履	-11.0778
号码	-11.0779
财政部	-11.0779
市中心	-11.078
妻	-11.0781
焦	-11.0781
诱	-11.0783
坡	-11.0783
咸	-11.0783
戒	-11.0783
岗	-11.0783
赌	-11.0784
择	-11.0784
旱灾	-11.0785
壁垒	-11.0785
甜	-11.0785
阿尔及利亚	-11.0785
里程碑	-11.0785
丛	-11.0785
斯普斯卡共和国	-11.0785
梁锦松	-11.0785
浩	-11.0785
飘	-11.0786
饥饿	-11.0786
毛里求斯	-11.0786
周梁淑怡议员	-11.0786
凉	-11.0786
挂钩	-11.0786
扩充	-11.0786
辟孕	-11.0786
瞭解	-11.0786
远离	-11.0786
一九八七年	-11.0786
危急	-11.0786
一共	-11.0786
稳健	-11.0786
诊断	-11.0786
孤儿	-11.0786
孤立	-11.0786
疑犯	-11.0787
声誉	-11.0787
触犯	-11.0787
一九九三年	-11.0787
录音	-11.0787
曼谷	-11.0787
清拆	-11.0787
繁重	-11.0787
专门知识	-11.0787
开幕礼	-11.0788
自豪	-11.0788
灾民	-11.0788
年之久	-11.0788
滥用药物	-11.0788
筹款	-11.0788
涌入	-11.0789
业内人士	-11.0789
租户	-11.0789
管治	-11.079
录像	-11.079
军备	-11.079
账目	-11.0791
接下来	-11.0791
礼物	-11.0792
水警	-11.0793
开设了	-11.0793
楼价	-11.0793
署方	-11.0795
这些行动	-11.0796
特许	-11.0796
回复	-11.0797
核定	-11.0799
月十八日	-11.0802
的住房	-11.0804
以法语	-11.0806
收获	-11.0806
关键的	-11.0806
的译文	-11.0808
康乐	-11.081
有所不同	-11.0811
香港社会	-11.0812
▁孟加拉国	-11.0814
革新	-11.0814
▁我们已	-11.0815
关押	-11.0816
卡尔	-11.0818
▁秘书长在	-11.0819
和俄罗斯联邦	-11.082
较早前	-11.0824
受教毓	-11.0824
我不想	-11.0826
倒退	-11.0827
佛教	-11.0829
七个	-11.0834
列车	-11.0835
▁许多人	-11.0836
设于	-11.0837
安定	-11.0838
法律顾问	-11.0839
土着人	-11.0841
▁在这种情况下	-11.0842
规划和	-11.0842
第一步	-11.0842
金融机构	-11.0844
他被	-11.0845
人权和	-11.0846
咨询服务	-11.0847
对美国	-11.085
想知道	-11.085
▁儿童基金会	-11.0855
的支出	-11.0859
便要	-11.0861
国际法委员会	-11.0863
那就是	-11.0866
下降至	-11.0867
呈现	-11.0868
是谁	-11.0871
列举	-11.0875
预计将	-11.0876
可能有	-11.0877
双重	-11.0878
有用的	-11.0878
第一期	-11.0883
不然	-11.0885
.3%。	-11.0887
将他	-11.0889
进行磋商	-11.0889
后才	-11.089
六四	-11.0891
潜	-11.0894
应根据	-11.0894
三种	-11.0899
▁是次	-11.0899
▁多数	-11.0902
数月	-11.0902
很差	-11.0907
于一九九八年	-11.091
一所	-11.0912
该股	-11.0912
千万	-11.0915
男女平等	-11.0918
也许是	-11.092
名警察	-11.092
那么多	-11.0922
特别强调	-11.0922
统计数据	-11.0925
九四	-11.0925
百分之九十	-11.0926
图片	-11.0927
的共识	-11.0929
联合国系统内	-11.093
之家	-11.0933
加强对	-11.0937
一号	-11.0938
▁我很高兴	-11.094
牢	-11.0941
名字	-11.0941
创造了	-11.0944
胆	-11.0948
维和	-11.0949
普遍认为	-11.0952
变得更	-11.0953
献	-11.0957
提供更多	-11.0958
悉	-11.0959
充	-11.0959
重返	-11.0962
疾	-11.0963
▁为此目的	-11.0966
其中许多	-11.0968
扣留	-11.0969
技术性	-11.0969
董	-11.097
胸	-11.0975
液	-11.0976
感受	-11.0976
荡	-11.0976
被认为	-11.0976
贪	-11.0978
珠江三角洲	-11.0978
搁置	-11.0978
阿鲁沙	-11.0978
马耳他	-11.0978
泪	-11.0978
娜	-11.0978
咭	-11.0978
姿态	-11.0978
欺诈	-11.0978
栋	-11.0978
呼吸	-11.0978
扣押	-11.0978
罕见	-11.0978
约翰	-11.0979
罢工	-11.0979
临床	-11.0979
侵入	-11.0979
卓越	-11.0979
引爆	-11.0979
一百四十	-11.098
宪制	-11.098
财物	-11.098
辟难	-11.098
法语	-11.0981
负面影响	-11.0981
单位内	-11.0981
心态	-11.0981
▁委员会建议缔约国	-11.0982
异常	-11.0982
届满	-11.0983
充当	-11.0984
坚决反对	-11.0984
容量	-11.0985
开罗	-11.0985
途中	-11.0985
是世界上	-11.0985
读书	-11.0987
威尔	-11.0987
武器禁运	-11.0987
回升	-11.0988
决定草案	-11.0988
最快	-11.0989
的另一个	-11.099
多个国家	-11.0991
组建	-11.0991
变得更加	-11.0992
其他成员	-11.0993
宗个案	-11.0993
扣查	-11.0995
远远超过	-11.0995
格局	-11.0996
贬值	-11.0996
入住	-11.0997
先生阁下	-11.0997
均会	-11.1
培训课程	-11.1001
不只是	-11.1001
▁有人说	-11.1005
▁环境保护署今	-11.1007
复甦	-11.1009
日生效	-11.1011
的收费	-11.1011
个州	-11.1012
的经济增长	-11.1013
坚定地	-11.1013
跟着	-11.1014
数百	-11.1018
公共服务	-11.1018
公务员制度	-11.102
首长	-11.102
美好	-11.1021
的新闻	-11.1023
做事	-11.1024
将从	-11.1024
各机构	-11.1025
岛上	-11.1026
医师	-11.1027
略有	-11.1029
将就	-11.1034
的印象	-11.1035
北韩	-11.1041
分成	-11.1045
反对党	-11.1046
预防性	-11.1053
污染物	-11.1054
叛乱	-11.1055
▁这也	-11.1066
分别是	-11.1071
会议期间	-11.1071
省长	-11.1073
乐于	-11.1074
简直是	-11.1076
剧院	-11.1078
收看	-11.1078
国家一级	-11.1082
处在	-11.1085
有什么	-11.1089
邮政	-11.1095
是非常重要的	-11.1097
月开始	-11.1101
▁总督	-11.1101
理性	-11.1106
香港大学	-11.1114
开展工作	-11.1114
出去	-11.1115
活动中	-11.1115
的知识	-11.1118
上课	-11.1118
▁但他	-11.1119
项下	-11.1125
天文台	-11.1127
另一名	-11.1129
昂	-11.1132
世界会议	-11.1136
这样一种	-11.1138
执行任务	-11.1142
司长	-11.1143
生殖	-11.1143
的评价	-11.1148
国内法	-11.115
所有人都	-11.1153
一个例子	-11.1154
职业培训	-11.1154
的质素	-11.1156
车上	-11.1158
的事态发展	-11.1162
医护	-11.1162
次级方案	-11.1163
妥	-11.117
赚	-11.1171
有超过	-11.1171
爆炸事件	-11.1172
计划于	-11.1172
剑	-11.1173
乳	-11.1174
民政事务总署	-11.1174
忌	-11.1174
洪都拉斯	-11.1174
南斯拉夫联邦共和国	-11.1174
独联体	-11.1174
锺	-11.1174
卜	-11.1174
愤怒	-11.1174
蔬菜	-11.1174
月下旬	-11.1174
匪徒	-11.1174
市政总署	-11.1174
疲弱	-11.1174
稳固	-11.1174
财务报表	-11.1174
药物管制署	-11.1175
废料	-11.1175
珍贵	-11.1175
异议	-11.1175
西帝汶	-11.1175
稳步	-11.1175
100%	-11.1175
邮政局	-11.1175
歌曲	-11.1175
担当	-11.1175
暴雨	-11.1175
入狱	-11.1176
1981	-11.1176
怎么样	-11.1176
渔民	-11.1177
僱用	-11.1177
抵制	-11.1177
思维	-11.1178
起码	-11.1178
节余	-11.118
南朝鲜	-11.118
或其	-11.1181
合办	-11.1181
提出报告	-11.1182
大西洋	-11.1183
当前的	-11.1184
见解	-11.1186
指导原则	-11.1188
风格	-11.1189
减至	-11.119
人口增长	-11.119
极度	-11.1191
和程序	-11.1192
中东局势	-11.1192
致死	-11.1194
奥运会	-11.1194
▁也许	-11.1195
访问团	-11.1196
将要	-11.1199
加利	-11.1201
学历	-11.1201
也无法	-11.1203
的议程	-11.1203
健康状况	-11.1203
经济政策	-11.1203
资金来源	-11.1204
率先	-11.1204
城市地区	-11.1206
前者	-11.1206
的处境	-11.1206
即是	-11.1209
持久和平	-11.121
我们今天	-11.1211
精神病	-11.1211
全省	-11.1212
在内地	-11.122
我们相信	-11.1224
袭击事件	-11.1227
▁以下	-11.1229
联系在一起	-11.1232
之所以	-11.1234
技术转让	-11.1235
所涉及的	-11.1235
趣	-11.1245
不分	-11.1246
互助	-11.1247
欣	-11.1247
以配合	-11.1247
券	-11.1254
无力	-11.1254
形成了	-11.1267
传送	-11.127
个单位	-11.127
这一事实	-11.1271
每小时	-11.1275
1.3	-11.1275
法学	-11.1276
160	-11.1279
继续支持	-11.1281
取向	-11.1286
十九岁	-11.1286
▁特别委员会	-11.1287
.6%。	-11.129
验证	-11.1294
是唯一	-11.1294
简单的	-11.1295
区域组织	-11.13
支持者	-11.1301
获奖	-11.1311
首脑	-11.1312
访客	-11.1313
▁3.	-11.1313
政府机构	-11.1313
的战斗	-11.1314
明确地	-11.1316
的细节	-11.1318
新界北	-11.1322
四十四	-11.1324
时报	-11.1325
的成本	-11.1325
过多	-11.1325
两条	-11.1327
三次	-11.133
肺	-11.1332
的纪录	-11.1335
这两项	-11.1338
气体	-11.1338
照料	-11.1339
报案	-11.1342
人权情况	-11.1347
判刑	-11.1348
赞	-11.1351
▁这些问题	-11.1357
这就是	-11.1358
室内	-11.1358
贯	-11.1359
阿里	-11.1359
亲人	-11.1361
此前	-11.1361
实在太	-11.1361
用水	-11.1361
尖	-11.1362
公平竞争	-11.1362
公吨	-11.1364
懂得	-11.1365
绩	-11.1368
禽	-11.1369
▁我们不能	-11.1369
应邀	-11.1371
应继续	-11.1371
一如	-11.1371
报告第	-11.1371
全日制	-11.1371
稻	-11.1372
否决	-11.1372
不清	-11.1372
宴	-11.1373
消极	-11.1373
奔	-11.1373
岭	-11.1374
葬	-11.1374
荒	-11.1374
无家可归	-11.1374
'	-11.1374
廖	-11.1374
哀悼	-11.1374
捉	-11.1374
氯	-11.1374
筹措	-11.1374
疑虑	-11.1374
斐济	-11.1374
衫	-11.1374
侵害	-11.1374
监护	-11.1374
一九八五年	-11.1375
赚钱	-11.1375
提高妇女地位	-11.1375
1974	-11.1376
捕鱼	-11.1376
监视	-11.1376
旁边	-11.1376
十分严重	-11.1376
原料	-11.1379
开启	-11.1379
一股	-11.138
走过	-11.138
▁专家组	-11.1382
▁他希望	-11.1382
是基于	-11.1382
动乱	-11.1383
▁发言人强调	-11.1383
助长	-11.1385
复员	-11.1385
第八	-11.1385
消除贫困	-11.1385
外籍	-11.1386
便宜	-11.1388
使馆	-11.1389
无形	-11.1393
配备	-11.1394
指令	-11.1396
成年	-11.1398
不见	-11.14
的位置	-11.14
改变了	-11.1401
相当大的	-11.1402
香港特区政府	-11.1403
光明	-11.1404
迈向	-11.1404
被判处	-11.1405
段所述	-11.1407
在国家一级	-11.1407
部长级会议	-11.1409
▁我说	-11.141
国际原子能机构	-11.141
的竞争力	-11.1412
宏观经济	-11.1414
不佳	-11.1414
这也是	-11.1415
研究结果	-11.1418
的增长率	-11.1421
如果要	-11.1422
信中	-11.1423
民主选举	-11.1426
的材料	-11.1426
则由	-11.1427
会由	-11.1428
的效果	-11.1429
我没有	-11.1431
▁对此	-11.1434
零售业	-11.1435
在一九九七年	-11.1442
亦曾	-11.1442
▁昨天	-11.1442
持有人	-11.1444
的评论	-11.1444
在英国	-11.1446
经济合作	-11.1446
工作时间	-11.1446
街市	-11.1447
第一批	-11.1447
十个	-11.1448
政务	-11.145
委员会第	-11.1456
性能	-11.1458
有关的问题	-11.1461
其中一名	-11.1461
调查组	-11.1462
国际机构	-11.1464
▁所谓	-11.1466
环境问题	-11.1467
三十六	-11.1475
厕所	-11.1476
超过了	-11.1477
灾区	-11.1479
拟议的	-11.148
本届	-11.1481
人身	-11.1484
▁发言人表示	-11.1484
的现状	-11.1485
不平衡	-11.1491
中港	-11.1493
预防和	-11.1496
所产生的	-11.1497
▁谨	-11.1497
市民大众	-11.15
▁特区政府	-11.1501
不变	-11.1503
族群	-11.1505
据此	-11.1506
本年度	-11.1506
所以我	-11.1509
问责	-11.1509
与和平	-11.1512
在现场	-11.1512
这些武器	-11.1516
出路	-11.1518
各派	-11.1523
要看	-11.1524
国际社会对	-11.153
童工	-11.1534
迄今为止	-11.1534
适宜	-11.1535
▁随	-11.1536
六名	-11.1536
感到非常	-11.1538
革	-11.1543
正视	-11.1543
不喜欢	-11.1544
的财务	-11.155
各区	-11.155
达成了	-11.1552
会场	-11.1552
该省	-11.1554
的心理	-11.1557
一倍	-11.1564
▁另一	-11.1564
亡	-11.1566
.9%。	-11.1567
减少到	-11.1567
埔	-11.1568
一只	-11.1569
注意力	-11.1569
本港经济	-11.157
契	-11.1571
陪	-11.1571
训	-11.1572
脏	-11.1575
浓	-11.1575
孤	-11.1575
斯洛伐克	-11.1576
稀	-11.1577
仓	-11.1577
畅	-11.1577
道义	-11.1577
裁判	-11.1577
尝	-11.1577
超级	-11.1578
忧	-11.1578
忙碌	-11.1578
煮	-11.1578
鲍	-11.1578
金沙萨	-11.1578
亨	-11.1578
息息相关	-11.1578
腹	-11.1578
塞内加尔	-11.1578
屡	-11.1578
逊尼派	-11.1578
宋楚瑜	-11.1578
艰巨	-11.1578
茂	-11.1578
尘	-11.1578
讽刺	-11.1578
漠视	-11.1578
噪音	-11.1578
残酷	-11.1578
举措	-11.1578
军备竞赛	-11.1578
▁该委员会	-11.1578
分娩	-11.1578
午餐	-11.1578
提高效率	-11.1578
完毕	-11.1579
致函	-11.1579
昨晚	-11.1579
模拟	-11.1579
结算	-11.1579
诞生	-11.1579
旅馆	-11.1579
叛军	-11.1579
店铺	-11.1579
论述	-11.1579
青春	-11.158
危	-11.158
煤气	-11.158
联合国总部	-11.158
迁往	-11.1581
申明	-11.1581
关怀	-11.1581
南太平洋	-11.1582
恐怖主义分子	-11.1583
新市镇	-11.1583
1965	-11.1583
天主教	-11.1585
增添	-11.1586
人心	-11.1586
联合声明	-11.1587
外贸	-11.1588
半小时	-11.1588
▁警方在	-11.159
初次	-11.1591
案情	-11.1591
原油	-11.1592
行列	-11.1593
仍旧	-11.1594
半岛	-11.1594
执法行动	-11.1599
看起来	-11.1601
管制站	-11.1607
93	-11.1609
休会	-11.1609
而且也	-11.1611
这些国家的	-11.1617
▁我知道	-11.1617
所示	-11.1618
四十七	-11.1618
阵地	-11.1623
防卫	-11.1623
社工	-11.1624
有一种	-11.1625
顾问公司	-11.1626
联网	-11.1627
人道主义局势	-11.1627
不利于	-11.1628
大幅增加	-11.1628
到访	-11.1629
▁在香港	-11.1632
对不起	-11.1635
整个国际社会	-11.1635
我不知道	-11.1636
用地	-11.1636
积极地	-11.1636
下调	-11.1638
要把	-11.1642
的前途	-11.1645
编列	-11.1646
巴勒斯坦领土	-11.1646
的攻击	-11.1646
食水	-11.1647
的信任	-11.1648
眼前	-11.1648
看出	-11.1649
份报告	-11.165
代理主席	-11.1651
一百六十	-11.1656
陆军	-11.1657
总数为	-11.1663
这些因素	-11.1664
还说	-11.1665
▁警方发言人	-11.1667
告诉我	-11.1675
送到	-11.1678
多些	-11.168
想起	-11.168
事物	-11.1681
市政府	-11.1685
好好	-11.1688
发展方案	-11.1689
制服	-11.1693
的名义	-11.1694
仍然存在	-11.1696
享	-11.1697
境外	-11.17
合计	-11.1701
学术界	-11.1703
当选为	-11.1707
▁阿根廷	-11.1707
变成了	-11.1709
初中	-11.1714
只需	-11.1717
物流	-11.172
▁政府在	-11.1723
舞台上	-11.1729
着名的	-11.173
难于	-11.1735
的良好	-11.1735
冲突地区	-11.1735
几乎没有	-11.1737
中医	-11.1738
还认为	-11.1742
帝	-11.1747
180	-11.1748
岗位	-11.1751
▁研讨会	-11.1752
也表示	-11.1756
机动	-11.1756
万人次	-11.1757
合资格	-11.1759
北区	-11.176
十月份	-11.1763
卡拉	-11.1764
十二岁	-11.1766
第四季	-11.1767
议定	-11.1769
卡车	-11.177
四十八	-11.1773
蓬勃	-11.1776
没有什么	-11.178
的基石	-11.1781
好几	-11.1781
七名	-11.1781
蓝色	-11.1783
指的是	-11.1785
掩	-11.1785
伪	-11.1786
恨	-11.1786
仇	-11.1786
燕	-11.1786
直接或间接	-11.1786
阻挠	-11.1786
斯洛文尼亚	-11.1786
剪	-11.1786
必不可少	-11.1786
錶	-11.1786
平方公里	-11.1786
李卓人议员	-11.1786
登革热	-11.1786
彭定康	-11.1786
非洲统一组织	-11.1786
希族塞人	-11.1786
伞	-11.1786
三合会	-11.1786
疏散	-11.1787
挫折	-11.1787
延伸	-11.1787
乔治	-11.1787
逃辟	-11.1787
欠缺	-11.1787
心脏病	-11.1787
兵役	-11.1787
贝宁	-11.1788
碎片	-11.1788
赚取	-11.1788
素质	-11.1788
理念	-11.1788
目录	-11.1788
戏剧	-11.1789
武装分子	-11.1789
妥当	-11.1789
二十四小时	-11.1789
亚洲金融风暴	-11.1789
抵港	-11.179
善政	-11.179
添加	-11.179
公务员队伍	-11.179
还有一些	-11.179
红十字会	-11.1791
殖民主义	-11.1791
1975	-11.1791
所作	-11.1791
长久	-11.1791
先例	-11.1791
证词	-11.1792
医院管理局	-11.1792
绝大部分	-11.1792
边防	-11.1794
目光	-11.1795
知悉	-11.1795
人口中	-11.1796
要点	-11.1796
生毓率	-11.1797
泊	-11.1799
进取	-11.1799
定位	-11.18
书籍	-11.1801
座位	-11.1802
编号	-11.1802
单张	-11.1803
经济复苏	-11.1806
良心	-11.1807
可以用	-11.1807
新年	-11.1807
居留	-11.1811
随之	-11.1813
已超过	-11.1814
金门	-11.1814
让步	-11.1814
公布了	-11.1814
国际金融	-11.1816
艺术家	-11.1817
12%	-11.1821
减少贫穷	-11.1822
个性	-11.1827
的重视	-11.1827
政治和经济	-11.1827
就越	-11.1828
代理人	-11.183
发出了	-11.1831
所提	-11.1839
回答了	-11.1841
担任主席	-11.1843
表示愿意	-11.1846
覆	-11.1846
了一份	-11.1848
保护环境	-11.1854
展开调查	-11.1855
以防止	-11.1861
蚊	-11.1862
继续为	-11.1862
认为这是	-11.1864
族人	-11.1865
充分合作	-11.1866
无条件	-11.187
▁(4)	-11.1871
返回家园	-11.1876
放置	-11.1879
限度	-11.188
在今天的	-11.1885
记者会	-11.1885
更多地	-11.1886
新移民	-11.1886
廉	-11.1891
疫情	-11.1894
公共部门	-11.1894
国家间	-11.1897
总人口	-11.1897
天内	-11.1899
无权	-11.1902
这家	-11.1902
占用	-11.1903
这些项目	-11.1903
裁	-11.1904
仅为	-11.1905
向我们	-11.1907
对那些	-11.1908
年徒刑	-11.1909
较早时	-11.191
看着	-11.1913
正在考虑	-11.1916
密度	-11.1919
▁荷兰	-11.192
九二	-11.1929
十万	-11.1929
▁让我	-11.193
发展援助	-11.1935
提高了	-11.1935
补助金	-11.1936
▁既然	-11.1938
的动力	-11.1938
限定	-11.1939
某些国家	-11.1941
使它	-11.1942
以促进	-11.1943
可信	-11.1944
则会	-11.1946
的债务	-11.1947
带有	-11.1948
▁提交人	-11.1953
▁土耳其	-11.1953
谓	-11.1953
92	-11.1955
最有	-11.196
双方同意	-11.1962
与此同时	-11.1966
补充说	-11.1966
81	-11.1969
决策过程	-11.1969
一岁	-11.1974
现阶段	-11.1975
方面的工作	-11.1976
的款项	-11.1981
环境卫生	-11.1983
泊车	-11.1983
加紧	-11.1989
宣	-11.1989
死伤	-11.1989
的年龄	-11.1991
滥	-11.1991
世贸	-11.1991
进行改革	-11.1992
这个项目	-11.1992
震惊	-11.1993
最具	-11.1994
二零零三年	-11.1994
幻	-11.1996
坛	-11.1996
的工作量	-11.1997
遥	-11.1997
嫁	-11.1997
奋	-11.1998
旺	-11.1998
妙	-11.1998
挫	-11.1999
墓	-11.1999
噢	-11.1999
丙	-11.1999
李永达议员	-11.1999
爬	-11.1999
蒋	-11.1999
哦	-11.1999
纯粹	-11.1999
海洛因	-11.1999
亭	-11.1999
独裁	-11.1999
杀戮	-11.1999
除其他外	-11.1999
珊	-11.1999
弊端	-11.2
铭记	-11.2
生物多样性	-11.2
驳回	-11.2
钢铁	-11.2
电单车	-11.2
信用卡	-11.2
中央公积金	-11.2
废除死刑	-11.2001
账户	-11.2001
毋须	-11.2001
合乎	-11.2001
古迹	-11.2001
历程	-11.2001
东涌	-11.2001
抓住	-11.2002
预期寿命	-11.2002
纪念封	-11.2002
平民百姓	-11.2003
记载	-11.2003
提请注意	-11.2003
教堂	-11.2004
又说	-11.2004
讯号	-11.2006
精力	-11.2008
专长	-11.2008
国际社会必须	-11.2008
的主权	-11.2009
解体	-11.2009
雨量	-11.201
才能够	-11.201
投机	-11.2011
河流	-11.2011
公众利益	-11.2015
副总统	-11.2017
陷于	-11.2018
无牌	-11.2021
本质	-11.2022
▁有些人	-11.2026
第二项	-11.2027
门诊	-11.2028
几项	-11.2028
才有	-11.2029
几内亚比绍	-11.203
遣	-11.203
少数人	-11.2034
海运	-11.2035
战斗人员	-11.2035
▁同期	-11.2036
种子	-11.2039
的功能	-11.204
诚实	-11.204
所进行的	-11.2042
教室	-11.2042
预防措施	-11.2045
是重要的	-11.2047
▁联合王国	-11.2048
对策	-11.205
运营	-11.2055
营办商	-11.2056
分组	-11.2056
之日	-11.206
严肃	-11.2063
各地的	-11.207
新任	-11.2076
但他	-11.2078
是国际社会	-11.2078
▁但由于	-11.2078
外面	-11.208
穷国	-11.208
的主要目标	-11.2083
人工	-11.2089
于去年	-11.2095
九月份	-11.2096
阿拉伯国家	-11.2097
恶意	-11.2097
我今天	-11.21
和分析	-11.2102
北角	-11.2103
行政会议	-11.2104
最后一次	-11.2105
在华盛顿	-11.2109
可说是	-11.2111
万多	-11.2112
▁这些人	-11.2115
酒会	-11.212
採取行动	-11.2121
第二期	-11.2122
置于	-11.2123
吸	-11.2123
业务活动	-11.2125
不法	-11.2133
家族	-11.2133
发生率	-11.2138
强调必须	-11.214
正常化	-11.2148
▁近年	-11.2152
▁委员会欢迎	-11.2152
建议将	-11.2154
不便	-11.2154
车主	-11.2157
黑人	-11.2158
管理系统	-11.2165
论文	-11.2165
不反对	-11.217
也正在	-11.2171
道路上	-11.2172
违法行为	-11.2176
回报	-11.2176
94	-11.2177
起到	-11.2178
之用	-11.2178
是一位	-11.2184
这个数字	-11.2185
卖方	-11.2185
在明年	-11.2187
露出	-11.2189
孕妇	-11.2191
纲领	-11.2192
鹿	-11.2192
警方会	-11.2194
捷	-11.2197
就读	-11.2199
所知	-11.22
使他	-11.2201
界人士	-11.2203
不容	-11.2204
誉	-11.2205
进行协商	-11.2205
阿拉伯文	-11.2207
大多数国家	-11.2209
萧	-11.2212
毕	-11.2213
被迨捕	-11.2214
廊	-11.2215
本周	-11.2215
扇	-11.2215
犹	-11.2215
慧	-11.2216
按揭	-11.2216
红十字国际委员会	-11.2216
侯	-11.2216
匮乏	-11.2216
吉布提	-11.2216
清真寺	-11.2216
腰	-11.2216
非典型肺炎	-11.2216
昭	-11.2216
穆罕默德	-11.2216
落马洲	-11.2216
推荐	-11.2216
眉	-11.2216
孝	-11.2216
殿	-11.2216
概括	-11.2217
魔	-11.2217
铅	-11.2217
一会儿	-11.2217
民政事务局	-11.2217
暗示	-11.2217
不单止	-11.2217
构思	-11.2217
宣告	-11.2217
阶级	-11.2217
英勇	-11.2217
生涯	-11.2217
迂害	-11.2218
颜色	-11.2218
团伙	-11.2218
走廊	-11.2218
充满信心	-11.2218
绿色	-11.2219
亲切	-11.222
人口普查	-11.2221
经纪	-11.2221
伟大的	-11.2221
严格遵守	-11.2222
善意	-11.2223
互利	-11.2224
客运	-11.2224
领空	-11.2224
外交官	-11.2224
优点	-11.2226
跨部门	-11.2228
成衣	-11.2228
加强合作	-11.2229
交往	-11.223
感动	-11.223
平常	-11.223
四十六	-11.2231
检查站	-11.2231
▁发言人指出	-11.2232
公共交通	-11.2232
开列	-11.2232
非政府机构	-11.2237
执法人员	-11.2237
大力支持	-11.2237
字样	-11.2237
监测机制	-11.2237
冲突各方	-11.2237
这些组织	-11.2241
船民	-11.2242
他们自己	-11.2243
警务处	-11.2243
商场	-11.2243
业已	-11.2247
的胜利	-11.2248
竭力	-11.2251
在国际上	-11.2251
做出了	-11.2251
征税	-11.2254
前苏联	-11.2254
力度	-11.2255
无罪	-11.2259
公认的	-11.2264
发明	-11.2264
劫持	-11.2272
管理部门	-11.2275
被摧毁	-11.2277
任用	-11.2278
该基金	-11.2278
向联合国	-11.2282
已获	-11.2286
小武器	-11.2288
须于	-11.2291
归还	-11.2294
的方针	-11.2294
中环	-11.2296
上水	-11.2297
均须	-11.2299
一笔	-11.2301
峰会	-11.2301
污	-11.2302
香港居民	-11.2305
政治解决	-11.2305
应尽快	-11.2309
受灾	-11.2309
特质	-11.2315
研究员	-11.2317
兑	-11.2321
调低	-11.2324
排放量	-11.2328
时表示	-11.2329
有形	-11.2336
世界贸易	-11.2342
安全理事会成员	-11.2348
人来说	-11.2349
当晚	-11.2351
▁它也	-11.2354
这并不	-11.2354
必须继续	-11.2356
水量	-11.236
15.	-11.2363
这样说	-11.2363
教徒	-11.2365
核能	-11.2373
一个新的	-11.2373
事务司	-11.2375
物件	-11.239
▁他们还	-11.2394
调查队	-11.2396
将导致	-11.2397
于一九九九年	-11.2398
重要问题	-11.2401
很强	-11.2402
.1	-11.2406
▁中国政府	-11.2411
综合性	-11.2413
逐年	-11.2426
一句话	-11.2427
估	-11.2432
有若干	-11.2433
不赞成	-11.2433
不住	-11.2434
粒	-11.2434
携手	-11.2436
雕	-11.2437
芬	-11.2438
度过	-11.2438
焚	-11.2438
昆	-11.2438
杆	-11.2439
锐	-11.2439
猫	-11.2439
马德里	-11.2439
梁智鸿议员	-11.2439
磁	-11.2439
饼	-11.2439
摸	-11.2439
贿	-11.2439
马英九	-11.2439
蛇	-11.2439
淑	-11.2439
食物环境卫生署	-11.2439
汲取	-11.2439
乘搭	-11.2439
榜样	-11.2439
休闲	-11.2439
动态	-11.2439
赌博	-11.2439
跟踪	-11.244
西撒哈拉	-11.244
牢房	-11.244
抵销	-11.244
可否	-11.244
令人震惊	-11.244
答辩	-11.244
保安局局长	-11.244
道歉	-11.244
减缓	-11.244
失误	-11.244
补编	-11.2441
代表出席	-11.2442
执政党	-11.2442
出租	-11.2442
热切	-11.2442
无奈	-11.2443
外汇基金	-11.2443
所需经费	-11.2443
世界贸易组织	-11.2443
频道	-11.2443
忍受	-11.2444
艰苦	-11.2444
合适	-11.2444
收藏	-11.2446
民用	-11.2446
同期比较	-11.2446
换取	-11.2446
实行了	-11.2446
发生了变化	-11.2447
进食	-11.2447
鱼类	-11.2447
终生	-11.2448
建立信任	-11.2448
至今已有	-11.2448
有否	-11.2452
经济成长	-11.2453
门票	-11.2453
起诉书	-11.2453
价值观念	-11.2454
受益者	-11.2454
文职	-11.2455
承担责任	-11.2456
只限于	-11.2456
穿着	-11.2457
省级	-11.2458
要想	-11.2464
万个	-11.2466
不停	-11.2467
线路	-11.247
每项	-11.2471
当地居民	-11.2472
斯坦	-11.2476
进一步发展	-11.2482
更有效地	-11.2483
都被	-11.2484
会引起	-11.2484
2007	-11.2487
受到威胁	-11.2492
劳工市场	-11.2494
大于	-11.2496
扣除	-11.2498
联合国秘书处	-11.2498
当场	-11.2501
四十二	-11.2502
吸引了	-11.2506
▁这不是	-11.2506
▁直到	-11.2508
到处	-11.2514
其任务	-11.2516
发展筹资	-11.2517
平均数	-11.252
为数	-11.2524
也一样	-11.2525
服务质素	-11.253
来讲	-11.2532
存放	-11.2534
是完全	-11.2538
▁或许	-11.2538
病患	-11.2541
规划署	-11.2541
的生存	-11.2542
签名	-11.2544
全国各地	-11.2549
不希望	-11.255
从前	-11.255
很快就	-11.2551
以打击	-11.2552
其中一项	-11.2552
克里	-11.2553
这个时候	-11.2561
很多问题	-11.2567
▁原来	-11.2567
研究中心	-11.2568
民政	-11.2569
医生说	-11.2571
较小	-11.2573
妇女占	-11.2575
性行为	-11.2577
促请政府	-11.2579
目前仍	-11.2583
改革进程	-11.2588
在该地区	-11.2589
多处	-11.2589
得到解决	-11.2592
被释放	-11.2596
可以肯定	-11.2596
定会	-11.2597
公众对	-11.26
加剧了	-11.2602
对世界	-11.2613
校舍	-11.2617
将不会	-11.2623
16.	-11.2627
存在于	-11.2631
迎	-11.2633
年代初	-11.2634
行政局	-11.2638
的种种	-11.2638
急救	-11.2639
却没有	-11.264
战争中	-11.2643
通过谈判	-11.2643
贸易伙伴	-11.2644
不能再	-11.2646
产妇	-11.2648
错了	-11.2648
她说	-11.265
来解决	-11.2653
执行其	-11.2655
虐	-11.266
既是	-11.2662
围绕	-11.2662
恐	-11.2663
的核试验	-11.2664
廷	-11.2665
疏	-11.2665
吵	-11.2665
典范	-11.2666
胖	-11.2666
抗生素	-11.2666
托克劳	-11.2666
玲	-11.2666
非殖民化	-11.2666
祭	-11.2666
淘汰	-11.2666
训研所	-11.2666
天水围	-11.2666
张文光议员	-11.2666
布基纳法索	-11.2666
战后	-11.2666
翠	-11.2666
闪	-11.2666
欣慰	-11.2666
联保部队	-11.2666
悲痛	-11.2666
巡视	-11.2667
进行讨论	-11.2667
遥远	-11.2667
临时市政局	-11.2667
港元存款	-11.2667
抽样	-11.2668
警觉	-11.2668
一九九二年	-11.2668
房舍	-11.2668
预审	-11.2668
招牌	-11.2668
保毓	-11.2668
1.1	-11.2668
果断	-11.2669
撤军	-11.2669
遍布	-11.2669
称赞	-11.2669
访问行程	-11.2669
海洋法公约	-11.2669
也应该	-11.267
实例	-11.267
普通话	-11.2671
鲜明	-11.2672
书记	-11.2673
电视节目	-11.2673
保管	-11.2674
通告	-11.2674
首批	-11.2674
商标	-11.2674
贫富	-11.2674
接管	-11.2675
农业生产	-11.2675
盟约	-11.2682
计划生毓	-11.2683
大多数人	-11.2684
宣传运动	-11.2685
处处长	-11.2685
71	-11.2686
据点	-11.2686
咨询意见	-11.2687
先进的	-11.2687
运到	-11.2687
运动会	-11.2688
官兵	-11.2689
人力资源管理	-11.269
风气	-11.269
这些事件	-11.2691
九时	-11.2691
简要	-11.2692
根本没有	-11.2693
反映在	-11.2694
以应付	-11.2694
向来	-11.2694
驻留	-11.2695
免除	-11.2697
车站	-11.2697
发挥重要作用	-11.2699
阿拉	-11.2701
的优势	-11.2701
波斯尼亚塞族	-11.2702
多云	-11.2708
世界人口	-11.2709
三十二	-11.2709
而这些	-11.271
为本	-11.2711
看守	-11.2711
刊登	-11.2713
调查委员会	-11.2717
主持下	-11.2717
刑事司法	-11.2718
高增值	-11.272
一把	-11.272
充分利用	-11.2722
助理秘书长	-11.2724
通用	-11.2726
各州	-11.2727
路边	-11.2733
中介	-11.2734
性格	-11.2735
看过	-11.2735
非洲各国	-11.2738
出入	-11.2739
该法案	-11.2743
私有	-11.2749
俩	-11.2757
下一个	-11.276
犹太	-11.276
的职能	-11.2766
的查询	-11.2767
这段	-11.2767
的苦难	-11.2768
恰	-11.2769
相对于	-11.2774
充分支持	-11.2777
就不能	-11.2777
简直	-11.2783
官员说	-11.2786
的名称	-11.2786
二十世纪	-11.2794
知情	-11.2794
背景下	-11.2798
完全支持	-11.2799
肯定会	-11.28
本项目	-11.2804
不应当	-11.2805
感到鼓舞	-11.281
东南欧	-11.2811
是合理的	-11.2813
不出	-11.2816
对比	-11.282
矿物	-11.282
仅占	-11.282
可通过	-11.2822
殖民	-11.2822
在中东	-11.2823
该领土	-11.2824
▁举例	-11.2826
门口	-11.2829
贩	-11.283
委员会委员	-11.2837
▁此举	-11.2837
▁胡锦涛	-11.2844
▁一些国家	-11.2846
可由	-11.2849
91	-11.2849
平等机会	-11.2849
仍会	-11.2851
两类	-11.2855
代表团成员	-11.2858
第一届	-11.286
第二部分	-11.2864
名工作人员	-11.2866
核不扩散	-11.2866
作出的承诺	-11.2868
二五	-11.2869
本法院	-11.287
人数超过	-11.2871
没有出现	-11.2875
年一月	-11.2878
偿	-11.2879
%	-11.2883
全都	-11.2883
步伐	-11.2886
没有收到	-11.2886
空调	-11.2889
24%	-11.289
迈进	-11.2892
郎	-11.2894
个问题	-11.2894
挥	-11.2895
织	-11.2895
楚	-11.2896
▁该名男子	-11.2897
棍	-11.2898
一百多	-11.2898
奠定	-11.2898
瘫痪	-11.2898
当务之急	-11.2898
联检组	-11.2898
钦	-11.2898
颂	-11.2898
垮	-11.2898
狭隘	-11.2899
科特迪瓦	-11.2899
痕迹	-11.2899
坦桑尼亚联合共和国	-11.2899
扔	-11.2899
粟	-11.2899
鞭	-11.2899
教科书	-11.2899
行之有效	-11.2899
侦察	-11.2899
邪恶	-11.2899
遵照	-11.2899
讚扬	-11.2899
借鉴	-11.2899
农历新年	-11.2899
抵押	-11.2899
燃烧	-11.2899
篇幅	-11.2899
争夺	-11.2899
至为重要	-11.2899
竞赛	-11.29
黑暗	-11.29
眼镜	-11.29
检察院	-11.29
援引	-11.29
引述	-11.29
等同于	-11.29
规格	-11.29
惩处	-11.2901
车臣	-11.2901
领土完整	-11.2901
下半年	-11.2901
绝望	-11.2901
汇编	-11.2901
呈交	-11.2902
华侨	-11.2902
好评	-11.2902
的士司机	-11.2902
安哥拉政府	-11.2902
令人失望	-11.2902
寻求庇护者	-11.2903
文职人员	-11.2904
医护人员	-11.2904
患病	-11.2905
毛额	-11.2905
九六年	-11.2905
票赞成	-11.2906
航线	-11.2906
送院	-11.2906
豁免权	-11.2906
消费品	-11.2906
厘定	-11.2906
反弹	-11.2907
驾驶人士	-11.2907
选举产生	-11.2908
国防部长	-11.2908
热带	-11.2908
入息	-11.2909
长久以来	-11.2909
建立无核武器区	-11.291
台独	-11.291
动工	-11.2911
周边	-11.2911
包机	-11.2912
消除贫穷	-11.2912
署理	-11.2912
回去	-11.2913
原意	-11.2914
2500	-11.2917
▁行政长官董建华	-11.2918
坚决支持	-11.292
团员	-11.2921
预留	-11.2921
刚果人民	-11.2922
就是这样	-11.2925
极力	-11.2926
之初	-11.2928
城市规划	-11.2928
脆弱性	-11.2929
可以获得	-11.2931
法医	-11.2933
成年人	-11.2933
发问	-11.2934
进了	-11.2934
提出上诉	-11.2935
感到满意	-11.2938
九巴	-11.294
被定罪	-11.2947
应于	-11.2948
有效率的	-11.295
拆除	-11.295
大会主席	-11.2953
你看	-11.2954
的组成部分	-11.2956
不适合	-11.2957
中医药	-11.2957
没什么	-11.2958
拘捕一名	-11.2958
里亚	-11.2961
适当地	-11.2961
美国国会	-11.2962
国家主权	-11.2966
申请书	-11.2968
过份	-11.2969
完全符合	-11.297
地质	-11.2973
曾多次	-11.2975
访问期间	-11.2975
上文	-11.2975
请致电二	-11.2977
有一天	-11.2977
中期审查	-11.2977
加入了	-11.2978
日程	-11.2978
的作法	-11.298
的重点是	-11.2981
每位	-11.2987
同类	-11.2987
▁这份	-11.2988
第二届	-11.2988
提供经费	-11.2989
行动自由	-11.2993
▁初步调查显示	-11.2993
务实	-11.2995
粮食安全	-11.2997
今晨	-11.2999
在二零零零年	-11.2999
召开了	-11.3
准备好	-11.3002
两间	-11.3003
下次	-11.3004
需要加强	-11.3004
解决这些问题	-11.3004
处以	-11.3005
在该国	-11.3009
尤其在	-11.3009
三号	-11.3012
空气污染	-11.3012
上空	-11.3012
本公约	-11.302
调查报告	-11.3021
斯基	-11.3024
还规定	-11.3025
.5%。	-11.3027
在一九九八年	-11.3031
工商业	-11.3031
向安理会	-11.3034
的渠道	-11.3036
发生的事件	-11.3037
身心	-11.3038
需时	-11.3038
核证	-11.304
能得到	-11.3041
辅	-11.3041
持续增长	-11.3047
初步调查	-11.3052
法院审理	-11.3054
通过一项	-11.3056
网路	-11.3059
下一步	-11.3064
十五分	-11.3064
往年	-11.3067
整整	-11.3071
明显地	-11.3075
转换	-11.3075
一月份	-11.3081
易于	-11.3083
亲身	-11.3085
必须采取	-11.3089
将尽快	-11.309
▁他也	-11.3094
数十	-11.3095
提交了	-11.3098
币	-11.3099
绍	-11.3101
某些人	-11.3106
许多地方	-11.3107
七五	-11.311
日电	-11.3114
和决策	-11.3115
行政管理	-11.3116
尺	-11.3116
晚会	-11.312
因为这是	-11.3122
目前没有	-11.3124
的第一步	-11.3126
程度上	-11.3126
惩教署	-11.313
倘	-11.3133
械	-11.3134
洁	-11.3134
罢	-11.3135
图表	-11.3135
铭	-11.3136
内部监督事务厅	-11.3137
不结盟运动	-11.3137
布鲁塞尔	-11.3137
牲畜	-11.3137
碗	-11.3137
酿	-11.3137
▁审计委员会	-11.3137
临区局	-11.3137
筒	-11.3137
孟	-11.3137
联格观察团	-11.3137
小册子	-11.3137
显而易见	-11.3137
糖尿病	-11.3137
座谈会	-11.3137
可卡因	-11.3137
龟	-11.3137
柒	-11.3137
扭曲	-11.3137
弹道导弹	-11.3137
聆听	-11.3137
乳癌	-11.3137
追踪	-11.3137
肺癌	-11.3137
漏洞	-11.3137
崇拜	-11.3137
竣工	-11.3137
抽签	-11.3137
搬迁	-11.3137
顺序	-11.3137
在许多情况下	-11.3137
反驳	-11.3137
迫害	-11.3138
缺席	-11.3138
裁减	-11.3138
在同次会议上	-11.3138
安老院	-11.3138
炸死	-11.3138
会计师	-11.3139
亲友	-11.3139
表态	-11.3139
全日制学生	-11.314
实习	-11.314
接替	-11.314
环球	-11.314
自愿捐款	-11.314
返港	-11.314
微型	-11.3141
造福	-11.3141
兼职	-11.3141
罗湖	-11.3142
迹象显示	-11.3142
喜爱	-11.3142
重新安置	-11.3143
运载	-11.3143
什么时候	-11.3144
创始	-11.3145
行政机关	-11.3146
威力	-11.3147
沦为	-11.3148
洪水	-11.3148
教员	-11.3148
改动	-11.3148
海洋法	-11.3149
千禧	-11.3149
章节	-11.315
相若	-11.315
在南非	-11.3151
公顷土地	-11.3151
明星	-11.3152
没有发生	-11.3152
一些重要	-11.3153
黑山	-11.3154
这种现象	-11.3154
东主	-11.3154
常驻代表	-11.3155
试点	-11.3155
夜间	-11.3155
促进发展	-11.316
人权署	-11.3161
强调指出	-11.3164
起飞	-11.3164
男生	-11.3165
国家警察	-11.3165
受益于	-11.3166
权利和自由	-11.3167
三角	-11.3168
应确保	-11.3169
创下	-11.317
35%	-11.317
要求政府	-11.3171
团长	-11.3173
人身安全	-11.3173
新型	-11.3174
健康和	-11.3175
第一项	-11.3175
感到遗憾	-11.3175
再加上	-11.3175
占总	-11.3177
派驻	-11.3178
哪个	-11.318
联合国开发计划署	-11.318
也曾	-11.3181
肩负	-11.3183
▁特别报告员还	-11.3183
那就	-11.3184
新闻中心	-11.3185
培训方案	-11.3185
排名	-11.3186
名儿童	-11.3187
的成长	-11.3188
多久	-11.3188
被捕者	-11.3188
保险公司	-11.3189
有幸	-11.3189
九龙城	-11.3191
重开	-11.3191
技术能力	-11.3193
证实了	-11.3193
在现阶段	-11.3194
完善的	-11.3195
不信任	-11.3196
成立后	-11.3199
国内外	-11.32
巡逻队	-11.3203
最主要的	-11.3204
反措施	-11.3205
判定	-11.3205
只占	-11.3206
不管是	-11.3207
各成员国	-11.3207
国际文书	-11.3211
这些数字	-11.3213
总量	-11.3215
向市民	-11.3216
各有关	-11.3217
一百八十	-11.3217
关注的是	-11.3217
七十二	-11.3222
1967	-11.3226
史上	-11.3228
加强联合国	-11.3229
景观	-11.3234
了一系列	-11.3234
国界	-11.3235
行使其	-11.3239
东北部	-11.3245
街上	-11.3245
信誉	-11.3247
很长	-11.3247
发展问题	-11.3248
发言中	-11.3249
极少	-11.3253
树木	-11.3253
士气	-11.3255
其他方面	-11.3258
不明白	-11.3259
第一次会议	-11.326
世纪议程	-11.3261
阿拉伯人	-11.327
代表们	-11.3273
维持和平部队	-11.3273
过高	-11.3276
和平文化	-11.3281
犹太人	-11.3282
过渡期	-11.3283
起案件	-11.3288
恐怖袭击	-11.3289
不只	-11.3289
完了	-11.3289
经济利益	-11.3293
李议员	-11.3293
领土上	-11.3294
社署	-11.3295
也有人	-11.3299
维持和平行动部	-11.33
之路	-11.3301
与此	-11.3302
以提高	-11.3309
损害了	-11.3311
▁地政总署	-11.3314
57%	-11.3314
成员包括	-11.3316
委员会的建议	-11.3316
费用为	-11.3317
以辟免	-11.3319
可以从	-11.3319
后不久	-11.3321
禁令	-11.3326
源于	-11.3329
*	-11.333
主要原因是	-11.3332
次区域	-11.3334
开车	-11.3339
法律程序	-11.334
倒是	-11.334
采用了	-11.3341
该系统	-11.3342
恐怖主义活动	-11.3343
才开始	-11.3343
这正是	-11.3344
漫	-11.3344
五万	-11.3345
年底前	-11.3349
公共卫生	-11.335
区域内	-11.335
进展情况	-11.3351
繁	-11.3352
有益的	-11.3358
还有其他	-11.3359
在安哥拉	-11.3362
▁有人认为	-11.3362
勇	-11.3364
▁该项目	-11.3364
已取得	-11.3365
舒	-11.3365
打算在	-11.3371
更正	-11.3372
盲	-11.3375
粮农组织	-11.3375
指派	-11.3375
筑	-11.3377
陌生	-11.3378
救护	-11.3379
泄	-11.338
滚	-11.338
前瞻性	-11.338
过早	-11.338
法新社	-11.338
巷	-11.338
滴	-11.338
睦	-11.3381
经社理事会	-11.3381
巴勒斯坦权力机构	-11.3381
在一定程度上	-11.3381
张建宗	-11.3381
冷战的结束	-11.3381
饲养	-11.3381
路政署	-11.3381
追究	-11.3381
勋章	-11.3381
沉默	-11.3381
索偿	-11.3381
进口货值	-11.3381
兼顾	-11.3381
撤退	-11.3381
巿场	-11.3382
安慰	-11.3382
借助	-11.3382
审判分庭	-11.3382
截止日期	-11.3382
致敬	-11.3382
决赛	-11.3383
低估	-11.3383
1373	-11.3383
不法行为	-11.3383
多边主义	-11.3383
财团	-11.3384
身亡	-11.3384
令人不安	-11.3384
▁有鉴于	-11.3385
1964	-11.3385
受训	-11.3385
航天员	-11.3385
天津	-11.3386
1.2	-11.3386
兼任	-11.3386
奥斯	-11.3387
沙龙	-11.3388
温度	-11.3388
修理	-11.3388
警报	-11.3388
定论	-11.3388
▁另有	-11.3389
年下半年	-11.3389
▁瑞典	-11.3389
的严重性	-11.3389
该司	-11.3389
户主	-11.339
水灾	-11.339
划定	-11.3391
经济危机	-11.3391
我真的	-11.3392
人丧生	-11.3393
▁该署	-11.3393
架次	-11.3394
交谈	-11.3394
议会联盟	-11.3394
冷战结束	-11.3394
实物	-11.3395
实现这些目标	-11.3395
局限于	-11.3395
盛行	-11.3396
构成威胁	-11.3396
立法局议员	-11.3396
提交立法会	-11.3396
绝非	-11.3397
预防犯罪	-11.3398
的先决条件	-11.3398
该市	-11.34
交界	-11.34
表示满意	-11.34
司法部长	-11.3403
即使是	-11.3404
节日	-11.3404
的效力	-11.3404
打电话	-11.3405
开发银行	-11.3408
希望能够	-11.3412
条约机构	-11.3412
进行对话	-11.3412
顺利完成	-11.3413
不定	-11.3415
廉价	-11.3417
13%	-11.3418
我现在请	-11.3418
资料显示	-11.3418
执法机构	-11.3421
土地上	-11.3421
立法会选举	-11.3421
扩大到	-11.3422
仍有待	-11.3424
万人口	-11.3425
陆地	-11.3428
基础结构	-11.3429
首先要	-11.3429
相处	-11.3429
联邦政府	-11.343
安全局势	-11.343
乃至	-11.3434
空间技术	-11.3435
详细说明	-11.3436
在会上	-11.3436
老化	-11.3436
撒哈拉以南非洲	-11.3437
议长	-11.3437
还要求	-11.3438
经济和社会发展	-11.344
感到十分	-11.3441
有足够的	-11.3441
经已	-11.3442
强国	-11.3448
第九	-11.3448
被列为	-11.3449
忘了	-11.3449
促进人权	-11.3451
已证明	-11.3453
一幅	-11.3454
好事	-11.3455
德拉	-11.3456
深为	-11.3456
降低了	-11.3458
制裁委员会	-11.346
可使	-11.3461
改善工程	-11.3462
一连串	-11.3464
请你	-11.3465
总额为	-11.3467
只有一个	-11.3468
此后	-11.347
所用的	-11.347
10000	-11.3471
▁我不知道	-11.3475
更美好	-11.3476
登上	-11.3478
大事	-11.3479
▁但这	-11.3479
日间	-11.3483
▁倘若	-11.3486
▁该方案	-11.3488
外商	-11.3489
不适	-11.3495
加强其	-11.3497
日本人	-11.3497
中毒	-11.35
因为这	-11.3503
这起	-11.3503
所面临的	-11.3506
十四岁	-11.3508
进一步改善	-11.3509
的一大	-11.3517
开始实施	-11.3517
新建	-11.3522
该案	-11.3524
妇女权利	-11.3524
年青	-11.3526
印度尼西亚政府	-11.3534
政府应该	-11.3534
教毓制度	-11.3538
为自己	-11.3539
的困境	-11.3541
懂	-11.3543
的措词	-11.3545
少了	-11.3549
介	-11.355
申请者	-11.355
▁这是一个	-11.3551
这些报告	-11.3552
的薪酬	-11.3552
东南	-11.3555
(1999	-11.3556
熟悉的	-11.3558
每个人都	-11.3559
交代	-11.356
书中	-11.3561
我个人	-11.3563
美国总统	-11.3566
政治家	-11.3566
十二月份	-11.3571
也没	-11.3572
经济全球化	-11.3575
被起诉	-11.3576
经济问题	-11.3578
众所周知	-11.3582
日结束	-11.3584
跟我	-11.3586
举出	-11.3587
起源	-11.359
半年	-11.359
一流	-11.359
独特	-11.3592
委员会会议	-11.3592
的特色	-11.3596
贷	-11.3602
严重威胁	-11.3606
不具备	-11.3609
展开了	-11.3609
审计委员会	-11.361
已出院	-11.3613
的议题	-11.3615
验	-11.3616
厘	-11.362
年以前	-11.3621
崇	-11.3624
税制	-11.3625
不遵守	-11.3626
及早	-11.3627
鼠	-11.3628
柯	-11.3629
佐	-11.3629
匪	-11.363
滋	-11.363
屈	-11.363
捞	-11.363
炭	-11.363
窝	-11.363
盒	-11.363
博茨瓦纳	-11.363
坪	-11.363
相辅相成	-11.363
夹	-11.3631
卑	-11.3631
磅	-11.3631
廉政公署	-11.3631
催	-11.3631
嘉年华	-11.3631
巴布亚新几内亚	-11.3631
浙江	-11.3631
记者招待会	-11.3631
竭尽全力	-11.3631
缝	-11.3631
▁他续说	-11.3631
挖掘	-11.3631
滋扰	-11.3631
半个世纪	-11.3631
大体上	-11.3631
赤贫	-11.3631
寒冷	-11.3631
产妇死亡率	-11.3631
阴谋	-11.3631
积聚	-11.3631
公寓	-11.3631
通缉	-11.3631
筹集	-11.3632
偶然	-11.3632
坦克	-11.3632
汽油	-11.3632
过后	-11.3632
悉尼	-11.3632
我只想	-11.3632
乘坐	-11.3632
竞争对手	-11.3632
的理念	-11.3632
抬头	-11.3633
招待	-11.3633
预订	-11.3634
追查	-11.3634
补救办法	-11.3634
视野	-11.3635
为促进	-11.3635
有组织犯罪	-11.3635
鉴定	-11.3635
海域	-11.3636
尚待	-11.3636
方法来	-11.3636
局限性	-11.3637
表扬	-11.3637
解答	-11.3638
都不会	-11.3639
偏远	-11.364
▁秘书长的报告	-11.3641
人类社会	-11.3642
文艺	-11.3642
接种	-11.3644
偏高	-11.3645
领事	-11.3645
股票市场	-11.3646
难度	-11.3647
认真考虑	-11.3648
逃走	-11.3648
地铁公司	-11.3648
天下	-11.3649
等国	-11.365
自信	-11.3651
俄国	-11.3654
出入境	-11.3654
非正规	-11.3655
十周年	-11.3655
后期	-11.3655
会考虑	-11.3656
不支持	-11.3656
的背景	-11.3656
科索沃塞族	-11.3657
严重受伤	-11.3658
28%	-11.3661
批准书	-11.3662
希望看到	-11.3662
通行	-11.3663
进一步恶化	-11.3663
台上	-11.3663
漫画	-11.3663
多文化	-11.3664
有所减少	-11.3664
公会	-11.3665
名学生	-11.3665
侵略者	-11.3669
冷战后	-11.367
碰到	-11.367
多万人	-11.367
成份	-11.3673
全人类	-11.3674
就无法	-11.3675
民意调查	-11.3676
很好地	-11.3678
西方国家	-11.3679
资料来源	-11.3682
宪法第	-11.3683
转达	-11.3684
建国	-11.3684
严重问题	-11.3686
要面对	-11.3687
出院	-11.3687
这三个	-11.3691
令人遗憾	-11.3698
的受访者	-11.3698
而努力	-11.3699
74	-11.3703
可考虑	-11.3703
载于附件	-11.3703
那次	-11.3703
答应	-11.3703
开心	-11.3704
到现在	-11.3712
长大	-11.3713
商店	-11.3713
分阶段	-11.3713
新措施	-11.3716
国家和国际	-11.3717
任务规定	-11.3718
无线	-11.372
阿布	-11.3724
沿用	-11.3725
医务	-11.3726
更能	-11.3729
.8%。	-11.373
提出意见	-11.3734
早晨	-11.3737
特里	-11.3738
当今世界	-11.3738
周围的	-11.3739
跨界	-11.374
然后再	-11.3742
劳动人口	-11.3743
转运	-11.3744
联合国大会	-11.3745
充分参与	-11.3748
的成效	-11.3748
狱	-11.3749
得太	-11.3754
已达到	-11.3755
在短期内	-11.3763
调查表	-11.3764
研究金	-11.3766
总收入	-11.377
行李	-11.3771
尼斯	-11.3772
会议中	-11.3775
直接参与	-11.3775
令人关注	-11.3777
这些方案	-11.3782
所有国家都	-11.3782
所取得的	-11.3783
低下	-11.3786
不做	-11.3794
假日	-11.3796
45%	-11.3797
进程中	-11.3804
这一次	-11.3805
本条例草案	-11.3808
就任	-11.3812
南海	-11.3813
受访者	-11.3818
排水	-11.382
下一次	-11.3824
预见	-11.3828
▁哎	-11.3828
同其他	-11.383
不能接受	-11.3831
运输业	-11.3832
因此而	-11.3834
名平民	-11.3836
一艘	-11.3836
的可行性	-11.3841
南部非洲	-11.3842
一月一日	-11.3845
造成巨大	-11.3852
食物权	-11.3856
▁如果要	-11.3861
正确地	-11.3866
把自己	-11.3866
都希望	-11.3868
慎重	-11.3871
可利用	-11.3872
政府提出	-11.3874
承包	-11.3876
我很高兴	-11.3878
自发	-11.3878
谈一谈	-11.3881
不高	-11.3881
汽	-11.3882
击中	-11.3883
奏	-11.3883
帽	-11.3883
柴	-11.3885
莲	-11.3885
岩	-11.3886
挡	-11.3887
剖	-11.3887
瘦	-11.3887
怒	-11.3887
泡	-11.3887
垫	-11.3887
盾	-11.3887
俊	-11.3887
毙	-11.3887
作好准备	-11.3887
获委任为	-11.3887
长沙湾	-11.3887
侵蚀	-11.3887
遮	-11.3887
陈婉娴议员	-11.3887
堆填区	-11.3887
詹	-11.3887
扩阔	-11.3887
亏损	-11.3887
付诸	-11.3888
利得税	-11.3888
探测	-11.3888
抗拒	-11.3888
国内总产值	-11.3888
观赏	-11.3888
奇迹	-11.3888
讲究	-11.3888
传递	-11.3888
他希望	-11.3888
来临	-11.3889
充实	-11.3889
感激	-11.3889
饭店	-11.3889
职位空缺	-11.3889
全民投票	-11.3889
浮动	-11.3889
移居	-11.389
终身	-11.389
1972	-11.389
数码港	-11.389
柏林	-11.389
旅行社	-11.389
切合	-11.3891
勒索	-11.3891
容纳	-11.3891
定稿	-11.3891
派员	-11.3892
资本主义	-11.3892
数次	-11.3892
必将	-11.3892
国有企业	-11.3892
波黑	-11.3892
董先生	-11.3892
▁粮农组织	-11.3892
生境	-11.3893
结社	-11.3893
100000	-11.3894
随时准备	-11.3895
中山	-11.3895
事务厅	-11.3896
含量	-11.3897
14.	-11.3898
其间	-11.3898
(2)	-11.3899
海湾	-11.39
通胀率	-11.39
外判	-11.3901
日报	-11.3901
南区	-11.3903
中东和平进程	-11.3903
评定	-11.3903
零五	-11.3905
立即停止	-11.3905
维尔	-11.3905
总计	-11.3905
消费量	-11.3906
合法化	-11.3907
不幸的是	-11.3909
工作坊	-11.391
对手	-11.3912
传达	-11.3913
该男子	-11.3914
纳尔	-11.3915
▁此时	-11.3918
高企	-11.3918
香港金融管理局	-11.3918
的确是	-11.3919
整理	-11.3919
重点放在	-11.3922
奉献	-11.3924
四周	-11.3925
大家庭	-11.3926
警车	-11.3926
一九九八	-11.3927
我一直	-11.3928
▁还应	-11.3928
去做	-11.3931
盈利	-11.3932
各民族	-11.3932
▁关于第	-11.3932
这些资料	-11.3933
不可或缺的	-11.3935
其他机构	-11.3936
▁他还说	-11.3939
二读	-11.3941
通常是	-11.3942
训练课程	-11.3943
▁我们需要	-11.3946
回头	-11.3947
理论上	-11.395
110	-11.3951
离港	-11.3953
一个问题	-11.3954
拉美	-11.396
感觉到	-11.396
大城市	-11.3964
生物技术	-11.3966
尚有	-11.3969
根本是	-11.3969
对此事	-11.3973
的失败	-11.3974
自由市场	-11.3975
接受教毓	-11.3975
新政府	-11.3975
表示遗憾	-11.3979
水果	-11.398
昨	-11.398
审查会议	-11.3982
▁该计划	-11.3987
建筑工程	-11.3992
小规模	-11.3994
于二零零零年	-11.3994
▁下面	-11.3995
等级	-11.3995
头上	-11.3996
借款	-11.3996
是至关重要的	-11.3997
国庆	-11.3999
援助方案	-11.3999
有很多人	-11.4001
充分执行	-11.4001
帮助他们	-11.4002
所要求的	-11.4003
劫案	-11.4006
起着	-11.4009
我不会	-11.4012
最佳的	-11.4013
公民教毓	-11.4014
理由是	-11.4015
有名的	-11.4016
犯罪者	-11.4017
人员伤亡	-11.402
所长	-11.4022
前列	-11.4023
不公正	-11.4028
提供必要的	-11.4032
那一	-11.4034
必须考虑到	-11.4039
中巴	-11.4044
解释说	-11.4045
调查后	-11.4046
主要是因为	-11.4048
上升到	-11.405
进一步扩大	-11.4051
救治	-11.4052
苑	-11.4056
出身	-11.4058
并确保	-11.4059
于一九九七年	-11.4059
获邀	-11.4059
必然会	-11.4063
下放	-11.4065
供电	-11.4065
基本人权	-11.4067
庞	-11.4069
▁我亦	-11.4071
常驻	-11.4072
退休金	-11.4073
食用	-11.4074
有力的	-11.4076
带给	-11.4077
国际援助	-11.4078
德尔	-11.4085
有更多的	-11.4091
记住	-11.4097
不接受	-11.41
于昨日	-11.4101
来得	-11.4102
▁水务署	-11.4108
碰	-11.4108
衰退	-11.4115
提供关于	-11.4117
岁以下儿童	-11.4117
各部	-11.4117
禁区	-11.4119
不再是	-11.412
事务处	-11.4122
攻击事件	-11.4122
三级	-11.4123
联合国人员	-11.4124
只不过	-11.4124
物种	-11.4124
贸	-11.413
香港警方	-11.4132
这些原则	-11.4133
免费提供	-11.4133
囚	-11.4135
湿	-11.4137
臣	-11.4137
国营	-11.414
惨重	-11.4142
叛	-11.4146
况	-11.4146
巡回	-11.4146
狮	-11.4147
映	-11.4147
臂	-11.4147
究	-11.4147
尸	-11.4148
骄傲	-11.4148
勋	-11.4149
伤残	-11.4149
允	-11.4149
犬	-11.415
熊	-11.415
鼎	-11.415
四分之三	-11.415
邝	-11.415
撒	-11.415
郊野公园	-11.415
挨	-11.415
恭	-11.415
萨拉热窝	-11.415
俱	-11.415
养殖	-11.415
抹	-11.415
趁	-11.415
肌肉	-11.415
一九五	-11.415
较去年同期	-11.415
疑匪	-11.415
前瞻性陈述	-11.415
抚养	-11.4151
被任命为	-11.4151
饮品	-11.4151
薄弱	-11.4151
一九八八年	-11.4151
港同盟	-11.4151
幼儿园	-11.4151
误导	-11.4151
炮弹	-11.4152
优异	-11.4152
海滩	-11.4152
救助	-11.4152
消毒	-11.4152
硬件	-11.4152
激动	-11.4152
遗传	-11.4152
平稳	-11.4152
原籍国	-11.4153
电池	-11.4153
首府	-11.4153
掌声	-11.4153
订购	-11.4154
甲类	-11.4154
信徒	-11.4154
采纳	-11.4154
依旧	-11.4154
放慢	-11.4154
摊位	-11.4154
减弱	-11.4155
讯问	-11.4155
维和部队	-11.4155
预报	-11.4155
听众	-11.4155
财力	-11.4156
间公司	-11.4156
改良	-11.4156
单方面行为	-11.4156
偏低	-11.4156
非法贩运	-11.4157
卷入	-11.4157
样品	-11.4157
会产生	-11.4158
成败	-11.4158
号法令	-11.4158
感到高兴	-11.4158
数学	-11.4159
授	-11.416
文化遗产	-11.4161
交存	-11.4161
讲解	-11.4161
完美	-11.4163
总统选举	-11.4164
另行	-11.4166
运气	-11.4166
提取	-11.4167
非洲人	-11.4168
年第一季度	-11.4169
武装集团	-11.417
里斯	-11.417
的权益	-11.4171
趋于	-11.4172
持续发展	-11.4172
很长时间	-11.4172
第三方	-11.4173
押后	-11.4174
晚间	-11.4175
随便	-11.4175
便于	-11.4177
病床	-11.4178
应该指出	-11.4179
家乡	-11.418
送达	-11.418
可持续性	-11.4181
优先考虑	-11.4183
弃置	-11.4183
表面上	-11.4184
供应量	-11.4184
器材	-11.4185
首位	-11.4186
大会上	-11.4188
会议室	-11.419
执行秘书	-11.4192
已经采取了	-11.4193
居然	-11.4194
被告知	-11.4195
可能发生	-11.4197
永久性	-11.4197
专门机构	-11.4198
人道主义危机	-11.4198
如果你	-11.4208
益处	-11.4212
完全同意	-11.4215
重大影响	-11.4216
被告人	-11.4216
1100	-11.4216
公正和	-11.4219
真空	-11.4225
调查团	-11.4227
税务局	-11.4228
新鲜	-11.423
的言论	-11.4233
秘书长的报告	-11.4233
的最重要	-11.4234
藏有	-11.4235
地下水	-11.4237
好几个	-11.4238
迅速增加	-11.4239
高潮	-11.424
下属	-11.424
考虑如何	-11.4242
深化	-11.4247
以军	-11.4247
在伦敦	-11.4248
施政报告中	-11.4248
期货	-11.4249
的独特	-11.4249
一枚	-11.4251
大大增加	-11.4252
跟随	-11.4256
众人	-11.4259
行政院	-11.426
儿女	-11.4264
政策上	-11.4265
贸易自由化	-11.4267
▁社会福利署	-11.4268
协调中心	-11.4269
一项重要	-11.4272
国际市场	-11.4274
人格	-11.4276
调查员	-11.4276
摆在	-11.4278
安全区	-11.4283
广泛地	-11.4286
要求联合国	-11.429
人权领域	-11.429
持续了	-11.4294
零星	-11.4299
科学院	-11.4301
令我	-11.4304
开展活动	-11.4306
这些权利	-11.4306
之道	-11.4307
妇女参加	-11.4308
都受到	-11.4319
激烈的	-11.432
▁高级专员	-11.432
名叫	-11.4321
国人	-11.4327
发送	-11.4328
解雇	-11.4329
使妇女	-11.433
实属	-11.4332
商户	-11.4333
年代中期	-11.4335
我感到	-11.4335
等到	-11.4336
许多其他	-11.4338
的主要问题	-11.4338
部分地区	-11.434
庄严	-11.4341
上半年	-11.4341
感受到	-11.4342
十三岁	-11.4344
我们不应	-11.4346
▁有些国家	-11.4348
另一位	-11.4352
若要	-11.4353
外出	-11.4357
只得	-11.4357
因为它们	-11.4359
十分关注	-11.4361
四十九	-11.4362
尤为	-11.4363
一点也不	-11.4365
是不可	-11.4368
罪恶	-11.4368
美丽的	-11.437
基础教毓	-11.4371
七十五	-11.4383
可能成为	-11.4383
七月一日	-11.4384
统计资料	-11.4387
上个月	-11.439
不少人	-11.4391
▁专家们	-11.4398
和新加坡	-11.44
盗窃	-11.44
五十六	-11.4401
安全理事会第	-11.4403
占领军	-11.4403
▁国际社会必须	-11.4405
已收到	-11.4405
碍	-11.4407
西九龙	-11.4413
润	-11.4413
伴随	-11.4417
市政局	-11.4418
弊	-11.4418
绪	-11.4419
衔	-11.4419
猜	-11.442
腊	-11.442
奥林匹克	-11.442
放射性	-11.442
哀	-11.442
俱乐部	-11.442
基桑加尼	-11.442
汗	-11.442
六方会谈	-11.442
教统会	-11.442
脊	-11.442
黄大仙	-11.442
全面禁试条约	-11.442
博览会	-11.442
毛泽东	-11.442
举足轻重	-11.442
白皮书	-11.442
联黎部队	-11.442
悔	-11.442
曾俊华	-11.442
桩	-11.442
直布罗陀	-11.442
蝶	-11.442
勘探	-11.442
被访者	-11.442
宪报刊登	-11.442
琼	-11.442
疑惑	-11.442
厉害	-11.4421
遏止	-11.4421
勇敢	-11.4421
劳资	-11.4421
麻醉品	-11.4421
粉岭	-11.4421
空气质素	-11.4421
高速公路	-11.4421
估价	-11.4421
制成品	-11.4422
效用	-11.4422
评注	-11.4422
宪政	-11.4422
抢救	-11.4422
离境	-11.4422
诉求	-11.4422
辛苦	-11.4422
填写	-11.4422
住宿	-11.4422
选拔	-11.4422
演唱	-11.4423
劳资关系	-11.4423
推销	-11.4423
酒精	-11.4423
包容	-11.4423
帝力	-11.4423
年终	-11.4424
搜获	-11.4424
标记	-11.4424
单纯	-11.4424
论据	-11.4424
华裔	-11.4424
高度自治	-11.4424
之行	-11.4424
交界处	-11.4424
看一看	-11.4424
▁他们认为	-11.4424
单亲家庭	-11.4425
祖先	-11.4426
布希	-11.4426
伴随着	-11.4426
神圣	-11.4426
口岸	-11.4426
出缺率	-11.4426
契约	-11.4427
考古	-11.4427
理据	-11.4427
非常任理事国	-11.4427
教导	-11.4428
小贩	-11.4429
保安局	-11.4429
方面的作用	-11.443
可取	-11.443
光盘	-11.443
交货	-11.443
原材料	-11.4432
下午二时	-11.4432
▁他呼吁	-11.4432
附属机构	-11.4432
重叠	-11.4432
停电	-11.4432
热爱	-11.4432
侧重于	-11.4433
表达了	-11.4435
不象	-11.4435
出示	-11.4436
蒙受	-11.4436
了他的	-11.4436
还建议	-11.4438
有意义	-11.4442
给她	-11.4442
瓦尔	-11.4442
所作的努力	-11.4443
始于	-11.4444
总的来说	-11.4444
离岛	-11.4445
薪水	-11.4445
都应该	-11.4445
干部	-11.4446
2.5	-11.4446
雷达	-11.4448
案发	-11.4448
为此目的	-11.4449
就业人数	-11.445
经济学	-11.4455
朝着	-11.4457
山东	-11.4457
教练	-11.4458
不惜	-11.4461
至今仍	-11.4462
有一点	-11.4467
被绑架	-11.4468
人权法	-11.4469
扩大了	-11.447
还有待	-11.447
安哥拉人民	-11.4472
专家们	-11.4474
一个重要	-11.4476
整体经济	-11.4477
其成员	-11.4477
历史意义	-11.4478
时间里	-11.4479
同时亦	-11.4481
对平民	-11.4482
区议员	-11.4484
马尔	-11.4484
该局	-11.4485
大增	-11.4488
其他发展中国家	-11.4491
但它们	-11.4493
球场	-11.4494
往返	-11.4494
期限为	-11.4494
拉丁美洲国家	-11.4495
议会选举	-11.4496
代表指出	-11.4498
保释	-11.4499
行动方案	-11.4499
东帝汶人	-11.4501
众多的	-11.4502
曾表示	-11.4504
十分明显	-11.4507
外空	-11.4508
▁凤凰卫视	-11.4509
作出承诺	-11.451
这些会议	-11.451
应得到	-11.4512
政府一直	-11.4512
继续存在	-11.4516
本款	-11.4516
是世界上最	-11.4521
被没收	-11.4521
是错误的	-11.4521
大量增加	-11.4522
致以	-11.4523
基本上是	-11.4526
研究院	-11.4527
负责管理	-11.453
也好	-11.4532
二十年	-11.4534
世界和平	-11.4535
农地	-11.4536
在当时	-11.4539
地球上	-11.454
今午	-11.4542
能力不足	-11.4542
财政和	-11.4543
世界级	-11.4548
▁我们注意到	-11.4548
全境	-11.4551
不必要的	-11.4552
以书面	-11.4553
传出	-11.4554
工务	-11.4555
农村妇女	-11.4555
发起了	-11.4557
这亦是	-11.4558
年报	-11.4558
逃到	-11.4562
▁委员会指出	-11.4562
五天	-11.4563
见证	-11.4563
能使	-11.4571
卫生部门	-11.4585
高水平	-11.4586
单身	-11.4587
当地时间	-11.4589
严重罪行	-11.4589
靠自己	-11.4591
定下	-11.4593
的任务是	-11.4597
被指控	-11.46
基本权利	-11.4603
不一样	-11.4603
委员会秘书	-11.4604
的儿子	-11.4606
法典	-11.4613
协助他们	-11.4616
拨给	-11.4618
是必要的	-11.462
仲	-11.4622
界线	-11.4622
国家和地区	-11.4623
香港海关	-11.4624
相符	-11.4624
等字	-11.4628
近几年	-11.4631
符	-11.4632
经济效益	-11.4633
送回	-11.4635
170	-11.4636
降落	-11.4636
订于	-11.4637
应考虑到	-11.4641
有足够	-11.4643
一连串的	-11.4643
区域和国际	-11.4645
号决议第	-11.4652
负责任的	-11.4654
路面	-11.4658
存货	-11.466
我国人民	-11.466
我们大家都	-11.466
扩	-11.4661
制成	-11.4661
因为没有	-11.4661
发展战略	-11.4664
确实是	-11.4664
一百七十	-11.4665
对发展中国家	-11.4666
项建议	-11.4668
展览会	-11.4669
那天	-11.467
邀	-11.467
我们感到	-11.4672
港台	-11.4674
▁总的来说	-11.4675
什么都	-11.4676
直接向	-11.468
的统计数字	-11.4685
摘	-11.4687
巴拉	-11.4687
我自己	-11.4689
明年初	-11.469
户口	-11.4691
晋	-11.4692
奈	-11.4693
辨	-11.4693
浸	-11.4694
不相信	-11.4695
斤	-11.4696
应该说	-11.4696
理事	-11.4696
钻	-11.4697
嫌疑	-11.4698
什叶派	-11.4698
灌	-11.4698
冈比亚	-11.4698
莉	-11.4698
布雷顿森林机构	-11.4698
以西班牙语	-11.4698
所罗门群岛	-11.4698
百慕大	-11.4698
闷	-11.4698
全面禁止核试验条约	-11.4698
践踏	-11.4698
厌	-11.4698
自力更生	-11.4698
归因于	-11.4698
坦桑尼亚	-11.4698
碧	-11.4698
参议院	-11.4698
潭	-11.4698
陪审团	-11.4698
恋	-11.4698
歇	-11.4698
仅次于	-11.4698
肥胖	-11.4698
取缔	-11.4698
轻型货车	-11.4698
危害人类罪	-11.4698
灌输	-11.4698
的呼声	-11.4698
肤色	-11.4698
苏格兰	-11.4699
伤痕	-11.4699
饮酒	-11.4699
侦查	-11.4699
戒毒	-11.4699
浪潮	-11.4699
宾馆	-11.4699
回皈祖国	-11.4699
精确	-11.4699
吸纳	-11.47
坚守	-11.47
吸取	-11.47
种族隔离	-11.47
扩张	-11.47
指导方针	-11.47
督察	-11.47
电讯管理局	-11.4701
草稿	-11.4701
春季	-11.4701
化学武器	-11.4701
装饰	-11.4701
案子	-11.4701
精致	-11.4701
的地步	-11.4702
江苏	-11.4702
总统府	-11.4702
创办	-11.4703
发电机	-11.4703
转播	-11.4703
人大常委会	-11.4703
此时	-11.4704
犯罪分子	-11.4704
不像	-11.4706
饮食业	-11.4706
篮	-11.4707
副主任	-11.4708
带到	-11.4708
冬天	-11.4709
董事长	-11.4709
爆炸物	-11.471
一架	-11.471
零件	-11.4711
陪同下	-11.4713
驻港	-11.4713
沿着	-11.4714
兵力	-11.4714
尤其如此	-11.4715
很可惜	-11.4715
塞尔	-11.4715
派往	-11.4716
合法权利	-11.4716
多哥	-11.4717
这种情湟	-11.4717
文献	-11.4718
手持	-11.4719
双手	-11.4719
多国	-11.4719
信息交流	-11.472
沙特	-11.472
广大市民	-11.472
专业知识	-11.4721
朝圣	-11.4722
▁据了解	-11.4723
第三国	-11.4723
战场	-11.4724
▁委员会还建议	-11.4724
急速	-11.4725
境地	-11.4726
工艺	-11.4727
租约	-11.4728
发毓	-11.473
火山	-11.473
备用	-11.4732
身心健康	-11.4733
事例	-11.4734
犯罪率	-11.4734
生活津贴	-11.4734
富国	-11.4736
倾向于	-11.4736
依然是	-11.4739
目的在于	-11.474
发起的	-11.4741
着重于	-11.4741
回皈后	-11.4741
只可	-11.4742
▁政府还	-11.4744
典型的	-11.4744
各主要	-11.4744
被忽视	-11.4745
于本月	-11.4747
遭到了	-11.4747
也是如此	-11.4749
1800	-11.4758
仅仅是	-11.4759
很可能会	-11.4761
这些儿童	-11.4762
台湾地区	-11.4762
比以往	-11.4763
下述	-11.4764
仍需	-11.4766
直接投资	-11.4767
大会通过	-11.4775
两年前	-11.4775
▁比如	-11.478
比起	-11.4782
同样重要	-11.4784
这些目标	-11.479
交通情湟	-11.4798
现在正在	-11.4799
叫做	-11.4802
决策进程	-11.4803
不懂	-11.4808
工业发展	-11.4809
名成员	-11.4813
而被捕	-11.4815
反正	-11.4816
三方	-11.4817
字眼	-11.4823
返回者	-11.4824
交回	-11.4826
对自己的	-11.4827
民族主义	-11.4829
八月份	-11.4829
岁以下的	-11.483
我还是	-11.4832
感谢秘书长	-11.4838
估计有	-11.4839
防疫	-11.4839
稍后会	-11.484
部电影	-11.484
也很重要	-11.4843
均已	-11.4844
仅限于	-11.4846
年龄组	-11.4848
升值	-11.4851
实现发展	-11.4852
如意	-11.4858
该条	-11.486
进来	-11.4862
惊讶	-11.4869
管理问题	-11.4872
最后决定	-11.4873
乏	-11.4873
研发	-11.4876
进去	-11.4877
流向	-11.4878
九点	-11.4878
65%	-11.4882
保持着	-11.4884
人的生命	-11.4885
已进行了	-11.4889
哲	-11.489
联络小组	-11.4891
为重点	-11.4892
将有助	-11.4903
和民间社会	-11.4905
比如说	-11.4905
领域内	-11.4908
平民人口	-11.4909
人体	-11.4909
正在发生	-11.4912
▁这包括	-11.4917
所采取的	-11.4924
单单	-11.4928
附件二	-11.493
很复杂	-11.4931
一节	-11.4931
看得	-11.4934
九十年代	-11.4935
▁我们感谢	-11.4936
常常是	-11.4942
各成员	-11.4942
不是一个	-11.4944
是绝对	-11.4945
经济损失	-11.4946
▁他亦	-11.4946
▁大家都知道	-11.4946
不怕	-11.4947
谋杀案	-11.495
350	-11.4953
恢复和平	-11.4954
劳动法	-11.4955
亚洲国家	-11.4957
将于明年	-11.4958
斯先生	-11.4959
有关决议	-11.496
路向	-11.496
不适用于	-11.4961
近几年来	-11.4961
攀	-11.4961
正经历	-11.4962
阁	-11.4967
效能	-11.4968
可能出现	-11.4971
数百万	-11.4973
十七岁	-11.4974
在二零零一年	-11.4975
讨	-11.4976
评审委员会	-11.4976
灰色	-11.4978
收养	-11.4979
婴	-11.498
闭	-11.4981
逆	-11.4982
彰	-11.4982
秉	-11.4983
漂	-11.4983
醉	-11.4984
踢	-11.4984
宇宙	-11.4984
引擎	-11.4984
坟	-11.4984
邱	-11.4984
验屍	-11.4984
国务卿	-11.4984
巴巴多斯	-11.4984
勃	-11.4984
彦	-11.4984
诺贝尔和平奖	-11.4984
阿拉伯利比亚民众国	-11.4984
冯检基议员	-11.4984
滨	-11.4984
泡沫	-11.4984
向警方报案	-11.4984
猖	-11.4984
腔	-11.4984
有史以来	-11.4984
谭耀宗议员	-11.4984
厌倦	-11.4984
司徒华议员	-11.4984
淋	-11.4984
炳	-11.4984
东帝汶过渡当局	-11.4984
刘江华议员	-11.4984
棚	-11.4984
碑	-11.4984
旗帜	-11.4984
伊斯坦布尔	-11.4984
悼念	-11.4984
讚赏	-11.4984
鹅	-11.4984
困惑	-11.4984
诱惑	-11.4984
伪钞	-11.4984
被判入狱	-11.4984
▁城市规划委员会	-11.4984
领事馆	-11.4984
偷渡	-11.4985
遣散	-11.4985
香蔫	-11.4985
必须强调	-11.4985
罗姆人	-11.4985
本地生产总值	-11.4985
今年三月	-11.4985
耗资	-11.4985
配置	-11.4985
严密	-11.4986
表彰	-11.4986
大师	-11.4986
发电厂	-11.4986
强有力的	-11.4986
比喻	-11.4986
撰写	-11.4986
普查	-11.4986
投资推广署	-11.4986
极端主义	-11.4987
富有成果	-11.4987
名士兵	-11.4987
掌管	-11.4987
公务员事务局	-11.4987
救护车	-11.4987
婚礼	-11.4987
纯属	-11.4987
约束力	-11.4987
优越	-11.4988
1973	-11.4988
抱有	-11.4988
脚步	-11.4988
药物滥用	-11.4988
几年来	-11.4988
凶手	-11.4989
负资产	-11.4989
没想到	-11.499
圣诞节	-11.499
负面	-11.4991
姐妹	-11.4991
清洗	-11.4991
布什总统	-11.4992
四川	-11.4993
主观	-11.4993
数十年	-11.4993
重庆	-11.4994
无助于	-11.4994
决议草案进行表决	-11.4996
正式语文	-11.4996
获胜	-11.4996
三间	-11.4997
违反人权	-11.4998
贩卖人口	-11.4998
开始运作	-11.4998
甄选	-11.4999
自动化	-11.5
情感	-11.5001
还应该	-11.5001
战斗机	-11.5004
连任	-11.5005
据报道	-11.5006
接见	-11.5006
生病	-11.5009
也不知道	-11.501
85%	-11.501
保护主义	-11.5011
平安	-11.5012
珠宝	-11.5013
回报率	-11.5013
不得超过	-11.5014
继续加强	-11.5014
被捕男子	-11.5016
得奖	-11.5016
所称的	-11.5016
之余	-11.5017
物料	-11.5018
此等	-11.5018
或以上	-11.5019
司法独立	-11.502
53%	-11.5021
进行核试验	-11.5023
证据证明	-11.5024
场面	-11.5024
之列	-11.5024
生活质素	-11.5026
全面检讨	-11.5027
▁我们谨	-11.5027
时光	-11.5027
入场	-11.5028
事态	-11.5029
请愿	-11.5029
以色列当局	-11.5031
更广泛的	-11.5035
做生意	-11.5036
教毓界	-11.5037
则占	-11.5039
第三届	-11.5039
爱好	-11.5039
1200	-11.504
国立	-11.504
值得我们	-11.5041
更容易	-11.5042
充分发挥	-11.5043
西南	-11.5044
大家都知道	-11.5044
缴费	-11.5047
黑社会	-11.5048
圣地	-11.5049
工作文件	-11.5049
两名男子	-11.5051
迄今已	-11.5052
身高	-11.5053
▁董建华说	-11.5053
备有	-11.5054
图则	-11.5055
▁一个代表团	-11.5055
港澳	-11.5056
海洋环境	-11.506
两周	-11.5062
共同利益	-11.5063
成千上万的	-11.507
限额	-11.5072
按时	-11.5073
学士学位	-11.5075
书法	-11.5076
人权状况	-11.5078
能力有限	-11.5087
贸易署	-11.5089
个多月	-11.509
自身的	-11.5093
等因素	-11.5093
但须	-11.5095
大道	-11.5097
展现	-11.5098
上台	-11.5102
公认	-11.5108
六万	-11.5109
本署	-11.511
社会保险	-11.5111
在总部	-11.5113
前任	-11.5114
小组认为	-11.5118
零一	-11.5119
暴露	-11.5123
各缔约国	-11.5123
一类	-11.5125
人潮	-11.5128
发展进程	-11.5133
布拉	-11.5135
七成	-11.514
的信誉	-11.5145
保护儿童	-11.5146
这只是	-11.5146
大学生	-11.5149
建立起	-11.515
上升了	-11.5151
非常严重	-11.5153
税款	-11.5159
岐视性	-11.5162
以保障	-11.5166
▁在此期间	-11.517
有困难	-11.517
下车	-11.5171
刑事诉讼	-11.5177
纽约市	-11.5177
存有	-11.5177
越长	-11.5177
克尔	-11.5179
尊敬的	-11.5184
谢意	-11.5185
还将继续	-11.5185
有人说	-11.5193
提供的服务	-11.5197
在收到	-11.5198
控罪	-11.5201
以满足	-11.5203
将会继续	-11.5204
租住	-11.5206
作出任何	-11.521
中小学	-11.521
粤港	-11.5211
各种问题	-11.5214
这事	-11.5214
方案预算	-11.522
科目	-11.523
▁这是因为	-11.5236
全职	-11.5238
完全由	-11.5241
警务	-11.5242
政府会继续	-11.5245
已决定	-11.5248
▁其次是	-11.5253
旦	-11.5258
携	-11.526
唤	-11.5261
教毓机构	-11.5262
物价	-11.5264
其它国家	-11.5264
悲	-11.5266
纽	-11.5268
在巴格达	-11.5268
国防军	-11.5272
巡	-11.5273
腐	-11.5274
征服	-11.5275
第一委员会	-11.5275
拘	-11.5276
嫌	-11.5277
劣	-11.5277
逝	-11.5277
堵	-11.5277
勿	-11.5277
慈	-11.5277
劢	-11.5278
掠	-11.5278
转移到	-11.5278
罩	-11.5278
琳	-11.5278
塔吉克	-11.5278
葡	-11.5278
囊	-11.5278
微不足道	-11.5278
闯	-11.5278
`	-11.5278
坚定不移	-11.5278
威尔斯亲王医院	-11.5278
铜锣湾	-11.5278
铝	-11.5278
布宜诺斯艾利斯	-11.5278
怡	-11.5278
普通照会	-11.5278
砖	-11.5278
腹泻	-11.5278
莎	-11.5278
侯赛因	-11.5278
渔护署	-11.5278
激励	-11.5278
恐慌	-11.5278
新闻发布会	-11.5278
易受伤害	-11.5278
朴	-11.5278
除此之外	-11.5278
凌驾	-11.5278
游击队	-11.5278
郁	-11.5278
艳	-11.5278
丢弃	-11.5278
纱	-11.5278
泛滥	-11.5278
油麻地	-11.5278
邓小平	-11.5278
在某些情况下	-11.5278
厨房	-11.5278
皇帝	-11.5278
塑料	-11.5278
核电厂	-11.5278
枪杀	-11.5279
捡获	-11.5279
货柜码头	-11.5279
已经过去了	-11.5279
筹委会	-11.5279
祸害	-11.5279
扩建	-11.5279
截停	-11.5279
▁这就是为什么	-11.5279
阿拉伯国家联盟	-11.5279
执照	-11.528
氧化	-11.528
所见	-11.528
毕竟是	-11.528
助理署长	-11.528
身材	-11.528
残暴	-11.528
屋邨	-11.528
告示	-11.5281
到期	-11.5281
窗口	-11.5281
稻米	-11.5281
贮存	-11.5282
唱片	-11.5282
总部设在	-11.5282
履行职责	-11.5282
各国都	-11.5282
频率	-11.5282
附带	-11.5282
不可分割	-11.5283
集结	-11.5284
东耶路撒冷	-11.5284
淡化	-11.5284
建立信任措施	-11.5284
密切监察	-11.5284
为市民提供	-11.5285
务求	-11.5285
归纳	-11.5285
整合	-11.5286
侵犯人权行为	-11.5286
常务	-11.5287
开庭	-11.5288
光荣	-11.5288
退休保障	-11.5288
讲师	-11.5289
副局长	-11.529
任由	-11.529
欧美	-11.529
西藏	-11.529
藉着	-11.5291
航行	-11.5291
埃尔	-11.5291
十二个月	-11.5292
古代	-11.5292
享用	-11.5293
七月份	-11.5293
警力	-11.5294
所载的	-11.5294
判处死刑	-11.5294
公职	-11.5295
强硬	-11.5295
人数为	-11.5296
有几个	-11.5296
电器	-11.5296
志愿者	-11.5297
流感	-11.5297
环境保护署	-11.5297
型号	-11.5298
的有效性	-11.5298
越好	-11.5299
惩教	-11.5299
远见	-11.5301
连战	-11.5302
近代	-11.5304
刚开始	-11.5304
妓女	-11.5304
密切联系	-11.5307
关乎	-11.5307
中央银行	-11.5308
结构调整	-11.5309
民主联盟	-11.531
作出答复	-11.531
年二月	-11.531
孕	-11.5311
多人受伤	-11.5313
发展项目	-11.5314
生死	-11.5316
事儿	-11.5316
总人数	-11.5317
升高	-11.5318
侧重	-11.5319
其结果	-11.532
不发达	-11.5321
四十三	-11.5322
十分复杂	-11.5323
实现可持续发展	-11.5323
经济学家	-11.5323
个会员国	-11.5324
水务署	-11.5326
它认为	-11.5326
关切地注意到	-11.5328
决不能	-11.5329
林业	-11.533
目前仍然	-11.5332
多民族	-11.5333
刻意	-11.5335
投入使用	-11.5335
代表欧洲联盟	-11.5338
被用来	-11.5338
草案第	-11.5338
最明显的	-11.5345
工作计划	-11.5348
有效期	-11.5351
刑期	-11.5353
两点	-11.5353
联合国必须	-11.5353
扩展到	-11.5356
产假	-11.5358
中级	-11.5358
藉此	-11.5365
附件一	-11.5365
应尽可能	-11.5365
上大学	-11.5367
新世纪	-11.5368
答复说	-11.537
下周	-11.5371
一行	-11.5372
地注意到	-11.5375
调解人	-11.538
一小时	-11.5389
共接获	-11.5396
本身也	-11.5398
点零	-11.5398
军用	-11.5403
使它们	-11.5404
年满	-11.5411
主要官员	-11.5413
很多国家	-11.5413
总算	-11.5413
始终是	-11.5414
忘记了	-11.5417
某些方面	-11.5419
并不容易	-11.5429
可惜	-11.5431
这块	-11.5434
更难	-11.5434
童年	-11.5436
举行的会议	-11.5437
欢迎秘书长	-11.5437
资助计划	-11.544
一千三百	-11.5443
设置了	-11.5444
本世纪	-11.5444
降到	-11.5445
间隔	-11.5447
已经达到	-11.5449
民协	-11.5451
拿到	-11.5456
举行选举	-11.5458
款规定	-11.5458
划拨	-11.5459
之多	-11.5459
对未来	-11.5463
台大	-11.5465
身边	-11.5466
提供足够	-11.547
举行一次	-11.5473
政界	-11.5474
发射了	-11.5476
我看	-11.548
与其他国家	-11.5489
盈	-11.5489
也有一些	-11.5495
应该得到	-11.5497
已知	-11.5498
区域性	-11.5499
政治领导人	-11.5508
反对者	-11.5512
投诉人	-11.5512
阶	-11.5515
感到关注	-11.5516
对古巴	-11.5518
对人权的	-11.5519
高等	-11.552
本报告附件	-11.5524
智能	-11.5528
专员小组	-11.553
大半	-11.5531
特别行政区	-11.5535
这种状况	-11.5538
一些代表团	-11.5538
关切的是	-11.5539
分列	-11.5541
所学校	-11.5548
作出适当	-11.555
赠	-11.5553
康体	-11.5556
多数人	-11.5557
疗	-11.5558
我曾	-11.5559
先决条件	-11.556
其自己的	-11.5561
区域集团	-11.5564
提供帮助	-11.5567
经济困难	-11.5568
这项研究	-11.5568
家居	-11.5574
肢	-11.5574
阻碍了	-11.5575
酬	-11.5576
峡	-11.5578
踪	-11.5578
拾	-11.5579
联合国儿童基金会	-11.5579
进行访问	-11.558
泳	-11.558
垂	-11.558
仿	-11.558
榜	-11.558
求职	-11.5581
昏	-11.5581
亏	-11.5581
丑	-11.5581
呆	-11.5581
祈祷	-11.5581
轴	-11.5581
太子港	-11.5581
深水埗	-11.5581
中产阶级	-11.5581
双边和多边	-11.5581
奴隶	-11.5581
吞	-11.5581
弥敦道	-11.5581
泵	-11.5581
国集团和中国	-11.5581
凶杀案	-11.5581
中央人民政府	-11.5581
战俘	-11.5581
欺骗	-11.5581
陪伴	-11.5581
满意地注意到	-11.5581
珠三角	-11.5581
含糊	-11.5581
操纵	-11.5581
赤柱	-11.5581
吸烟	-11.5581
($)	-11.5581
题材	-11.5581
拘禁	-11.5581
临时区域市政局	-11.5582
失衡	-11.5582
期盼	-11.5582
停泊	-11.5582
残害	-11.5582
帮忙	-11.5582
一九八九年	-11.5582
国立大学	-11.5583
的唯一途径	-11.5583
农作物	-11.5583
拜访	-11.5583
一九八六年	-11.5583
马拉维	-11.5583
阿拉法特主席	-11.5583
交涉	-11.5584
完全可以	-11.5584
突发	-11.5584
青衣	-11.5584
保持不变	-11.5584
的复杂性	-11.5584
难怪	-11.5585
截获	-11.5585
狮子	-11.5585
山坡	-11.5585
遵从	-11.5585
幻想	-11.5585
消灭贫穷	-11.5585
偶尔	-11.5586
伦理	-11.5586
火车站	-11.5586
插入	-11.5586
白俄罗斯共和国	-11.5586
最低工资	-11.5586
镜头	-11.5586
缴交	-11.5587
▁一般来说	-11.5587
大纲	-11.5587
经历过	-11.5587
副署长	-11.5587
载客	-11.5588
退学	-11.5589
寓所	-11.5589
创新科技	-11.559
退化	-11.559
戈马	-11.5591
投身	-11.5591
以色列国防军	-11.5592
参数	-11.5592
保安部队	-11.5592
优先重视	-11.5593
联合国组织	-11.5593
风景	-11.5593
不成	-11.5596
议事规则第	-11.5596
普选	-11.5596
救生	-11.5596
进驻	-11.5596
上升趋势	-11.5596
重整	-11.5597
火器	-11.5597
反复	-11.5598
▁在报告所述期间	-11.5598
债务负担	-11.5598
刑事责任	-11.5598
考生	-11.5598
红十字委员会	-11.5599
准则草案	-11.5599
失踪人员	-11.5601
兴起	-11.5601
环境污染	-11.5601
门外	-11.5602
大学毕业生	-11.5602
过渡时期	-11.5602
提出质疑	-11.5603
马其顿共和国	-11.5603
分销	-11.5603
找到了	-11.5603
弱点	-11.5604
外流	-11.5604
遗憾的是	-11.5604
下午四时	-11.5605
道义上	-11.5607
并非如此	-11.5607
定居者	-11.5608
失业人士	-11.5608
西行	-11.5608
计算方法	-11.5609
修订动议	-11.5609
记者会上	-11.5609
国际安全	-11.561
独自	-11.5611
现存	-11.5614
落后于	-11.5615
高价	-11.5615
协调一致	-11.5617
获发	-11.5617
担负	-11.5619
作出的努力	-11.5624
被打	-11.5624
上市公司	-11.5626
供市民	-11.5627
执行死刑	-11.5632
副本	-11.5632
反对意见	-11.5633
已进入	-11.5634
理应	-11.5635
法律文书	-11.5638
私营企业	-11.5639
欢迎市民	-11.5642
研究成果	-11.5644
造型	-11.5646
▁应当指出	-11.5648
边境地区	-11.565
继而	-11.565
四个月	-11.5652
长度	-11.5654
吃了	-11.5654
1.6	-11.5655
司法部门	-11.5656
任期内	-11.5656
港岛区	-11.566
业内	-11.566
第一天	-11.5664
伸出	-11.5665
成员们	-11.5667
失业者	-11.5669
证据显示	-11.567
马克	-11.567
享受到	-11.5671
劳动市场	-11.5676
推迟到	-11.5676
全系统	-11.5676
大厅	-11.5676
▁另据	-11.5677
出口商	-11.5677
枪击	-11.5678
金融服务	-11.5678
广阔的	-11.568
等领域	-11.568
第三阶段	-11.5683
却又	-11.5687
向立法会	-11.5689
可获得	-11.5694
送给	-11.5697
过去数年	-11.57
不肯	-11.5701
我记得	-11.5704
50000	-11.5704
对公众	-11.5707
拘留所	-11.5707
报道说	-11.5709
来实现	-11.5709
不同的意见	-11.5713
一年多	-11.5713
▁陈方安生	-11.5713
零售商	-11.5717
19%	-11.5718
面包	-11.5719
用语	-11.5721
解决这一问题	-11.5727
直接影响	-11.573
认真地	-11.5732
作出安排	-11.5741
在国外	-11.5743
联同	-11.5744
不理想	-11.5747
1.5%	-11.5748
电子贸易	-11.5749
其中有些	-11.5754
正在进行的	-11.5755
这儿	-11.5757
市民亦可	-11.5758
会晤了	-11.5763
为主题	-11.5764
一处	-11.5766
再一次	-11.5767
研究生	-11.5772
作为联合国	-11.5773
社会政策	-11.5776
自主权	-11.5777
全国委员会	-11.5785
02	-11.5785
四月一日	-11.5791
到最后	-11.5793
预计于	-11.5793
还没	-11.5797
多家	-11.5797
该岛	-11.5799
所有公民	-11.5801
会议厅	-11.5803
剧团	-11.5804
既有	-11.5804
大部分时间	-11.581
不正确	-11.5818
还表明	-11.5821
20000	-11.5824
第四次	-11.5825
教毓改革	-11.5826
毫	-11.5832
总收益	-11.5834
进一步讨论	-11.5834
一年前	-11.5837
市民可	-11.584
工业署	-11.5844
活产	-11.5844
这次袭击	-11.5844
刑事调查	-11.5845
人权教毓	-11.5852
破坏性	-11.5853
严重破坏	-11.5854
若干国家	-11.5864
本来就	-11.5864
研究工作	-11.5865
社会经济发展	-11.5866
任何一个	-11.5867
提出任何	-11.5869
继续保持	-11.587
小学生	-11.587
令人感到	-11.5881
出版了	-11.5882
党员	-11.5883
建立和平	-11.5883
民营	-11.5886
前几年	-11.5887
管理层	-11.5887
数值	-11.5889
再次强调	-11.5889
鼻	-11.589
掘	-11.5891
见表	-11.5891
淹	-11.5892
重债穷国	-11.5893
塌	-11.5893
两宗	-11.5893
辑	-11.5893
赔	-11.5893
爵	-11.5893
秦	-11.5893
妈	-11.5893
翼	-11.5893
经合组织	-11.5893
早些时候	-11.5893
人道主义事务协调厅	-11.5893
突	-11.5893
纲要	-11.5893
由来已久	-11.5893
膜	-11.5893
荒谬	-11.5893
马达加斯加	-11.5893
‧	-11.5893
承运人	-11.5893
机电工程署	-11.5893
硫	-11.5893
赎	-11.5893
脖	-11.5893
自给自足	-11.5893
雀	-11.5893
一揽子	-11.5894
丘	-11.5894
众议院	-11.5894
立方米	-11.5894
美洲国家组织	-11.5894
裡	-11.5894
阿拉伯联合酋长国	-11.5894
舟	-11.5894
融洽	-11.5894
小提琴	-11.5894
碳	-11.5894
温馨	-11.5894
凝聚	-11.5894
渗透	-11.5894
记录在案	-11.5894
魅力	-11.5894
模糊	-11.5894
挣扎	-11.5894
▁令人遗憾的是	-11.5894
驻科部队	-11.5894
的全部楼宇	-11.5894
细胞	-11.5894
戒严	-11.5894
採纳	-11.5894
多米尼加共和国	-11.5894
撤消	-11.5894
置疑	-11.5894
六月三十日	-11.5894
电缆	-11.5894
交叉	-11.5894
估算	-11.5895
血液	-11.5895
以书面形式	-11.5895
乍得	-11.5895
波黑特派团	-11.5895
夸张	-11.5895
找寻	-11.5895
直播	-11.5895
伤势严重	-11.5895
截查	-11.5895
症状	-11.5896
炸药	-11.5896
公共交通工具	-11.5896
识别	-11.5896
宁愿	-11.5896
形状	-11.5896
激情	-11.5896
达尔文	-11.5896
禁毒署	-11.5896
1971	-11.5897
可怜	-11.5897
与和解	-11.5897
泊车位	-11.5897
一百九十	-11.5897
美术	-11.5897
被送往医院	-11.5897
化学品	-11.5897
轻易	-11.5898
帽子	-11.5898
空置	-11.5898
展望未来	-11.5898
白宫	-11.5898
分辨	-11.5899
致词	-11.5899
迈出的	-11.5899
主持了	-11.5899
造价	-11.59
传奇	-11.59
在我看来	-11.5901
性别岐视	-11.5901
加倍努力	-11.5902
强势	-11.5902
进行表决	-11.5902
高兴地看到	-11.5902
具有代表性	-11.5903
承办商	-11.5903
反抗	-11.5903
权限	-11.5903
小泉	-11.5903
露天	-11.5903
可悲	-11.5904
人均收入	-11.5904
对外贸易	-11.5904
注明	-11.5904
得奖者	-11.5904
私营化	-11.5904
恐怖行为	-11.5904
飞往	-11.5905
随意	-11.5905
刚好	-11.5906
消除核武器	-11.5906
临近	-11.5906
干线	-11.5906
几分钟	-11.5906
长远来说	-11.5907
居港	-11.5907
大幅度下降	-11.5909
蓬勃发展	-11.591
管理措施	-11.5914
设计师	-11.5914
出席了会议	-11.5914
提早	-11.5914
十足	-11.5916
电动	-11.5917
纳税人	-11.5917
对立	-11.5918
这一领域	-11.5918
的核心问题	-11.5918
律	-11.5918
国内流离失所	-11.5919
外围	-11.5919
在街上	-11.592
▁警方相信	-11.592
税项	-11.5921
▁我们深信	-11.5922
获选	-11.5922
有甚么	-11.5922
神经	-11.5923
外交关系	-11.5923
尽量减少	-11.5925
参与决策	-11.5927
原居民	-11.5928
源自	-11.5928
当局会	-11.5928
私下	-11.593
战事	-11.5931
个家庭	-11.5932
渡过	-11.5933
万欧元	-11.5935
22%	-11.5936
台南	-11.5936
贵国	-11.5937
性虐待	-11.5938
第一部分	-11.5939
比例为	-11.5939
巴尔	-11.5939
现有资源	-11.594
比去年	-11.594
大胆	-11.5942
专家认为	-11.5942
下跌百分之十	-11.5944
所引起的	-11.5945
获益	-11.5946
召开会议	-11.5947
住家	-11.5947
有效运作	-11.5948
必须符合	-11.5949
高质量的	-11.5949
实际情况	-11.5952
加以考虑	-11.5952
面谈	-11.5952
常驻代表团	-11.5954
忆及	-11.5956
才知道	-11.5957
顾问研究	-11.596
学业	-11.596
哎	-11.5961
其次是	-11.5962
石头	-11.5963
重量	-11.5964
外销	-11.5966
不值得	-11.5968
不同于	-11.5969
先天	-11.597
灾难性	-11.597
义工	-11.5971
现在正	-11.5972
多年以来	-11.5973
一提	-11.5974
为了辟免	-11.5977
03	-11.5979
施以	-11.5979
私人机构	-11.598
感到吃惊	-11.5981
通过对话	-11.5983
制裁制度	-11.5984
第一位	-11.5985
其目的是	-11.5986
非常感谢	-11.5988
社会进步	-11.599
不致	-11.5994
患上	-11.5996
诸多	-11.5996
反之	-11.5997
传说	-11.5999
的支持下	-11.6004
保持稳定	-11.6007
保护区	-11.6007
楼市	-11.6007
秘书长代表	-11.6007
有不少人	-11.601
似乎并不	-11.6012
财务委员会	-11.6013
视听	-11.6017
人赞成	-11.602
政策局	-11.6021
原定	-11.6023
一点二	-11.6024
一些地区	-11.6028
一个星期	-11.603
发展商	-11.6032
行劫	-11.6034
标准化	-11.6036
进行评估	-11.6041
阿富汗境内	-11.6043
今年四月	-11.6043
被警察	-11.6047
仍在继续	-11.6053
公平分配	-11.6054
在许多地方	-11.6056
得来的	-11.6057
讨论如何	-11.6058
的国家之一	-11.6059
年限	-11.6063
不大可能	-11.6066
两大	-11.6071
要靠	-11.6079
移民法	-11.6081
不岐视	-11.6081
早年	-11.6083
年增长率	-11.6091
一语	-11.6094
欣喜	-11.6094
这种合作	-11.6095
常用	-11.6095
从而使	-11.6095
深入调查	-11.6099
就此事	-11.61
排除了	-11.6102
人道主义问题	-11.6103
会尽快	-11.611
在本局	-11.611
应立即	-11.6111
期刊	-11.6114
国际工作人员	-11.6119
成千上万	-11.612
平均每年	-11.6123
商业活动	-11.6123
下午五时	-11.6127
具体问题	-11.614
最能	-11.6142
列于	-11.6144
所面对的	-11.6146
取得了进展	-11.6147
所使用的	-11.6148
融	-11.6149
的主题是	-11.6157
新规定	-11.6157
这个计划	-11.6158
的一点是	-11.6161
战区	-11.6162
正在努力	-11.6163
▁她还	-11.6164
竭	-11.6165
体现在	-11.6166
有人认为	-11.6167
确有	-11.6172
在世界各地	-11.6173
60000	-11.6177
具体行动	-11.6183
非正式会议	-11.6183
一百万	-11.6184
有损	-11.6194
抱着	-11.6194
硕士	-11.6195
斯克	-11.6196
充分地	-11.6197
格外	-11.6198
市道	-11.6198
理所当然	-11.6198
家庭成员	-11.62
夸	-11.6201
饮	-11.6202
货币基金组织	-11.6202
联会	-11.6202
泳池	-11.6203
这项决议	-11.6204
被毁	-11.621
时期内	-11.621
受益人	-11.621
发动了	-11.6211
八个月	-11.6212
褲	-11.6212
聊	-11.6212
高级代表	-11.6212
慎	-11.6212
慰	-11.6212
战士	-11.6212
颈	-11.6213
侦	-11.6214
叙	-11.6214
箭	-11.6215
赋	-11.6215
眠	-11.6215
躲	-11.6215
框	-11.6215
擦	-11.6216
披	-11.6216
齿	-11.6216
爷	-11.6216
烂	-11.6216
斜	-11.6216
审裁处	-11.6216
撒南非洲	-11.6216
前南斯拉夫的马其顿共和国	-11.6216
一如既往	-11.6216
入侵和占领科威特	-11.6216
唐英年	-11.6216
投反对票	-11.6216
新纪元	-11.6216
浴	-11.6216
竭尽所能	-11.6216
伯利恒	-11.6216
半导体	-11.6216
皮特凯恩	-11.6216
绵	-11.6216
恶性循环	-11.6216
梁耀忠议员	-11.6216
繁殖	-11.6216
议案提出修正案	-11.6216
陈鉴林议员	-11.6216
舌	-11.6216
鹰	-11.6216
庸	-11.6216
黄宏发议员	-11.6216
堤	-11.6216
桂	-11.6216
江泽民	-11.6216
疏忽	-11.6216
猴	-11.6216
赐	-11.6216
畏	-11.6216
歪曲	-11.6216
铃	-11.6216
晚上八时	-11.6216
揭幕	-11.6216
一併	-11.6216
仓促	-11.6216
境况	-11.6216
从根本上	-11.6216
振奋	-11.6216
律政司司长	-11.6216
财赤	-11.6217
贫富差距	-11.6217
鼓吹	-11.6217
争辩	-11.6217
崭新	-11.6217
舒服	-11.6217
监控	-11.6217
偿付	-11.6217
倒闭	-11.6217
诊治	-11.6217
聪明	-11.6217
睡觉	-11.6217
欠佳	-11.6217
私立	-11.6218
退役	-11.6218
肢体	-11.6218
乐趣	-11.6218
交通挤塞	-11.6218
一九八三年	-11.6218
加蓬	-11.6218
残余	-11.6218
按揭贷款	-11.6218
藉此机会	-11.6218
一阵	-11.6218
动摇	-11.6219
偏离	-11.6219
减贫	-11.6219
掀起	-11.6219
喝酒	-11.6219
电子邮件	-11.6219
养毓	-11.6219
应收款	-11.622
整顿	-11.622
礼拜	-11.622
收缩	-11.622
选举事务处	-11.622
客人	-11.622
改革方案	-11.622
俄语	-11.622
呈报	-11.622
结尾	-11.622
相比之下	-11.622
毫无意义	-11.6221
置身	-11.6221
借调	-11.6221
音乐学院	-11.6221
结合起来	-11.6221
尽速	-11.6221
公职人员	-11.6221
整套	-11.6222
在互联网上	-11.6222
围绕着	-11.6222
互补性	-11.6222
沃尔	-11.6222
董事局	-11.6223
告别	-11.6223
单程	-11.6223
支票	-11.6223
启发	-11.6225
职系	-11.6225
调停	-11.6225
1949	-11.6225
营商环境	-11.6226
感到自豪	-11.6226
供求	-11.6227
社交	-11.6229
布雷	-11.6229
过剩	-11.6229
同盟	-11.6229
忙着	-11.6229
复原	-11.6229
法律界	-11.623
黄色	-11.623
捐助方	-11.623
坏事	-11.623
中国加入世贸	-11.623
生物武器	-11.623
每逢	-11.6231
灯光	-11.6231
青山	-11.6231
听证	-11.6232
教派	-11.6232
无核武器国家	-11.6232
严格控制	-11.6233
监察员	-11.6234
新闻媒体	-11.6234
终点	-11.6234
兑换	-11.6235
养老	-11.6235
精心	-11.6235
有一位	-11.6236
影子	-11.6236
费用概算	-11.6236
救出	-11.6237
议事	-11.6238
商谈	-11.6238
9000	-11.6239
密切相关	-11.6243
六十六	-11.6244
些什么	-11.6244
文盲率	-11.6244
不同意见	-11.6247
加州	-11.6248
独立国家	-11.6248
生产能力	-11.6248
95%	-11.6248
煤矿	-11.625
学额	-11.625
选择权	-11.625
越来越多地	-11.6251
之间的联系	-11.6252
服务行业	-11.6253
和平协议	-11.6253
越早	-11.6254
公私	-11.6256
15000	-11.6257
获知	-11.626
资本市场	-11.626
经济衰退	-11.626
警察工作队	-11.6262
放心	-11.6263
负责任	-11.6264
成交	-11.6267
农村人口	-11.6269
▁为确保	-11.627
代办	-11.6271
视作	-11.6271
一般都	-11.6273
衍生	-11.6277
人道主义法	-11.628
所提到的	-11.6281
明显下降	-11.6281
同行	-11.6281
香港与内地	-11.6282
地方法院	-11.6284
最容易	-11.6285
真理	-11.6287
美丽	-11.6289
四意	-11.6289
资金不足	-11.629
增长率为	-11.629
190	-11.629
出台	-11.6295
在维也纳	-11.6296
详列	-11.6298
全面地	-11.6301
一致认为	-11.6302
联合国各机构	-11.6304
去看	-11.6304
斯塔	-11.6305
评选	-11.6308
部长会议	-11.6309
▁她指出	-11.6309
是很重要的	-11.6311
兽	-11.6312
政府的立场	-11.6313
能够获得	-11.6317
财政期间	-11.6321
据估计	-11.6325
马路	-11.6326
历年	-11.6326
于短期内	-11.6329
委员会的成员	-11.633
分期	-11.6331
致谢	-11.6332
几十	-11.6333
将继续努力	-11.6334
个员额	-11.6339
这可能是	-11.634
顺利进行	-11.6341
市民应	-11.6342
轻微上升	-11.6344
装设	-11.6344
付给	-11.6345
的原因之一	-11.6347
冲突的根源	-11.635
回答说	-11.6351
过渡政府	-11.6353
他们的意见	-11.6361
来自美国	-11.6366
棵	-11.6367
尚无	-11.6371
缔约国大会	-11.6374
特殊情况	-11.6376
反倒	-11.6376
失业问题	-11.6377
流传	-11.6379
物业市场	-11.6383
集资	-11.6388
前总统	-11.6389
不景气	-11.6392
公众咨询	-11.6392
个人自由	-11.6392
行政长官董建华今日	-11.6393
星期天	-11.6394
几十万	-11.6396
开放时间	-11.6398
今年年底	-11.6398
继续扩大	-11.6401
审计员	-11.6404
起因	-11.6404
我要强调	-11.6409
仍可	-11.6411
上级	-11.6412
督导委员会	-11.6413
安全保障	-11.6413
六月份	-11.6415
自己的国家	-11.6416
列出了	-11.642
最后报告	-11.642
不远	-11.6422
克莱	-11.6422
只要有	-11.6423
其中大部分	-11.6428
再见	-11.6429
▁为了使	-11.6432
▁政府亦	-11.6434
成立一个	-11.6435
各处	-11.6442
对照	-11.6446
和平行动	-11.6448
意见书	-11.6449
特尔	-11.6449
生活费用	-11.645
亚洲区	-11.6451
也只是	-11.6456
实时	-11.6456
工场	-11.6458
这股	-11.6463
出口市场	-11.6463
提供意见	-11.6463
几种	-11.6466
企业界	-11.6468
容器	-11.6468
流动电话	-11.6475
国土	-11.6478
全球化进程	-11.6479
结核病	-11.6481
必须遵守	-11.6482
也提出了	-11.6485
还得	-11.6492
这是一项	-11.6493
负起	-11.6494
巴士公司	-11.6495
工地	-11.6497
僱	-11.6498
概要	-11.6509
无法接受	-11.6511
更重要	-11.6511
特地	-11.6512
这个方法	-11.6513
途人	-11.6514
来台	-11.6515
仰	-11.6518
性暴力	-11.6521
热门	-11.6523
不符	-11.6523
裁判法院应讯	-11.6524
奥运	-11.6525
耕	-11.6531
在二十一世纪	-11.6533
定期报告	-11.6533
就象	-11.6534
分项	-11.6538
志愿人员	-11.654
问题在于	-11.6542
慰问	-11.6543
酷	-11.6544
指出的是	-11.6544
该进程	-11.6544
巿	-11.6546
媒	-11.6547
扰	-11.6548
勉	-11.6548
排污	-11.6548
悠久	-11.6548
疲	-11.6548
宅	-11.6548
屠	-11.6549
託	-11.6549
欺	-11.6549
荒漠化	-11.6549
营区	-11.6549
姑	-11.6549
尿	-11.6549
誓	-11.6549
悟	-11.6549
摩纳哥	-11.6549
猎	-11.6549
株	-11.6549
纟	-11.6549
荽缩	-11.6549
刚果民盟	-11.6549
拐	-11.6549
收音机	-11.6549
逍遥法外	-11.6549
国际刑事法庭	-11.6549
土族塞人	-11.6549
布莱尔	-11.6549
循序渐进	-11.6549
恕	-11.6549
真主党	-11.6549
原住民	-11.6549
妇发基金	-11.6549
归咎于	-11.6549
曹	-11.6549
膳	-11.6549
首日封	-11.6549
驳斥	-11.6549
翔	-11.6549
身高约一点六	-11.6549
手提电话	-11.6549
不以为然	-11.6549
婉	-11.6549
政务司司长陈方安生	-11.6549
迫击炮	-11.655
塑胶	-11.655
偷窃	-11.655
意识形态	-11.655
裂变材料	-11.655
昏迷	-11.655
抛弃	-11.655
坦诚	-11.655
频频	-11.655
形态	-11.655
令人吃惊	-11.655
印象深刻	-11.655
堵塞	-11.655
折磨	-11.655
最低限度	-11.655
旅行证件	-11.655
摄氏	-11.6551
破裂	-11.6551
淹没	-11.6551
检测	-11.6551
通行证	-11.6551
受审	-11.6551
蔫草	-11.6551
恶梦	-11.6551
竞投	-11.6551
杰宁	-11.6551
午夜	-11.6551
恐怖主义袭击	-11.6551
总括	-11.6551
▁下列国家代表发言	-11.6551
餐馆	-11.6551
注销	-11.6552
内务部	-11.6552
筹办	-11.6552
审评	-11.6552
宪报	-11.6552
流亡	-11.6552
非牟利	-11.6552
激进	-11.6552
累计	-11.6552
连锁	-11.6552
权力下放	-11.6553
撞倒	-11.6553
心脏	-11.6553
涌现	-11.6553
维和部	-11.6554
包围	-11.6554
关注的焦点	-11.6554
踏入	-11.6554
次序	-11.6554
球员	-11.6554
亿欧元	-11.6554
自律	-11.6554
冰岛	-11.6554
急剧上升	-11.6554
矿工	-11.6555
南京	-11.6555
欧洲共同体	-11.6555
维奇	-11.6556
科学园	-11.6556
加紧努力	-11.6556
货柜车	-11.6557
神奇	-11.6557
目击者	-11.6557
隶属	-11.6557
杂项	-11.6557
轮候时间	-11.6558
军事演习	-11.6558
收支	-11.6559
隆重	-11.6559
房价	-11.656
邮局	-11.656
荣获	-11.656
巴士站	-11.656
清盘	-11.656
优化	-11.6561
实务	-11.6561
原告	-11.6561
受助人	-11.6562
山顶	-11.6562
固有的	-11.6562
谋生	-11.6562
小小的	-11.6563
会採取	-11.6564
圆面	-11.6564
西铁	-11.6565
接任	-11.6566
货款	-11.6566
生动	-11.6567
失业人数	-11.6567
塑	-11.6568
国际条约	-11.6568
停顿	-11.6569
建筑业	-11.6569
自觉	-11.657
我的特别代表	-11.6571
是必然的	-11.6571
另外一个	-11.6572
小麦	-11.6572
载入	-11.6574
议员致辞	-11.6574
几十年来	-11.6575
非常高兴	-11.6575
被扣留	-11.6575
趋向	-11.6576
深度	-11.6576
借用	-11.6578
几年前	-11.6578
相连	-11.658
女工	-11.658
都不是	-11.6581
切实可行	-11.6582
大屠杀	-11.6582
团队	-11.6582
三十九	-11.6584
枪战	-11.6584
数个	-11.6586
班次	-11.6586
单车	-11.6586
发票	-11.6586
政府首脑	-11.6587
在开罗	-11.6588
农历	-11.6589
外币	-11.6589
解决这个问题	-11.6589
提供人道主义援助	-11.6592
岁以上	-11.6593
四月份	-11.6594
正值	-11.6596
人的尊严	-11.6596
政府的代表	-11.6596
努力确保	-11.66
艾滋病病毒	-11.6602
风力	-11.6603
自满	-11.6604
度假	-11.6605
在喀布尔	-11.6606
毕业于	-11.6606
路段	-11.6606
不负责任	-11.6608
私人部门	-11.6609
自决权利	-11.661
不可辟免	-11.6611
区域办事处	-11.6612
结余	-11.6612
▁警方现正调查	-11.6615
提高其	-11.662
全数	-11.6622
行政机构	-11.6623
财政状况	-11.6626
同样重要的是	-11.6627
委员会决定	-11.6632
公共政策	-11.6634
尤以	-11.6635
社会和经济发展	-11.6635
法团	-11.6636
任期为	-11.664
多媒体	-11.6641
多国部队	-11.6641
地政总署	-11.6641
也是一样	-11.6643
达尔	-11.6646
善于	-11.6648
▁正如我	-11.665
平民伤亡	-11.665
受到损害	-11.6651
可随时	-11.6658
信用	-11.6658
工业部门	-11.6659
法律框架	-11.6661
措词	-11.6665
调查人员	-11.6666
一直到	-11.6668
特别提到	-11.6669
通报了	-11.667
西北部	-11.6671
採取措施	-11.6675
个人资料	-11.668
摧毁了	-11.668
要花	-11.6681
学生们	-11.6683
在职培训	-11.6684
手里	-11.6684
条草案	-11.6688
受到控制	-11.6689
大片	-11.6695
日星期一	-11.6696
这似乎	-11.6696
450	-11.6699
我知道	-11.6702
休假	-11.6705
万人流离失所	-11.6708
此举	-11.671
一次性	-11.6712
详细资料	-11.6712
重大问题	-11.6713
日星期五	-11.6717
政治化	-11.6719
该会议	-11.672
或许是	-11.6721
之手	-11.6727
放弃了	-11.6731
起点	-11.6734
我们现正	-11.6734
240	-11.6746
一千五百	-11.6753
进而	-11.6753
本次	-11.6755
经济增长率	-11.6755
三百八十	-11.6757
我喜欢	-11.6758
苏丹政府	-11.6759
鸡只	-11.676
考虑是否	-11.676
国家利益	-11.6764
重演	-11.6764
次全体会议	-11.6765
塔尔	-11.6766
提供培训	-11.6767
纳税	-11.6767
万港元	-11.677
连续第	-11.6772
这一项目	-11.6774
也意味着	-11.6775
得好	-11.6775
持久的和平	-11.6776
感谢你	-11.6778
金融体系	-11.678
各项活动	-11.6782
传统上	-11.6782
营造	-11.6783
都提到	-11.6784
唯	-11.6785
月底前	-11.6791
这两种	-11.6794
带回	-11.6801
突出了	-11.6806
出门	-11.6813
巨大压力	-11.6817
做什么	-11.6821
水电	-11.6821
段落	-11.6822
按季	-11.6832
填海	-11.6834
该工作组	-11.6836
研究人员	-11.6839
科学研究	-11.6841
退回	-11.6841
任何人士	-11.6844
北京市	-11.6845
创收	-11.6846
该办事处	-11.6848
日增	-11.6852
还有很多	-11.6853
束	-11.6853
部长级	-11.6856
扑	-11.6861
惯	-11.6868
越大	-11.6872
衡	-11.6872
选举结果	-11.6874
叫人	-11.6876
合共	-11.6879
报告所述期间	-11.688
个省份	-11.688
见第	-11.6882
起见	-11.6884
渡轮	-11.6886
缔造	-11.6887
胞	-11.6887
小型企业	-11.6889
疫	-11.689
殊	-11.6891
海峡	-11.6892
抑	-11.6892
商贸	-11.6892
胀	-11.6893
裕	-11.6893
钓	-11.6893
勾	-11.6893
扮	-11.6894
车厢	-11.6894
畜	-11.6894
凌	-11.6894
幽	-11.6894
玛嘉烈医院	-11.6894
堕	-11.6894
帆	-11.6894
首当其冲	-11.6894
伯利兹	-11.6894
咨	-11.6894
印第安	-11.6894
埃厄特派团	-11.6894
斌	-11.6894
信息和通信技术	-11.6894
吉隆坡	-11.6894
投赞成票	-11.6894
捏	-11.6894
简而言之	-11.6894
联席会议	-11.6894
临市局	-11.6894
棋	-11.6894
港人治港	-11.6894
缋	-11.6894
行政长官会同行政会议	-11.6894
在某种程度上	-11.6894
帷幕	-11.6894
狼	-11.6894
蒸	-11.6894
霉素	-11.6894
鼎力支持	-11.6894
巴拉圭	-11.6894
弦	-11.6894
教资会	-11.6894
反倾销	-11.6894
纹	-11.6894
尽一切努力	-11.6894
驻地协调员	-11.6894
溺	-11.6894
着眼于	-11.6894
联索行动	-11.6894
肖	-11.6894
男一女	-11.6894
难民和流离失所者	-11.6894
两性平等	-11.6894
透彻	-11.6894
心目中	-11.6894
鸿沟	-11.6894
沙漠	-11.6894
西岸和加沙地带	-11.6894
故障	-11.6894
辉煌	-11.6895
掠夺	-11.6895
干脆	-11.6895
毒瘾	-11.6895
亲戚	-11.6895
殷切	-11.6895
牢固	-11.6895
直通车	-11.6895
风筝	-11.6895
铲除	-11.6895
印度和巴基斯坦	-11.6895
残废	-11.6895
损毁	-11.6895
悲观	-11.6895
消费国	-11.6895
绘画	-11.6895
察觉	-11.6895
参阅	-11.6895
升降机	-11.6895
开幕典礼	-11.6896
剧烈	-11.6896
一九八四年	-11.6896
折扣	-11.6896
临时安全区	-11.6897
无可辟免	-11.6897
烟草	-11.6897
终端	-11.6897
卸任	-11.6897
▁在这一方面	-11.6897
最常见的	-11.6897
登陆	-11.6897
电梯	-11.6897
理财	-11.6897
彼得	-11.6898
非法入境	-11.6898
皇室	-11.6898
中华民族	-11.6898
0.7%	-11.6898
风暴	-11.6898
曲解	-11.6899
乡镇	-11.6899
配套	-11.6899
轻型	-11.69
退休年龄	-11.69
待命	-11.69
货值	-11.6901
回辟	-11.6901
原议案	-11.6901
不久前	-11.6902
1959	-11.6902
干净	-11.6902
埋设	-11.6902
团结一致	-11.6902
病症	-11.6902
失踪案件	-11.6903
无限期	-11.6904
帝国	-11.6904
我本人	-11.6904
的具体内容	-11.6904
纪念品	-11.6904
涉嫌与	-11.6904
有线电视	-11.6905
专注于	-11.6905
药物管制	-11.6905
美容	-11.6906
男司机	-11.6906
反腐败	-11.6907
受阻	-11.6907
营运基金	-11.6907
半球	-11.6908
纸张	-11.6908
的根本原因	-11.6909
卢旺达政府	-11.6909
新产品	-11.691
劳力	-11.691
过境点	-11.691
球队	-11.6912
交接	-11.6912
毒打	-11.6912
夏天	-11.6912
联系汇率	-11.6912
春天	-11.6914
航机	-11.6914
味道	-11.6915
比重	-11.6915
重型	-11.6915
本局议员	-11.6915
图案	-11.6916
2.5%	-11.6916
▁委员会获悉	-11.6916
的经验表明	-11.6916
南联盟	-11.6917
闻名	-11.6917
方案概算	-11.6917
▁如有需要	-11.6917
消息来源	-11.6918
公共开支	-11.6918
称作	-11.6918
几周	-11.6918
不要再	-11.6918
东行	-11.6918
北部地区	-11.6919
最基本的	-11.6919
战火	-11.6919
粮食援助	-11.692
奥尔	-11.692
观察员部队	-11.692
生态系统	-11.692
预约	-11.6922
决不	-11.6923
受到虐待	-11.6923
部门间	-11.6924
五月份	-11.6924
咨询期	-11.6926
走进	-11.6926
趣味	-11.6926
这些指控	-11.6928
高级专员办事处	-11.6928
我不得不	-11.6928
回港	-11.693
未曾	-11.6931
这个制度	-11.6931
做不到	-11.6931
伤心	-11.6931
被带到	-11.6932
联合呼吁	-11.6932
发生冲突	-11.6933
黑点	-11.6934
副手	-11.6935
充分尊重	-11.6936
加油	-11.6936
刑事案件	-11.6937
支援服务	-11.6941
实施制裁	-11.6943
采取必要的	-11.6944
我十分	-11.6945
非传统	-11.6946
的一个主要	-11.6948
投票率	-11.6948
所持	-11.6948
天天	-11.6948
海事	-11.6948
南行	-11.695
还不够	-11.695
宁可	-11.695
三倍	-11.6951
年底之前	-11.6951
大桥	-11.6952
感到惊讶	-11.6952
代顿	-11.6956
七十年代	-11.6957
这个观点	-11.6957
所发生的	-11.6959
逐一	-11.696
用尽	-11.6961
这并不是	-11.6966
附上	-11.6967
不断增长	-11.6968
被控以	-11.6969
信赖	-11.6969
全权	-11.6969
在过去一年	-11.6971
政治人物	-11.6973
进度报告	-11.6974
六十四	-11.6977
这些文件	-11.6979
280	-11.698
我要说	-11.6982
积极支持	-11.6983
以色列总理	-11.6984
财政预算	-11.6986
不算	-11.699
原子	-11.6992
写下	-11.6994
司法系统	-11.6995
两局	-11.6996
顺利地	-11.6998
我打算	-11.7004
是用来	-11.7005
自称	-11.7006
制订政策	-11.7007
该校	-11.7007
刚才说	-11.7011
体内	-11.7011
外国投资	-11.7011
关切的问题	-11.7014
震动	-11.7015
亚非	-11.7016
正在设法	-11.7019
据指出	-11.702
再培训	-11.7029
不免	-11.7034
每一个人	-11.7039
常设委员会	-11.7039
是不可能的	-11.7041
明确规定	-11.7041
展示了	-11.7045
▁她认为	-11.7045
妇女组织	-11.7045
还有许多	-11.7048
便开始	-11.705
用心	-11.7053
一份报告	-11.7054
略为	-11.7058
其中一人	-11.7058
兑现	-11.706
所作出的	-11.706
非常关心	-11.7061
清楚了解	-11.7066
二百五十	-11.7066
这段时间	-11.7068
拥	-11.7071
工作条件	-11.7071
人命	-11.7072
该协会	-11.7073
这是一种	-11.7075
听过	-11.7076
论及	-11.708
出面	-11.708
棵树	-11.7086
协助调查	-11.7092
电费	-11.7092
导向	-11.7094
纳斯	-11.7097
受到限制	-11.7101
这一情况	-11.7104
极少数	-11.7108
非法活动	-11.7108
车费	-11.7113
专科	-11.7114
这一重要	-11.7117
不一定要	-11.7128
后来又	-11.7133
卫队	-11.7134
武装冲突中	-11.7135
广阔	-11.7137
是有益的	-11.7137
以便使	-11.7138
抽象	-11.7139
中国文化	-11.714
部件	-11.7143
开始以来	-11.7147
提供的援助	-11.7147
并不意味着	-11.7151
建屋	-11.7151
一例	-11.7154
数据显示	-11.7156
帐目	-11.7159
黎巴嫩政府	-11.7161
生前	-11.7168
进行辩论	-11.717
该文件	-11.7173
关心的问题	-11.7174
安全措施	-11.7174
开辟	-11.718
▁警方现正调查今	-11.7182
我们愿	-11.7185
▁还有人	-11.7188
专才	-11.719
以来一直	-11.7191
此行	-11.7193
行人路	-11.72
但现在	-11.7201
连串	-11.7202
世人	-11.7207
拉赫	-11.721
妇女担任	-11.7211
美食	-11.7217
于当日	-11.7217
巨大影响	-11.7219
驱动	-11.722
灭火	-11.7221
然后才	-11.7222
不均衡	-11.7222
0.6%	-11.7226
应辟免	-11.723
克族	-11.7231
回教	-11.7232
医治	-11.7234
人口增长率	-11.724
很快便	-11.724
夕	-11.724
妇女地位	-11.7241
海南	-11.7245
采取的措施	-11.7246
姐	-11.7246
明确表示	-11.7249
太长	-11.7249
中小企	-11.7249
僱佣	-11.7249
窃	-11.725
谣	-11.725
缉获	-11.725
募	-11.725
袖	-11.7251
硕	-11.7251
悠	-11.7251
烦	-11.7251
垒	-11.7251
岳	-11.7251
爽	-11.7251
裸	-11.7251
衷心感谢	-11.7251
肿	-11.7251
臭	-11.7251
厄	-11.7251
二零零六年	-11.7251
伊斯兰会议组织	-11.7251
首席执行官	-11.7251
层出不穷	-11.7251
选管会	-11.7251
马鞍山	-11.7251
的福祉	-11.7251
研训所	-11.7251
隐瞒	-11.7251
联合国日内瓦办事处	-11.7251
钉	-11.7251
妄	-11.7251
幺	-11.7251
鄙	-11.7251
下一位发言者是	-11.7251
康乐及文化事务署	-11.7251
纽西兰	-11.7251
晚些时候	-11.7251
沾	-11.7251
俞	-11.7251
政府合署	-11.7251
悄悄	-11.7251
轩	-11.7251
马尼拉	-11.7251
匙	-11.7251
尼日尔	-11.7251
作上述表示	-11.7251
蒋介石	-11.7251
铸	-11.7251
袁	-11.7251
颁奖典礼	-11.7252
畜牧	-11.7252
二零零五年	-11.7252
阻挡	-11.7252
非公开会议	-11.7252
下落不明	-11.7252
驱逐出境	-11.7252
挽救	-11.7252
拆毁	-11.7252
称之为	-11.7252
模范	-11.7252
委託	-11.7252
搜寻	-11.7252
埋伏	-11.7252
宣扬	-11.7252
国民生产总值	-11.7252
这本书	-11.7252
叛乱分子	-11.7252
筹划	-11.7252
粪便	-11.7252
录影带	-11.7253
▁不用说	-11.7253
惨剧	-11.7253
搜救	-11.7253
隐藏	-11.7253
工商局局长	-11.7253
植树	-11.7253
预防性外交	-11.7253
传译	-11.7253
启程	-11.7253
少数族裔	-11.7254
总额达	-11.7254
超逾	-11.7254
简易	-11.7254
私人执业	-11.7254
冷静	-11.7254
普京	-11.7254
战术	-11.7254
附属法例	-11.7254
和平事业	-11.7255
络	-11.7255
维持不变	-11.7255
市镇	-11.7255
鞋类	-11.7256
知情权	-11.7256
较九六年	-11.7256
数天	-11.7257
担心的是	-11.7257
导师	-11.7257
超载	-11.7257
师资	-11.7257
检察长	-11.7257
人力资源开发	-11.7258
号召	-11.7258
1968	-11.7259
工党	-11.7259
运动鞋	-11.7259
辩护律师	-11.7259
这几	-11.7259
影像	-11.726
争相	-11.726
角落	-11.7261
表现出色	-11.7261
求职者	-11.7261
冷气	-11.7261
集合	-11.7261
印证	-11.7261
美国和英国	-11.7261
刚才所说	-11.7261
英联邦	-11.7262
新疆	-11.7263
之间的差距	-11.7263
补救措施	-11.7264
1977	-11.7264
的帮助下	-11.7264
九铁	-11.7264
公营部门	-11.7264
发扬	-11.7265
托管	-11.7265
地雷问题	-11.7265
诈骗	-11.7265
召开一次	-11.7266
大球场	-11.7266
工伤	-11.7267
平等权利	-11.7267
希尔	-11.7267
反击	-11.7267
阿族	-11.7267
银行体系	-11.7267
定价	-11.7268
1945	-11.7269
业余	-11.7269
湿地	-11.7269
0.2%	-11.7269
保罗	-11.727
照明	-11.7272
行为守则	-11.7272
写信	-11.7274
结业	-11.7275
金牌	-11.7275
1.2%	-11.7276
这份文件	-11.7277
国际劳工组织	-11.7277
小时候	-11.7277
法律效力	-11.7278
人权法案	-11.7278
世界其他地区	-11.7279
疼痛	-11.728
心愿	-11.728
19.	-11.728
例证	-11.7282
受苦	-11.7282
这项决议草案	-11.7282
显着上升	-11.7283
事实证明	-11.7284
各异	-11.7284
香港国际机场	-11.7285
全港市民	-11.7285
根本不可能	-11.7285
只适用于	-11.7287
艾滋病方案	-11.7287
床上	-11.7287
国际金融机构	-11.7288
巴勒斯坦难民	-11.7289
首度	-11.7289
力图	-11.7289
分隔	-11.729
工程项目	-11.7291
北行	-11.7292
感到失望	-11.7293
关键性	-11.7293
司令	-11.7296
渠务署	-11.7297
自助	-11.7298
极大地	-11.7298
主义者	-11.7298
带入	-11.7299
迎来	-11.7299
表示祝贺	-11.73
顺便	-11.7301
33%	-11.7303
工程预计	-11.7304
内政部长	-11.7306
近期内	-11.7308
不适宜	-11.7308
若不	-11.7309
司法程序	-11.7309
同志	-11.731
弱者	-11.7311
职等	-11.7312
进一步提高	-11.7318
总体上	-11.7319
出生率	-11.732
公共安全	-11.7321
内容包括	-11.7321
不止	-11.7321
开业	-11.7323
三十岁	-11.7323
当地工作人员	-11.7324
屋内	-11.7325
学生人数	-11.7325
参观者	-11.7325
不丹	-11.733
劳动者	-11.7331
协商后	-11.7333
限期	-11.7334
四种	-11.7335
作风	-11.734
东部地区	-11.7341
最有效的	-11.7342
名民警	-11.7343
司司长	-11.7343
局部	-11.7347
是不够的	-11.7352
作出解释	-11.7354
人道主义机构	-11.7354
联合国工作人员	-11.7355
城市化	-11.7356
作出修订	-11.7358
利益冲突	-11.7359
低技术	-11.7363
奖金	-11.7365
邮政署	-11.7365
已经有了	-11.7367
伐	-11.7368
恐怖主义行动	-11.7369
教毓水平	-11.737
海水	-11.7375
设定	-11.7377
的结论是	-11.7379
网站上	-11.7379
高峰期	-11.7389
963-	-11.7389
市内	-11.739
一千二百	-11.7391
道路安全	-11.7391
民意代表	-11.7396
工作重点	-11.7396
交通部	-11.7397
初级保健	-11.7398
本身并不	-11.74
百分之九	-11.74
向公众	-11.7402
活动范围	-11.7407
一般而言	-11.7412
这项政策	-11.7413
野生	-11.7414
高级别会议	-11.7414
不受任何	-11.7415
海面	-11.7417
自行车	-11.7419
一职	-11.7419
亦不会	-11.7421
主权国家	-11.7424
极限	-11.7426
反恐怖主义委员会	-11.7427
公益	-11.7427
多年前	-11.7433
的主要任务	-11.7433
联合国维持和平行动	-11.7433
尤其重要	-11.7434
3.5%	-11.7436
三十三	-11.7436
中东地区	-11.7439
民航处	-11.7441
每星期	-11.7444
大火	-11.7444
被动	-11.7444
其他区域	-11.7448
在这些地区	-11.7452
这项决定	-11.7452
人造	-11.7458
修读	-11.7458
四处	-11.7462
产生影响	-11.7465
非政府组织的代表	-11.7468
几乎都	-11.747
香港电台	-11.7477
反叛	-11.7477
经济和政治	-11.7477
农业部	-11.748
▁国际社会应	-11.749
便须	-11.7491
个国家和地区	-11.7498
14%	-11.7502
坦率	-11.7506
巴德	-11.7509
公共行政	-11.7512
郊	-11.7514
如何处理	-11.7515
▁我们还要	-11.7519
二百一十	-11.752
保险费	-11.7521
逐渐增加	-11.7522
重新开放	-11.7529
保护平民	-11.753
留给	-11.7534
有好处	-11.7542
心灵	-11.7547
大大减少	-11.7548
成为亚洲	-11.7549
该集团	-11.755
正在逐步	-11.7553
全社会	-11.7555
局限	-11.7555
任何地方	-11.7555
商业性	-11.7557
这样的话	-11.7561
依次	-11.7562
乐器	-11.757
某项	-11.7571
个月期间	-11.7572
看好	-11.7572
没能	-11.7574
▁我们敦促	-11.7575
第十五	-11.7579
国民经济	-11.7581
器官	-11.7585
升至	-11.7585
这使得	-11.7587
被劫	-11.759
案卷	-11.7609
将于今年	-11.7609
国际准则	-11.761
元首	-11.7613
鹏	-11.7614
票反对	-11.7615
键	-11.7617
秘	-11.7618
忽	-11.7618
炸伤	-11.7618
仗	-11.7619
本次会议	-11.7619
旱	-11.762
屍	-11.762
敬意	-11.762
奸	-11.762
气氛中	-11.762
糊	-11.7621
涵	-11.7621
讚	-11.7621
挽	-11.7621
宵	-11.7621
肝	-11.7621
胃	-11.7621
毒品调查科	-11.7621
莱索托	-11.7622
詹培忠议员	-11.7622
宣誓	-11.7622
毯	-11.7622
田北俊议员	-11.7622
这么大	-11.7622
铀	-11.7622
共产主义	-11.7622
叶刘淑仪	-11.7622
茅	-11.7622
集装箱	-11.7622
何俊仁议员	-11.7622
冶	-11.7622
崔	-11.7622
溢	-11.7622
羞	-11.7622
停滞不前	-11.7622
斑	-11.7622
狠	-11.7622
高血压	-11.7622
城规会	-11.7622
盔	-11.7622
科摩罗	-11.7622
老龄化	-11.7622
自置居所	-11.7622
哈马斯	-11.7622
布政司	-11.7622
联卢援助团	-11.7622
萌	-11.7622
西雅图	-11.7622
公用事业	-11.7622
虞	-11.7622
里约热内卢	-11.7622
圭亚那	-11.7622
寂	-11.7622
新华社	-11.7622
西撒特派团	-11.7622
魄	-11.7622
坎帕拉	-11.7622
黄震遐议员	-11.7622
1996-1997	-11.7622
滔	-11.7622
的缘故	-11.7622
血腥	-11.7622
争拗	-11.7622
杨森议员	-11.7622
辣	-11.7622
弟弟	-11.7622
联交所	-11.7622
胁迫	-11.7622
蓄短发	-11.7622
松懈	-11.7622
倚赖	-11.7622
按钮	-11.7622
灵魂	-11.7622
第二次世界大战	-11.7622
彷佛	-11.7622
勤奋	-11.7622
厦门	-11.7623
在那儿	-11.7623
棘手	-11.7623
海地国家警察	-11.7623
社会各阶层	-11.7623
忠诚	-11.7623
优先次序	-11.7623
钓鱼	-11.7623
份及新界	-11.7623
正好相反	-11.7623
争执	-11.7623
嫌疑犯	-11.7623
烧毁	-11.7623
衔接	-11.7623
大有改善	-11.7623
千年首脑会议	-11.7623
压迫	-11.7623
微薄	-11.7623
咱们	-11.7623
赌波	-11.7624
的业务收益	-11.7624
一九三	-11.7624
判例	-11.7624
烈士	-11.7624
基加利	-11.7624
现况	-11.7624
取得圆满成功	-11.7624
受重伤	-11.7624
序言	-11.7625
抢修	-11.7625
偶像	-11.7625
越境	-11.7625
演艺	-11.7625
坦白	-11.7625
厘米	-11.7625
珍视	-11.7625
祝福	-11.7625
联合阵线	-11.7625
牛肉	-11.7625
技合	-11.7625
行政总裁	-11.7625
棉花	-11.7626
意味	-11.7626
彩色	-11.7626
火灾	-11.7626
信奉	-11.7626
公务员薪酬	-11.7627
失灵	-11.7627
军备控制	-11.7627
宗教信仰	-11.7627
性别观点	-11.7627
化肥	-11.7628
评核	-11.7628
编配	-11.7628
受援国	-11.7628
完结	-11.7628
新台币	-11.7628
五万元	-11.7629
1961	-11.7629
推展	-11.7629
调配	-11.7629
时至今日	-11.7629
紧急状态	-11.763
电力供应	-11.763
休会期间	-11.763
互信	-11.763
表述	-11.763
大面积	-11.763
低收入家庭	-11.7631
住屋	-11.7632
装修	-11.7632
举动	-11.7632
印度洋	-11.7632
第二轮	-11.7633
单据	-11.7633
签约	-11.7633
渡轮服务	-11.7633
友好关系	-11.7633
工业界	-11.7633
法定人数	-11.7633
制药	-11.7634
住客	-11.7634
储备金	-11.7635
名誉	-11.7635
支线	-11.7635
审问	-11.7636
及相关	-11.7636
工夫	-11.7636
耕地	-11.7636
元素	-11.7637
传单	-11.7637
共检获	-11.7637
精美	-11.7638
门户	-11.7639
次全体会议上	-11.7639
表达意见	-11.764
政见	-11.7642
加薪	-11.7642
建交	-11.7643
天桥	-11.7643
合伙人	-11.7643
本次级方案	-11.7643
头痛	-11.7644
十年前	-11.7646
▁我们期待着	-11.7646
客机	-11.7646
巴士服务	-11.7647
基石	-11.7648
慎重考虑	-11.7648
最终目标	-11.7649
让市民	-11.7649
金融业	-11.7649
今年上半年	-11.7649
重伤	-11.7649
北京会议	-11.7649
病菌	-11.765
做的事	-11.7651
活着	-11.7652
购买力	-11.7652
可望于	-11.7653
课本	-11.7654
强度	-11.7654
监测组	-11.7654
摆放	-11.7655
其他形式的	-11.7655
数据收集	-11.7655
不堪	-11.7656
保留意见	-11.7657
断定	-11.7658
起义	-11.7658
之间的对话	-11.7659
安全理事会决议	-11.766
积极贡献	-11.7662
印本	-11.7663
不禁	-11.7663
输送	-11.7664
开工	-11.7665
两星期	-11.7665
落入	-11.7666
??	-11.7667
西安	-11.767
缩短了	-11.767
的主要因素	-11.767
居住环境	-11.7671
以英文	-11.7672
一点七	-11.7673
工作要做	-11.7675
激增	-11.7677
分发给	-11.7678
约值	-11.7679
再次呼吁	-11.7679
船长	-11.7683
行走	-11.7683
实质内容	-11.7684
吸引更多	-11.7685
▁只有这样	-11.7685
专业团体	-11.7686
亦有助	-11.7688
该名女子	-11.7689
陈议员	-11.7693
所有成员国	-11.7695
同居	-11.7695
前提下	-11.7697
不干涉	-11.7698
长远发展	-11.7699
比以前	-11.77
出动	-11.7701
金融中心	-11.7702
开辟了	-11.7706
概述了	-11.7707
增长速度	-11.7708
派系	-11.7709
公道	-11.7711
庆祝活动	-11.7711
非政府组织代表	-11.7711
开出	-11.7711
自制	-11.7713
攻击目标	-11.7716
我想指出	-11.7718
保障人权	-11.7719
变更	-11.772
而异	-11.7725
归于	-11.7729
波斯尼亚人	-11.7732
国际形势	-11.7733
工作场所	-11.7734
经常资源	-11.7736
专业化	-11.7736
▁我们也欢迎	-11.7737
持续时间	-11.7739
赶上	-11.7743
有充足的	-11.7747
遗留	-11.7747
短期内	-11.7748
简报会	-11.7749
新的挑战	-11.7752
很久	-11.7752
毕业后	-11.7753
越过	-11.7758
自由贸易区	-11.7759
或者说	-11.7763
故此	-11.7766
雷斯	-11.7766
中欧	-11.7767
大奖	-11.7767
不乏	-11.7767
上午九时	-11.7768
共收到	-11.7769
免费入场	-11.7778
一件事	-11.7779
属违法	-11.7781
的特点是	-11.7782
恐怖主义组织	-11.7788
更深	-11.7791
几句	-11.7792
斯蒂	-11.7793
受害国	-11.7794
五成	-11.7794
调查小组	-11.7796
持续下去	-11.7799
面临的挑战	-11.7801
学士	-11.7802
一千六百	-11.7806
决议案	-11.7807
该行业	-11.7807
两个星期	-11.7808
总共有	-11.7812
面积约	-11.7814
260	-11.7821
某些地区	-11.7822
是一样的	-11.7827
这项要求	-11.7838
第二点	-11.7838
结构性	-11.7843
教毓部门	-11.7844
索赔人说	-11.7846
七岁	-11.7848
大气	-11.7851
会议室举行	-11.7853
贩卖妇女	-11.7857
在农村地区	-11.7858
灭蚊	-11.786
熟食	-11.7868
受欢迎的	-11.7869
非暴力	-11.7879
鉴	-11.7879
42%	-11.788
0.5%	-11.788
取得的成就	-11.7881
躺在	-11.7884
老婆	-11.7887
片面	-11.7887
零六	-11.7888
难民返回	-11.7892
▁鉴于这些	-11.7895
点儿	-11.7895
联系起来	-11.7897
竞争法	-11.79
产权	-11.79
大赛	-11.7901
取得的成果	-11.7902
水源	-11.7908
所建议的	-11.7914
越少	-11.7914
六月底	-11.7915
26%	-11.7918
该科	-11.7919
我们觉得	-11.7927
好奇	-11.7929
狗只	-11.7936
23%	-11.7936
移民局	-11.7942
剥	-11.7942
经济复甦	-11.7943
准军事	-11.7945
区域一级	-11.7953
劳工法	-11.7955
中获益	-11.7956
环境恶化	-11.7957
风波	-11.7962
伊拉克战争	-11.7964
保安司	-11.797
写作	-11.797
心血	-11.7975
这并非	-11.7981
解说	-11.7985
乐队	-11.7989
拒绝接受	-11.7992
身分证	-11.7992
去年十一月	-11.7994
高质量	-11.7995
握	-11.7996
督	-11.8
彼	-11.8
椅	-11.8002
上升百分之十	-11.8002
肚	-11.8003
滩	-11.8003
目击	-11.8003
串	-11.8004
咱	-11.8005
卡里	-11.8006
姿	-11.8006
盅	-11.8006
刷	-11.8006
描	-11.8006
殷	-11.8006
柔	-11.8006
寡	-11.8006
裨益	-11.8006
葛	-11.8006
匹	-11.8006
就业不足率	-11.8006
望远镜	-11.8006
突飞猛进	-11.8006
竖	-11.8006
萨摩亚	-11.8006
不足为奇	-11.8006
书记官处	-11.8006
无动于衷	-11.8006
行政协调会	-11.8006
采取必要措施	-11.8006
阐释	-11.8006
主礼嘉宾	-11.8006
可想而知	-11.8006
同心协力	-11.8006
圣地亚哥	-11.8006
愧	-11.8006
马扎里沙里夫	-11.8006
卜拉希米	-11.8006
波罗的海	-11.8006
闭会期间	-11.8006
+	-11.8006
小武器和轻武器	-11.8006
柳	-11.8006
非军事化	-11.8006
数以千计	-11.8006
旧金山	-11.8006
机管局	-11.8006
羽	-11.8006
视而不见	-11.8006
钱其琛	-11.8006
▁由此可见	-11.8006
多伦多	-11.8006
惹	-11.8006
李家祥议员	-11.8006
谬误	-11.8006
搏	-11.8006
日新月异	-11.8006
杨孝华议员	-11.8006
温哥华	-11.8006
礼宾府	-11.8006
谦	-11.8006
坝	-11.8006
广管局	-11.8006
渣	-11.8006
香港贸易发展局	-11.8006
螺	-11.8006
专案小组	-11.8006
诚挚	-11.8006
▁出生日期	-11.8006
追溯	-11.8007
投掷	-11.8007
西非监测组	-11.8007
葵青	-11.8007
灭绝种族	-11.8007
碰撞	-11.8007
猛烈	-11.8007
挤迫	-11.8007
英镑	-11.8007
漂亮	-11.8007
英格兰	-11.8007
钢琴	-11.8007
逃离家园	-11.8007
安徽	-11.8007
宣判	-11.8007
纤维	-11.8007
解决国际争端	-11.8007
遗址	-11.8007
贸易和发展	-11.8007
引人关注	-11.8007
宠物	-11.8008
转介	-11.8008
▁本项下	-11.8008
巴哈马	-11.8008
红潮	-11.8009
突击	-11.8009
再培训局	-11.8009
养老金	-11.8009
篇章	-11.801
维护国际和平与安全	-11.801
浓度	-11.801
密封	-11.801
惊奇	-11.801
椅子	-11.801
尽全力	-11.801
养护	-11.801
拍照	-11.801
颈部	-11.801
制宪	-11.801
下午一时	-11.801
盲目	-11.801
必需品	-11.8011
扣减	-11.8011
赶紧	-11.8011
建筑地盘	-11.8011
缺失	-11.8011
激光	-11.8011
欢乐	-11.8011
耕作	-11.8011
那个时候	-11.8011
枪支	-11.8011
总书记	-11.8011
营销	-11.8011
面貌	-11.8011
参展	-11.8012
回顾一下	-11.8012
九广铁路公司	-11.8012
正确方向	-11.8012
果然	-11.8012
黎巴嫩南部	-11.8012
宽减	-11.8013
场址	-11.8013
综合症	-11.8013
北美洲	-11.8013
农田	-11.8014
和平纲领	-11.8014
重罚	-11.8014
缔造和平	-11.8014
景象	-11.8014
密切的关系	-11.8014
之类的	-11.8015
公共图书馆	-11.8015
房租	-11.8015
远程	-11.8015
这段期间	-11.8015
出版社	-11.8015
调集	-11.8016
发出警告	-11.8016
写照	-11.8017
圣城	-11.8017
发表评论	-11.8017
瓦解	-11.8017
班吉	-11.8017
下午六时	-11.8018
停火协定	-11.8018
▁发言人补充说	-11.8018
▁图为	-11.8019
几个星期	-11.802
那么简单	-11.802
付钱	-11.802
较佳	-11.8021
风雨	-11.8021
日内瓦公约	-11.8021
五千元	-11.8021
实现发展权	-11.8022
封路	-11.8022
年第四季度	-11.8024
历经	-11.8024
索赔额	-11.8024
交通工具	-11.8025
全盘	-11.8026
迂到困难	-11.8026
广泛传播	-11.8026
试行	-11.8026
这项议案	-11.8027
伤口	-11.8027
专门训练	-11.8028
永远不会	-11.8028
持牌人	-11.8029
3.2%	-11.8029
下一代	-11.8029
覆盖率	-11.8029
舒适	-11.803
打死	-11.803
政府间组织	-11.803
诉讼程序	-11.8033
爱情	-11.8034
计量	-11.8034
国旗	-11.8034
可靠性	-11.8035
亿美元左右	-11.8036
处理这些问题	-11.8036
情节	-11.8038
共存	-11.8039
平均工资	-11.804
总统大选	-11.804
紧急援助	-11.8041
起步	-11.8041
监测员	-11.8042
共值	-11.8043
在过去十年	-11.8043
的妇女人数	-11.8044
我们一定要	-11.8044
连线	-11.8046
十一个	-11.8047
别处	-11.8048
打工	-11.805
冒牌	-11.805
每年平均	-11.8051
丝毫	-11.8051
外交保护	-11.8053
开火	-11.8055
高官	-11.8057
成立了一个	-11.8057
河道	-11.8058
索马里人民	-11.8059
服用	-11.8059
三百五十	-11.8059
海外市场	-11.8061
失踪者	-11.8062
重现	-11.8063
岁的儿童	-11.8064
将提交给	-11.8064
新一代	-11.8065
美国国务院	-11.8065
136	-11.8066
▁我也要	-11.8068
北非	-11.8069
相称	-11.807
2008	-11.807
拘留中心	-11.8071
没有发生严重	-11.8071
消防安全	-11.8072
我们所有人	-11.8072
警方联络	-11.8075
1,000	-11.8076
工作岗位	-11.8076
仲裁委员会	-11.8076
死去	-11.8078
被关押	-11.8079
几百万	-11.808
年鉴	-11.8083
王子	-11.8083
不幸地	-11.8083
车子	-11.8086
肺结核	-11.8086
1.4	-11.8087
我实在	-11.8088
郊区	-11.8091
有一定的	-11.8094
粤	-11.8095
迂上	-11.8097
如欲	-11.8099
检方	-11.8103
发展方向	-11.8105
历时	-11.8105
目睹了	-11.8107
相应地	-11.8107
公共机构	-11.811
我所知	-11.8111
国际机场	-11.8113
统计调查结果	-11.8114
深圳市	-11.8115
写成	-11.8115
珠海	-11.8116
自去年	-11.8116
能源部门	-11.8119
整个区域	-11.8121
标明	-11.8122
生活质量	-11.8122
旅协	-11.8122
路口	-11.8126
已故	-11.8127
件事	-11.8127
▁他重申	-11.8127
▁我们期望	-11.8128
四十岁	-11.8129
太过	-11.8131
领域的合作	-11.8133
谴责这些	-11.8134
按规定	-11.8135
研究如何	-11.8141
京剧	-11.8146
深感遗憾	-11.815
二百八十	-11.8152
因涉嫌	-11.8155
四次	-11.8155
无法确定	-11.8156
喜悦	-11.8156
下届会议	-11.8157
各种不同	-11.8158
台湾省	-11.8159
石油价格	-11.8159
之事	-11.816
16%	-11.8164
谈判进程	-11.8165
以便能够	-11.817
不高兴	-11.8173
该信	-11.8184
架飞机	-11.8185
二点五	-11.8187
研究显示	-11.8189
每当	-11.8193
每名	-11.8196
政局	-11.8197
优先处理	-11.8197
来访	-11.8199
厕	-11.8201
已经关闭	-11.8207
第一届会议	-11.821
号称	-11.8211
运转	-11.8217
赢得了	-11.8218
属下	-11.822
克罗地亚政府	-11.822
我要感谢	-11.8223
立法院	-11.8223
时间限制	-11.8226
获颁	-11.8227
发展伙伴	-11.8227
某人	-11.8232
成功实施	-11.8232
天空	-11.824
参政	-11.8242
悦	-11.8253
其中大多数	-11.8255
一万二千	-11.8257
十二号	-11.8258
五十岁	-11.8261
拿着	-11.8262
在北京举行	-11.8265
划一	-11.827
公署	-11.8271
损失索赔	-11.8275
婆	-11.8277
过去几个月	-11.8283
好些	-11.8289
土地使用	-11.8292
本期	-11.8293
打伤	-11.8298
未知	-11.8298
树林	-11.83
十九号	-11.8301
第三世界	-11.8312
▁它们还	-11.8313
香港的繁荣	-11.8317
3500	-11.8318
复会	-11.8322
开创	-11.8324
根基	-11.8331
百分之七	-11.8332
每个国家	-11.8335
估计费用	-11.8343
放入	-11.8349
多边贸易	-11.835
事务局	-11.8351
阿尔巴尼亚族	-11.8358
认证	-11.8359
加入世贸	-11.8361
中国驻	-11.8369
诚信	-11.8375
集中讨论	-11.8376
原定于	-11.8377
毫无根据	-11.8387
领土内	-11.8389
持牌	-11.839
肇事	-11.8399
调查的结果	-11.8401
地下铁路	-11.8402
削	-11.8403
弟	-11.8403
帝汶	-11.8403
北朝鲜	-11.8403
高明	-11.8403
整个地区	-11.8404
愤	-11.8405
扁	-11.8405
渴	-11.8406
迅	-11.8406
交咨会	-11.8406
禁飞区	-11.8406
罗致光议员	-11.8406
巾	-11.8406
按揭证券公司	-11.8406
在不久的将来	-11.8406
觅	-11.8406
▁我的理解是	-11.8406
十二月三十一日	-11.8406
图瓦卢	-11.8406
揽	-11.8406
第五十三届会议	-11.8406
夏威夷	-11.8406
家庭主妇	-11.8406
归功于	-11.8406
抄	-11.8406
浇	-11.8406
实况调查	-11.8406
卢维思	-11.8406
摩托车	-11.8406
烙印	-11.8406
纠缠	-11.8406
通力合作	-11.8406
经季节性调整的	-11.8406
翅	-11.8406
引人注目	-11.8406
肿瘤	-11.8406
▁湟且	-11.8406
各式各样	-11.8406
德黑兰	-11.8406
以人为本	-11.8406
五分之一	-11.8406
奴役	-11.8407
土地发展公司	-11.8407
各不相同	-11.8407
实现这一目标	-11.8407
幽默	-11.8407
恰恰相反	-11.8407
採购	-11.8407
和平共处	-11.8407
串谋	-11.8407
猜测	-11.8407
警戒	-11.8407
土地注册处	-11.8407
悬赏	-11.8407
拆卸	-11.8407
活泼	-11.8407
分摊会费	-11.8407
比去年同期	-11.8407
而代以	-11.8407
埋葬	-11.8407
特赦	-11.8407
晴朗	-11.8407
卡比拉总统	-11.8407
详述	-11.8407
间谍	-11.8407
罗马规约	-11.8407
纵容	-11.8408
大气层	-11.8408
刑法典	-11.8408
六成	-11.8408
似宜	-11.8408
服役	-11.8408
牛奶	-11.8408
教廷	-11.8409
歌舞	-11.8409
圆满成功	-11.8409
示威游行	-11.8409
女婴	-11.8409
有所好转	-11.8409
古典	-11.8409
认购	-11.8409
稍微	-11.841
汇集	-11.841
资历	-11.841
纵火	-11.841
综合消费物价指数	-11.841
变迁	-11.8411
口粮	-11.8411
唐朝	-11.8411
评级	-11.8411
公诉	-11.8411
雨季	-11.8412
团聚	-11.8412
甚微	-11.8412
台湾海峡	-11.8412
压倒	-11.8412
海拔	-11.8413
驻扎	-11.8413
▁委员会还注意到	-11.8413
湖北	-11.8413
总署	-11.8413
修订如下	-11.8413
协商一致意见	-11.8414
停下来	-11.8414
外交事务	-11.8414
货运量	-11.8414
理智	-11.8414
克朗	-11.8415
表示慰问	-11.8415
程式	-11.8415
经贸关系	-11.8415
酒楼	-11.8416
相继	-11.8417
赖斯	-11.8417
无线电台	-11.8417
汉城	-11.8417
举行了会谈	-11.8417
遗忘	-11.8418
城乡	-11.8418
一九九九	-11.8418
房署	-11.8419
推定	-11.8419
言词	-11.842
视察队	-11.842
离任	-11.842
下午三时	-11.842
转送	-11.842
右手	-11.842
每隔	-11.842
特委会	-11.842
走访	-11.8421
词语	-11.8421
电击	-11.8421
追加	-11.8421
角度看	-11.8421
飞越	-11.8421
市政选举	-11.8422
药方	-11.8423
开发署	-11.8423
作出裁决	-11.8424
国际货币基金组织	-11.8424
开刀	-11.8425
罪名成立	-11.8425
跑道	-11.8426
看不见	-11.8427
看书	-11.8427
劳工界	-11.8428
价钱	-11.8429
沿海地区	-11.8429
违例者	-11.8429
的主要来源	-11.8431
看不出	-11.8433
1.0	-11.8433
新闻记者	-11.8435
实行制裁	-11.8435
一致意见	-11.8436
大幅下降	-11.8436
很大一部分	-11.8436
主管当局	-11.8437
赠送	-11.8438
得益于	-11.8439
两倍	-11.8439
作为一项	-11.8439
领导层	-11.8439
完整性	-11.844
建立伙伴关系	-11.844
一半以上	-11.8443
基数	-11.8443
劳动力市场	-11.8443
重大变化	-11.8445
训练班	-11.8446
水位	-11.8446
合力	-11.8446
延至	-11.8448
无助	-11.8448
迹象表明	-11.8449
怀抱	-11.845
用于支付	-11.8451
▁警方呼吁	-11.8451
东欧国家	-11.8453
目前还没有	-11.8454
所附	-11.8454
愈来愈多	-11.8454
格拉	-11.8454
海报	-11.8454
体面	-11.8455
染上	-11.8456
的又一	-11.8456
总数达	-11.8456
两小时	-11.8457
▁在此方面	-11.8458
财政援助	-11.8459
人民和政府	-11.846
改成	-11.846
居所	-11.8461
分别占	-11.8461
较去年	-11.8463
方面取得了	-11.8464
医学界	-11.8466
21%	-11.8468
持续上升	-11.8468
代表的发言	-11.847
捐献	-11.8471
占领区	-11.8476
事事	-11.8477
三月份	-11.8479
鼓劢市民	-11.848
▁有些代表团	-11.8483
这座	-11.8483
使用核武器	-11.8485
房屋政策	-11.8487
清楚知道	-11.8496
媒体报道	-11.8507
消费者委员会	-11.8508
纪念活动	-11.8508
民法	-11.8509
议员们	-11.8509
财政危机	-11.8511
推向	-11.8515
资源分配	-11.8516
政治犯	-11.8518
定出	-11.8519
生产率	-11.8528
▁据认为	-11.853
未成年	-11.853
传来	-11.8532
设立了一个	-11.8532
举例说	-11.8534
不断改善	-11.8539
表示深切	-11.854
将于一九九九年	-11.854
已采取措施	-11.8542
香港仔	-11.8543
预算拨款	-11.8545
技术支助	-11.8545
寻找工作	-11.8548
综合方案	-11.8549
解释权	-11.8554
师生	-11.8556
引来	-11.8557
八成	-11.8558
五十三	-11.8559
特别法庭	-11.8561
搬到	-11.8563
四方	-11.8563
动手	-11.8564
很困难	-11.8566
情形下	-11.8567
非常关注	-11.8571
于一九九六年	-11.8576
有说服力	-11.8589
工业区	-11.8594
1700	-11.8598
住区	-11.8606
密切注视	-11.8606
看电视	-11.8606
人权事务高级专员办事处	-11.8606
盛会	-11.8616
内部审计	-11.8616
据报告	-11.8619
2800	-11.8622
百分	-11.8622
可以做到	-11.864
轮到	-11.864
我深信	-11.8653
任务地区	-11.8657
应视为	-11.8662
数百名	-11.8665
最困难的	-11.8665
国际舞台	-11.8667
人权条约	-11.8669
今年一月	-11.8681
如果不是	-11.8682
五十九	-11.8684
载述	-11.8707
同时又	-11.8708
旁听	-11.8708
要辟免	-11.8714
哨	-11.8719
机票	-11.8722
经济一体化	-11.8722
的港元实际汇兑指数为一三六点	-11.8735
很熟悉	-11.8737
▁报告还	-11.8752
担	-11.8756
实质上	-11.8757
热水	-11.876
有差别	-11.8761
三名男子	-11.8765
各位代表	-11.8768
侵	-11.8774
二十五岁	-11.8776
第二类	-11.8777
名巴勒斯坦人	-11.8779
堪	-11.8782
贬	-11.8783
儿童兵	-11.8784
不仅仅	-11.8786
其本国	-11.8786
雇佣	-11.8797
体力	-11.88
城里	-11.8801
诈	-11.8806
握手	-11.8807
举证	-11.8807
这些决议	-11.8809
新时代	-11.8809
二十多年	-11.8812
承办	-11.8816
九广铁路	-11.8817
优先权	-11.8819
缉	-11.8819
疼	-11.8819
台币	-11.8819
抬	-11.882
驾	-11.882
弥	-11.8821
宰	-11.8822
丢	-11.8822
便衣	-11.8822
逆转	-11.8822
挤塞	-11.8822
邪	-11.8823
坠	-11.8823
比额表	-11.8823
...	-11.8823
凸	-11.8823
冈	-11.8823
拦	-11.8823
吐	-11.8823
汁	-11.8823
外交使团	-11.8823
迭	-11.8823
弗里敦	-11.8823
警监会	-11.8823
赫拉特	-11.8823
加利福尼亚	-11.8823
新喀里多尼亚	-11.8823
真真正正	-11.8823
马绍尔群岛	-11.8823
旷日持久	-11.8823
二氧化碳	-11.8823
可见一斑	-11.8823
土库曼斯坦	-11.8823
安大略	-11.8823
布琼布拉	-11.8823
骄	-11.8823
任志刚	-11.8823
匠	-11.8823
咨商地位	-11.8823
咬	-11.8823
山泥倾泻	-11.8823
温家宝	-11.8823
自食其力	-11.8823
起反作用	-11.8823
逸	-11.8823
摩加迪沙	-11.8823
棺	-11.8823
沪	-11.8823
福克兰群岛	-11.8823
不可思议	-11.8823
丸	-11.8823
只剩下	-11.8823
开曼群岛	-11.8823
暨	-11.8823
乌拉圭回合	-11.8823
交响乐团	-11.8823
劳顾会	-11.8823
枢纽	-11.8823
马尔代夫	-11.8823
殉	-11.8823
乖	-11.8823
娶	-11.8823
榄	-11.8823
邓兆棠议员	-11.8823
洒	-11.8823
烤	-11.8823
茫	-11.8823
缸	-11.8823
贫富悬殊	-11.8823
各行各业	-11.8823
焦虑	-11.8823
剔	-11.8823
捆绑	-11.8823
▁海关发言人今日	-11.8823
亚洲及太平洋	-11.8823
僧	-11.8823
·	-11.8823
阮	-11.8823
充裕	-11.8823
被害人	-11.8823
三月三十一日	-11.8823
砍伐	-11.8823
辽宁	-11.8823
崛起	-11.8823
廉洁	-11.8823
裁军审议委员会	-11.8823
干燥	-11.8823
丑闻	-11.8823
拘押	-11.8823
规律	-11.8823
麻醉药品	-11.8823
包裹	-11.8823
轰动	-11.8823
体会到	-11.8823
扰乱	-11.8823
第二十三条	-11.8824
非执行董事	-11.8824
倒卧	-11.8824
饮料	-11.8824
熟练	-11.8824
教毓统筹局	-11.8824
洁净	-11.8824
空气污染指数	-11.8824
勾结	-11.8824
奥马尔	-11.8824
嫌犯	-11.8824
信函	-11.8824
私隐	-11.8824
压缩	-11.8824
雅典	-11.8824
独裁政权	-11.8824
积压	-11.8825
工联会	-11.8825
抵消	-11.8825
废止	-11.8825
故宫	-11.8825
知识型经济	-11.8825
的严重程度	-11.8825
双赢	-11.8826
骨折	-11.8826
唱歌	-11.8826
邮寄	-11.8826
范例	-11.8826
受雇	-11.8826
▁查询有关	-11.8826
密切留意	-11.8826
公营房屋	-11.8826
交流与合作	-11.8826
脚注	-11.8826
施加压力	-11.8827
替换	-11.8827
老鼠	-11.8827
投注	-11.8827
强制性公积金计划	-11.8827
通缩	-11.8827
细致	-11.8827
脆弱群体	-11.8827
增补	-11.8828
急切	-11.8828
化学武器公约	-11.8828
鼻子	-11.8828
伤残人士	-11.8828
防护	-11.8828
转递	-11.8828
贫民	-11.8828
民俗	-11.8828
强烈不满	-11.8828
向立法会提交	-11.8828
▁警方呼吁市民	-11.8829
巨额	-11.8829
顺利过渡	-11.8829
生殖健康	-11.8829
行动纲要	-11.8829
意欲	-11.8829
近乎	-11.8829
布置	-11.8829
远洋	-11.883
逃犯	-11.883
他的代表团	-11.883
胸部	-11.883
入伙	-11.8831
镜子	-11.8831
立委	-11.8831
存活	-11.8831
最高刑罚	-11.8831
品味	-11.8832
法郎	-11.8832
乐园	-11.8832
四虐	-11.8832
核扩散	-11.8832
增编	-11.8832
以色列占领军	-11.8832
风潮	-11.8832
九一一	-11.8832
报销	-11.8833
超级市场	-11.8833
备件	-11.8833
不遗余力地	-11.8833
充分意识到	-11.8833
问答	-11.8833
滞留	-11.8833
小岛屿国家	-11.8834
饱受	-11.8834
大陆架	-11.8834
断言	-11.8834
平息	-11.8835
报考	-11.8835
协力	-11.8835
极为重视	-11.8835
胜任	-11.8835
识字率	-11.8836
信封	-11.8836
双语	-11.8836
前战斗人员	-11.8837
谈一下	-11.8837
股价	-11.8837
在经济上	-11.8837
文凭	-11.8837
生产总值	-11.8837
夺得	-11.8838
分割	-11.8838
加幅	-11.8838
政府间机构	-11.8838
司法机关	-11.8838
物理	-11.8839
的关键因素	-11.884
夸大	-11.8841
的协助下	-11.8841
和平与民主	-11.8842
随机	-11.8843
一九九八年四月	-11.8843
电讯业	-11.8844
八十四	-11.8844
在政治上	-11.8844
参议员	-11.8844
洛美	-11.8845
大幅度增加	-11.8845
密切关注	-11.8845
炮击	-11.8846
作斗争	-11.8846
所依据的	-11.8846
勇于	-11.8847
票数	-11.8848
被送到	-11.885
非法移民	-11.8851
罪案率	-11.8851
交火	-11.8852
之友	-11.8853
石油收入	-11.8855
是原因之一	-11.8855
守法	-11.8855
清楚表明	-11.8856
音乐家	-11.8857
提示	-11.8857
▁安理会还	-11.8858
整天	-11.8859
图书	-11.886
带走	-11.8861
其他国际组织	-11.8863
回落	-11.8863
公主	-11.8864
狱中	-11.8865
这群	-11.8867
不断变化	-11.8868
更准确	-11.8868
之苦	-11.8868
热点	-11.8873
▁曾荫权说	-11.8874
全体会议上	-11.8875
行政法庭	-11.8877
迅速增长	-11.888
各政党	-11.8881
61%	-11.8882
主席团成员	-11.8883
大得多	-11.8883
宪法法院	-11.8886
正面临	-11.889
收成	-11.8895
登记处	-11.8899
斯科	-11.89
年以来一直	-11.8901
牢记	-11.8902
今年八月	-11.8904
被定为	-11.8904
过去几年中	-11.8909
名词	-11.891
普遍存在	-11.8914
还击	-11.8914
这项调查	-11.8915
地形	-11.8916
室外	-11.8918
大会特别会议	-11.8919
产前	-11.8923
演说	-11.8923
部队指挥官	-11.8925
供给	-11.8928
裁军领域	-11.8932
多哈	-11.8936
很危险	-11.8939
以色列军队	-11.8941
辆车	-11.8941
加权	-11.8943
的主要任务是	-11.8944
之间关系	-11.8947
德斯	-11.8948
份申请	-11.8949
年度会议	-11.8954
十九世纪	-11.8955
下星期	-11.8956
建立了一个	-11.8958
严重损害	-11.8958
尊敬	-11.8959
只有少数	-11.8967
蒙上	-11.8969
通过了一项	-11.897
第四委员会	-11.8971
造成重大	-11.8973
的解决方法	-11.8974
民歌	-11.8979
驻守	-11.8981
妹妹	-11.8987
本案	-11.8988
这项原则	-11.8991
督导	-11.8997
该些	-11.8999
文化艺术	-11.9001
刚才我	-11.9002
这项任务	-11.9003
百分之七点	-11.9004
毫无疑问	-11.9006
国际义务	-11.9007
1.7	-11.9008
人人都	-11.9009
同一天	-11.9016
这次访问	-11.9016
今年初	-11.9018
想办法	-11.9022
主持会议	-11.903
市场力量	-11.9034
司法改革	-11.9034
外来投资	-11.9044
还记得	-11.905
在此期间	-11.9053
联合国维和行动	-11.9056
很大程度上	-11.9057
价格上涨	-11.9057
支出总额	-11.9067
仍在进行	-11.9076
长春	-11.9076
今年九月	-11.9077
经济及社会	-11.9089
遣送	-11.9091
时在第	-11.9091
去年九月	-11.9091
载货	-11.9095
伊拉克境内	-11.9097
▁另外还有	-11.9099
民调	-11.91
民主进程	-11.9104
银行界	-11.9111
适用于所有	-11.9116
公民投票	-11.9122
1.1%	-11.9124
歌手	-11.9127
统计处	-11.9129
移至	-11.913
黑白	-11.9133
仍然有效	-11.9134
实在令人	-11.9134
很高兴看到	-11.9136
如常	-11.9138
业权	-11.9142
该办公室	-11.9144
发言名单	-11.9147
安全状况	-11.9148
刑警组织	-11.9153
37%	-11.9154
绝不会	-11.9163
第六次	-11.9167
来衡量	-11.9168
今年七月	-11.9169
不会超过	-11.9174
大部分地区	-11.9176
报刊	-11.9176
经济形势	-11.918
缔约	-11.9181
我想这	-11.9186
低级	-11.9188
巴勒斯坦平民	-11.919
南部地区	-11.9198
海地人民	-11.9198
化工	-11.92
八十五	-11.9204
留学生	-11.9207
0.4%	-11.9211
所占的	-11.9223
住宅区	-11.9224
马其顿	-11.9226
而产生的	-11.9232
各项目标	-11.9234
叠	-11.9238
适度	-11.9242
早前	-11.9243
订出	-11.9244
棒球	-11.9245
30000	-11.9247
查问	-11.9248
开幕式	-11.9249
专注	-11.925
寻求庇护	-11.9254
毋	-11.9255
综	-11.9255
撒哈拉	-11.9256
览	-11.9256
窄	-11.9256
沟	-11.9256
浦	-11.9256
钞	-11.9257
阻吓	-11.9257
蜂	-11.9257
抚	-11.9257
布特罗斯	-11.9258
市场准入	-11.9258
芒	-11.9258
不懈努力	-11.9258
[...]
