<unk>	0
<s>	0
</s>	0
▁the	-2.66391
.	-3.17114
▁of	-3.32681
,	-3.33535
▁to	-3.70935
▁in	-3.86869
▁and	-3.90661
s	-3.93555
▁a	-4.27146
-	-4.65921
▁that	-4.70891
▁is	-4.71308
▁for	-4.72341
▁be	-4.99495
▁on	-5.01514
▁	-5.12302
ing	-5.1541
▁it	-5.28435
▁by	-5.28465
▁was	-5.35103
▁as	-5.3644
▁with	-5.36603
▁are	-5.36873
▁this	-5.46686
▁"	-5.48256
▁have	-5.49055
▁has	-5.54226
ed	-5.55006
▁will	-5.55062
▁at	-5.55484
▁not	-5.59802
▁we	-5.76728
▁i	-5.79478
'	-5.82172
▁been	-5.83349
▁from	-5.83948
▁an	-5.9199
▁also	-5.96311
▁were	-6.02221
▁(	-6.05182
d	-6.08149
▁their	-6.10389
▁which	-6.13593
▁all	-6.15764
▁had	-6.17239
▁he	-6.19377
▁government	-6.21756
▁its	-6.2205
▁there	-6.24533
ly	-6.26468
▁would	-6.2717
▁or	-6.27732
▁united	-6.31809
▁kong	-6.33019
▁hong	-6.33958
▁they	-6.36595
▁should	-6.37813
▁people	-6.39723
)	-6.43244
▁more	-6.52701
▁these	-6.54911
▁no	-6.57239
▁international	-6.58574
e	-6.58834
▁other	-6.63682
▁our	-6.64449
▁one	-6.6517
▁but	-6.6612
▁nations	-6.66947
▁his	-6.67486
▁1	-6.68261
▁time	-6.68399
▁mr	-6.68423
▁new	-6.70273
t	-6.71146
▁can	-6.71633
▁states	-6.71667
▁development	-6.74303
▁some	-6.75063
▁year	-6.76342
▁such	-6.77059
▁countries	-6.7711
▁said	-6.77171
▁per	-6.79624
▁council	-6.82475
n	-6.82989
▁out	-6.85804
▁over	-6.85885
▁made	-6.86377
▁years	-6.87582
▁than	-6.88597
y	-6.88766
▁about	-6.89306
▁who	-6.8937
▁so	-6.89953
▁committee	-6.90011
▁public	-6.90509
▁may	-6.94214
▁only	-6.94326
▁up	-6.94648
▁however	-6.97131
▁number	-6.98997
▁if	-6.99278
▁under	-6.99309
▁world	-7.01213
al	-7.01683
▁work	-7.02672
▁members	-7.02998
▁many	-7.03281
:	-7.03831
▁into	-7.03884
▁those	-7.07644
▁two	-7.093
▁any	-7.09518
▁cent	-7.10176
▁2	-7.10315
▁after	-7.13346
▁very	-7.13346
▁security	-7.13433
▁law	-7.13511
▁do	-7.13807
▁between	-7.14282
▁most	-7.1489
er	-7.16066
▁secretary	-7.16338
▁well	-7.17468
c	-7.17508
▁now	-7.1831
▁when	-7.18458
▁women	-7.18674
▁police	-7.19287
▁dur	-7.19778
▁must	-7.19801
▁rights	-7.20269
▁$	-7.20845
▁them	-7.21225
▁economic	-7.21465
▁us	-7.2308
▁human	-7.23463
▁support	-7.2425
▁3	-7.24506
▁china	-7.24912
▁department	-7.25384
▁state	-7.26189
▁special	-7.26561
▁information	-7.27763
▁report	-7.30267
▁today	-7.30798
▁re	-7.31537
▁national	-7.31554
▁country	-7.31927
▁president	-7.3214
▁could	-7.32619
▁general	-7.33617
▁take	-7.33834
es	-7.34634
▁you	-7.35846
▁system	-7.36009
▁community	-7.37532
m	-7.3768
▁being	-7.38444
a	-7.38446
g	-7.38997
▁my	-7.3959
o	-7.39604
▁situation	-7.40174
▁since	-7.41519
▁non	-7.42169
).	-7.43259
▁need	-7.43703
▁through	-7.45121
▁peace	-7.45518
▁same	-7.46068
i	-7.46619
▁first	-7.46664
▁services	-7.47473
▁group	-7.47966
▁process	-7.48295
▁like	-7.50017
▁total	-7.51638
r	-7.51862
▁against	-7.52164
▁long	-7.52381
▁high	-7.52561
▁end	-7.52569
▁both	-7.52793
general	-7.54341
▁use	-7.54365
▁she	-7.54514
in	-7.54643
▁further	-7.54899
▁children	-7.55015
▁make	-7.55489
▁still	-7.55591
f	-7.55866
▁right	-7.56211
▁'	-7.5634
▁social	-7.56476
▁part	-7.57913
▁period	-7.5923
▁last	-7.59431
▁important	-7.59468
▁activities	-7.59546
▁chinese	-7.59635
▁what	-7.59863
▁present	-7.61455
▁even	-7.61557
▁financial	-7.61855
▁programme	-7.63422
▁before	-7.6346
▁education	-7.63578
▁meeting	-7.65347
▁political	-7.65395
k	-7.65983
▁continue	-7.66253
▁commission	-7.66311
▁order	-7.66463
▁10	-7.66644
▁un	-7.67383
▁4	-7.67387
ers	-7.67873
b	-7.68027
▁service	-7.68068
▁efforts	-7.68207
▁market	-7.69299
▁republic	-7.70259
▁office	-7.70474
▁place	-7.70803
▁increase	-7.70828
▁view	-7.70991
▁areas	-7.71713
▁provide	-7.72498
▁5	-7.72707
▁case	-7.72755
▁where	-7.74182
▁fact	-7.74513
▁health	-7.74565
▁taken	-7.74918
▁de	-7.75517
▁trade	-7.76205
▁held	-7.76304
p	-7.76422
▁area	-7.76917
▁her	-7.76956
▁working	-7.77416
▁therefore	-7.77591
▁population	-7.78119
▁day	-7.79104
▁while	-7.79185
▁shall	-7.79289
▁way	-7.79292
▁level	-7.79329
▁resources	-7.79478
▁regard	-7.7964
▁persons	-7.79943
ation	-7.80506
▁three	-7.80901
▁among	-7.81376
▁because	-7.81946
▁future	-7.82447
▁member	-7.82515
▁issue	-7.82835
▁policy	-7.829
▁rate	-7.83053
▁local	-7.8361
▁set	-7.83984
▁possible	-7.84017
ion	-7.84423
▁me	-7.84992
re	-7.85039
▁past	-7.85121
▁point	-7.85255
▁cooperation	-7.85724
▁each	-7.86185
▁parties	-7.86205
▁result	-7.86403
▁region	-7.86457
▁co	-7.86911
▁am	-7.87169
▁court	-7.87563
▁within	-7.87725
▁assembly	-7.88082
▁including	-7.88154
▁6	-7.88428
▁party	-7.88837
l	-7.89527
▁measures	-7.90099
u	-7.90491
▁question	-7.90617
▁cases	-7.90829
▁become	-7.90832
▁just	-7.91373
▁given	-7.91512
▁good	-7.92018
▁provided	-7.92433
en	-7.9261
▁assistance	-7.92715
▁large	-7.92747
or	-7.92753
it	-7.93687
▁conference	-7.93808
ic	-7.94257
▁respect	-7.94493
▁problem	-7.94751
▁staff	-7.95131
▁already	-7.95474
▁much	-7.9548
w	-7.95523
▁life	-7.95717
▁foreign	-7.96
▁own	-7.96647
▁particular	-7.96843
▁organizations	-7.97244
▁addition	-7.97453
▁representative	-7.97455
th	-7.97549
▁help	-7.98407
▁war	-7.9851
▁nuclear	-7.98587
▁sector	-7.98756
▁force	-7.98777
▁east	-7.99239
able	-7.99328
▁taiwan	-7.99919
▁full	-8.00127
▁19	-8.00553
▁see	-8.00717
▁did	-8.00817
ri	-8.01509
▁water	-8.01916
▁developing	-8.02065
▁c	-8.02071
▁found	-8.0279
▁great	-8.02799
▁major	-8.0281
an	-8.03825
on	-8.03994
▁business	-8.04265
▁action	-8.04283
▁south	-8.04875
▁basis	-8.04894
▁concerned	-8.05164
▁used	-8.05391
▁road	-8.05991
▁issues	-8.0609
▁hope	-8.06478
▁then	-8.06549
li	-8.06645
▁africa	-8.06711
▁far	-8.06754
to	-8.06957
▁20	-8.07116
▁course	-8.07238
▁organization	-8.07542
▁industry	-8.07701
▁implementation	-8.07713
▁legal	-8.08588
▁available	-8.08742
▁training	-8.09103
▁school	-8.09293
▁problems	-8.09375
▁man	-8.09614
▁7	-8.09811
▁economy	-8.09859
▁few	-8.10527
▁12	-8.1059
ment	-8.11024
▁review	-8.11542
▁civil	-8.11571
v	-8.11646
▁military	-8.11806
▁ensure	-8.1241
▁small	-8.12461
▁put	-8.12696
▁think	-8.13058
▁without	-8.13228
▁does	-8.13386
▁recent	-8.14071
▁another	-8.14114
▁private	-8.14182
▁come	-8.14399
▁15	-8.14524
▁board	-8.14592
▁various	-8.14598
▁growth	-8.14603
▁how	-8.14776
ll	-8.15738
▁management	-8.16221
▁different	-8.16274
▁land	-8.16776
ity	-8.17007
▁delegation	-8.17064
▁increased	-8.17411
▁matter	-8.17941
▁according	-8.18338
▁central	-8.18503
le	-8.18703
▁control	-8.18764
▁article	-8.18923
▁convention	-8.18947
ance	-8.1897
▁next	-8.19426
▁cannot	-8.19499
▁decision	-8.19783
▁concern	-8.19847
▁necessary	-8.19937
year	-8.20235
▁hand	-8.20383
▁executive	-8.20464
▁him	-8.20618
▁go	-8.20879
▁amount	-8.20933
▁give	-8.2095
▁session	-8.2095
▁resolution	-8.21072
▁society	-8.21559
▁role	-8.21577
▁several	-8.21633
▁administration	-8.21708
▁30	-8.21749
▁e	-8.2182
▁project	-8.2187
▁whether	-8.22006
▁p	-8.22024
▁regional	-8.22202
▁draft	-8.22706
ar	-8.22771
▁back	-8.22886
▁11	-8.22892
▁able	-8.2298
▁8	-8.2308
▁agreement	-8.23584
▁upon	-8.23704
▁conflict	-8.23913
▁established	-8.23929
▁2000	-8.23995
▁current	-8.24049
▁every	-8.24832
▁serious	-8.25602
▁received	-8.25668
st	-8.25687
h	-8.25755
▁example	-8.26569
▁officers	-8.26754
▁value	-8.2699
▁protection	-8.27072
▁yet	-8.27152
▁global	-8.27205
▁spokesman	-8.27452
▁environment	-8.27714
▁know	-8.27742
▁democratic	-8.27858
▁particularly	-8.28025
▁9	-8.28169
▁believe	-8.28265
▁centre	-8.29009
▁continued	-8.29301
▁months	-8.29592
▁authorities	-8.29768
▁age	-8.29778
▁visit	-8.30317
▁progress	-8.30389
▁following	-8.30795
▁power	-8.30803
▁cost	-8.30852
▁mainland	-8.30907
▁above	-8.31064
▁attention	-8.31146
▁down	-8.31539
lo	-8.31921
▁director	-8.32086
▁act	-8.32331
▁family	-8.32712
ra	-8.33069
▁home	-8.33274
▁means	-8.33496
▁say	-8.33527
▁affairs	-8.33546
▁importance	-8.33555
▁required	-8.33748
▁again	-8.3377
▁account	-8.33816
▁men	-8.34258
▁access	-8.34345
▁expressed	-8.35038
▁programmes	-8.35062
▁clear	-8.35104
▁technology	-8.35164
▁mission	-8.35203
▁iraq	-8.35214
▁less	-8.35898
▁days	-8.35952
ive	-8.3599
▁food	-8.36045
ro	-8.3607
▁representatives	-8.36156
▁post	-8.36212
▁too	-8.36255
▁ma	-8.36805
▁wish	-8.36939
▁pay	-8.36996
il	-8.37228
▁chief	-8.37303
▁authority	-8.38194
▁september	-8.38421
▁return	-8.38452
▁fund	-8.39141
▁budget	-8.39694
ce	-8.39705
▁interest	-8.39787
▁might	-8.3986
▁subject	-8.39918
▁noted	-8.40071
▁t	-8.40351
▁1999	-8.40504
▁li	-8.40515
▁chairman	-8.40607
ma	-8.40611
▁early	-8.40771
▁relevant	-8.41206
▁conditions	-8.4127
▁weapons	-8.4129
▁operation	-8.42016
▁north	-8.42037
▁expected	-8.42225
▁asia	-8.42275
▁minister	-8.42723
▁effective	-8.42896
▁needs	-8.43019
▁often	-8.43651
ate	-8.43664
▁labour	-8.43678
▁june	-8.43759
▁open	-8.43904
▁once	-8.44282
▁look	-8.44303
▁person	-8.44304
at	-8.44371
▁took	-8.44761
▁main	-8.44764
▁free	-8.4498
▁july	-8.44994
▁18	-8.45031
▁forces	-8.45129
▁inter	-8.4518
▁bring	-8.45267
▁groups	-8.4532
▁october	-8.45703
▁currently	-8.45879
▁due	-8.45924
▁city	-8.45973
▁later	-8.45982
▁self	-8.46003
▁forward	-8.46055
▁reported	-8.46111
▁proposed	-8.46168
▁exchange	-8.46214
▁13	-8.46244
old	-8.46269
term	-8.46385
▁plan	-8.46602
▁let	-8.46633
▁anti	-8.46718
▁care	-8.47037
▁terms	-8.47117
▁european	-8.472
▁together	-8.47747
▁responsibility	-8.48134
▁establishment	-8.48449
up	-8.49144
▁difficult	-8.49189
▁housing	-8.49402
▁impact	-8.496
▁basic	-8.49684
▁1997	-8.49831
▁14	-8.49847
▁always	-8.49993
▁operations	-8.49996
▁lack	-8.50104
▁air	-8.50501
▁district	-8.50782
▁african	-8.50949
▁change	-8.51191
▁whole	-8.51226
▁young	-8.51235
▁consideration	-8.5126
3	-8.51347
▁considered	-8.51542
▁criminal	-8.51586
la	-8.51659
▁s	-8.51857
▁bank	-8.51878
▁effect	-8.52084
▁investment	-8.52217
▁quality	-8.52311
▁involved	-8.52336
▁environmental	-8.5236
▁thus	-8.526
▁japan	-8.52793
▁justice	-8.52899
▁better	-8.53342
▁additional	-8.53489
▁march	-8.53888
▁approach	-8.53957
▁results	-8.53971
▁december	-8.53983
▁accord	-8.54065
▁paragraph	-8.54127
▁january	-8.54277
▁position	-8.54327
▁projects	-8.54503
▁students	-8.54801
▁21	-8.54925
▁humanitarian	-8.5537
▁four	-8.55451
▁here	-8.55541
▁union	-8.55552
▁pre	-8.55686
▁50	-8.55698
ia	-8.55714
▁reports	-8.55758
▁capacity	-8.55787
▁added	-8.55898
▁soon	-8.56101
▁f	-8.5611
▁november	-8.5616
▁fully	-8.56264
▁secretariat	-8.56417
▁developed	-8.56472
na	-8.56509
▁sub	-8.56608
▁around	-8.56734
ta	-8.57183
▁date	-8.57347
▁o	-8.57464
ness	-8.57484
▁your	-8.57547
▁reform	-8.57624
est	-8.57627
▁poverty	-8.57689
▁short	-8.577
▁capital	-8.58041
▁carried	-8.58224
▁dis	-8.58276
ary	-8.5835
us	-8.58353
▁half	-8.58546
▁domestic	-8.58654
▁production	-8.58775
▁include	-8.58788
x	-8.58876
▁near	-8.59192
▁appropriate	-8.59194
▁study	-8.59194
▁legislative	-8.59302
▁consider	-8.59361
▁death	-8.59462
▁workers	-8.59533
▁university	-8.59628
▁25	-8.60045
▁light	-8.60056
ck	-8.60077
ur	-8.6015
un	-8.60151
▁find	-8.60335
▁institutions	-8.60404
▁ho	-8.60404
▁hospital	-8.60468
▁certain	-8.60642
▁based	-8.60712
▁although	-8.60831
),	-8.6099
▁experience	-8.6103
▁medical	-8.61052
▁common	-8.61194
co	-8.61249
▁data	-8.61944
me	-8.62189
▁companies	-8.62273
▁property	-8.62276
▁address	-8.62473
▁five	-8.62752
▁related	-8.62875
▁transport	-8.6313
▁po	-8.63355
▁company	-8.63622
▁especially	-8.63622
ent	-8.63715
▁research	-8.63848
te	-8.64123
▁april	-8.64139
▁technical	-8.64417
▁st	-8.64488
▁meet	-8.64559
▁towards	-8.64565
▁provision	-8.64588
▁child	-8.64681
▁significant	-8.64697
▁field	-8.64736
▁individual	-8.64795
▁building	-8.65169
▁taking	-8.65202
▁face	-8.65462
▁done	-8.65603
▁dr	-8.66065
z	-8.66073
▁focus	-8.66338
▁space	-8.66523
▁close	-8.66607
▁participation	-8.66959
▁best	-8.67493
▁crime	-8.67518
▁indeed	-8.67553
▁august	-8.67736
▁16	-8.6785
as	-8.68039
▁average	-8.68256
▁statement	-8.68361
▁estimated	-8.68424
5	-8.68585
▁17	-8.68736
▁panel	-8.68856
▁low	-8.689
▁old	-8.6893
ated	-8.68983
▁demand	-8.69127
▁traffic	-8.69207
▁strong	-8.69301
ted	-8.6941
ch	-8.69429
▁having	-8.69688
▁words	-8.69756
▁rule	-8.70188
▁car	-8.70238
▁month	-8.70272
2	-8.70336
▁adopted	-8.70356
▁share	-8.705
▁left	-8.70536
▁form	-8.70583
▁schools	-8.70907
▁exercise	-8.70916
▁conduct	-8.71
▁response	-8.71019
▁conducted	-8.71041
▁follow	-8.71156
▁middle	-8.71264
▁violence	-8.71264
▁called	-8.71265
▁real	-8.71317
is	-8.71321
▁costs	-8.71441
000	-8.71502
▁cause	-8.71746
▁remain	-8.71836
▁principle	-8.7193
▁itself	-8.71959
▁themselves	-8.71999
ve	-8.72121
▁making	-8.72246
▁establish	-8.72248
▁construction	-8.72249
▁want	-8.72418
▁meetings	-8.72504
rs	-8.72534
▁practice	-8.72563
▁unit	-8.72594
▁media	-8.72906
▁scheme	-8.7295
▁living	-8.72989
▁responsible	-8.73113
▁affected	-8.7335
mi	-8.73476
▁armed	-8.73545
▁call	-8.73895
▁completed	-8.74143
▁hours	-8.74149
mo	-8.74608
▁recently	-8.74711
▁g	-8.74736
▁greater	-8.74778
▁least	-8.75
▁safety	-8.75003
▁former	-8.75083
▁brought	-8.75125
▁rapporteur	-8.7514
▁24	-8.75188
▁k	-8.75464
▁performance	-8.75515
▁views	-8.75695
▁specific	-8.76046
▁bill	-8.76278
▁officials	-8.76459
▁employment	-8.76461
▁ministry	-8.76531
▁status	-8.76531
▁sea	-8.76648
▁quarter	-8.76699
▁existing	-8.76743
▁investigation	-8.76814
▁improve	-8.77052
▁issued	-8.77107
ting	-8.77266
▁others	-8.77278
▁legislation	-8.77307
▁limited	-8.77347
▁ha	-8.7754
ver	-8.7754
▁territory	-8.77567
▁live	-8.77619
▁election	-8.77677
▁governments	-8.77825
▁never	-8.77833
min	-8.77891
▁provisions	-8.77925
▁changes	-8.78002
▁elections	-8.78051
▁treatment	-8.7817
▁money	-8.78241
▁majority	-8.7828
▁stage	-8.78351
et	-8.78497
▁agreed	-8.78605
governmental	-8.79252
▁israel	-8.79265
▁get	-8.79337
▁official	-8.79467
▁line	-8.79555
▁ex	-8.79608
▁america	-8.79699
▁28	-8.79701
▁compar	-8.79774
▁nature	-8.79804
▁reason	-8.80129
▁vote	-8.80247
▁term	-8.80322
▁poor	-8.80494
▁income	-8.80573
▁comprehensive	-8.80605
▁equipment	-8.80607
▁higher	-8.80618
▁lead	-8.80716
ol	-8.80854
ist	-8.81146
▁levels	-8.81437
▁d	-8.81528
▁direct	-8.81891
▁team	-8.81993
▁success	-8.82171
▁key	-8.82285
▁deal	-8.82335
▁2002	-8.82401
▁play	-8.82473
▁along	-8.82612
▁1998	-8.82732
▁opportunity	-8.82776
0000	-8.82866
▁fire	-8.82965
▁stated	-8.83045
▁planning	-8.83615
▁promote	-8.83652
▁welcome	-8.83823
▁victims	-8.83871
▁section	-8.83971
▁lo	-8.84117
▁systems	-8.84173
▁moreover	-8.84344
▁february	-8.84348
ci	-8.84417
▁rates	-8.84536
▁turn	-8.84637
▁survey	-8.84853
ul	-8.84932
▁culture	-8.84993
▁rules	-8.85112
▁positive	-8.85133
ling	-8.85146
ies	-8.85151
▁history	-8.85158
de	-8.85168
▁refugees	-8.85203
▁personnel	-8.85272
▁list	-8.85272
▁announced	-8.85598
▁price	-8.85666
▁division	-8.85696
▁debate	-8.85697
▁seen	-8.85831
▁committed	-8.85877
▁off	-8.859
▁policies	-8.8612
▁oil	-8.86171
▁primary	-8.86404
▁administrative	-8.86546
▁bo	-8.86565
ke	-8.86715
ne	-8.86771
▁natural	-8.87071
▁relations	-8.87095
▁treaty	-8.87136
▁export	-8.87156
▁final	-8.87204
el	-8.87237
nt	-8.87255
▁allow	-8.87355
▁products	-8.87401
▁arms	-8.87449
▁author	-8.87635
the	-8.87689
▁times	-8.87696
▁included	-8.87703
▁recommendations	-8.87766
▁1996	-8.87958
ang	-8.88065
▁really	-8.88122
▁remains	-8.882
▁terrorism	-8.8825
▁tung	-8.88438
▁throughout	-8.88452
▁until	-8.88559
▁move	-8.88849
▁hard	-8.88864
▁context	-8.88996
▁families	-8.88996
▁di	-8.89117
▁head	-8.89163
7	-8.89376
▁con	-8.89479
▁offices	-8.89538
▁press	-8.89625
▁little	-8.89728
▁leave	-8.89728
▁palestinian	-8.89751
▁israeli	-8.89766
▁purpose	-8.89898
ism	-8.89906
▁madam	-8.90022
▁urban	-8.90022
▁ago	-8.90302
▁met	-8.90342
▁prices	-8.90403
▁step	-8.90537
%	-8.91189
▁commitment	-8.91398
▁table	-8.91566
▁crisis	-8.91807
▁drug	-8.91904
ors	-8.9193
▁freedom	-8.9201
▁overall	-8.92108
▁note	-8.92219
▁show	-8.92304
▁morning	-8.92561
▁application	-8.92612
▁experts	-8.92787
▁russian	-8.92904
▁si	-8.93272
▁request	-8.93307
▁prevention	-8.9335
▁task	-8.93392
▁island	-8.93419
▁annual	-8.93434
▁competition	-8.93472
ha	-8.93476
▁arrested	-8.93505
▁principles	-8.93557
▁cross	-8.93658
age	-8.93666
▁effort	-8.93849
▁bureau	-8.93911
▁decided	-8.94233
ti	-8.94287
▁facilities	-8.94391
ally	-8.94401
▁cultural	-8.94425
▁proposal	-8.94479
▁side	-8.94546
▁monitoring	-8.94562
▁la	-8.94569
▁west	-8.94687
▁reduction	-8.94699
▁reached	-8.94905
$	-8.95108
▁outside	-8.95197
▁agenda	-8.95319
▁statements	-8.95342
▁opportunities	-8.95474
▁23	-8.95475
▁six	-8.955
▁feel	-8.95535
▁increasing	-8.95597
▁rather	-8.9563
▁lower	-8.95742
im	-8.95884
▁mandate	-8.9595
▁caused	-8.96515
▁framework	-8.96728
▁continues	-8.96804
▁europe	-8.96855
▁territories	-8.96885
▁appeal	-8.96961
▁sha	-8.97037
▁came	-8.9719
▁works	-8.97283
▁deputy	-8.97518
▁statistics	-8.97518
▁democracy	-8.97531
▁goods	-8.97593
▁furthermore	-8.97836
▁needed	-8.97886
▁led	-8.98091
▁risk	-8.98222
▁relationship	-8.98318
tic	-8.984
▁interests	-8.99026
▁thank	-8.9938
▁tribunal	-8.99443
▁express	-8.99513
▁achieve	-8.99573
▁connection	-8.9961
▁finally	-8.99657
▁korea	-8.99988
▁2001	-9.00008
▁dialogue	-9.00093
▁31	-9.00146
▁energy	-9.00256
▁almost	-9.00419
▁26	-9.0042
▁potential	-9.00583
▁supply	-9.00583
▁disarmament	-9.00747
am	-9.00814
▁civilian	-9.00997
▁start	-9.01048
▁enterprises	-9.01054
▁bodies	-9.01076
▁street	-9.01206
▁implemented	-9.01221
▁acts	-9.01432
▁40	-9.01547
▁leaders	-9.0158
▁pro	-9.01607
6	-9.0167
▁essential	-9.01712
▁evidence	-9.01736
▁beginning	-9.01743
▁ground	-9.01872
▁reach	-9.02035
pa	-9.02165
▁serve	-9.02178
time	-9.02268
ant	-9.02515
▁questions	-9.02558
▁benefit	-9.02608
▁week	-9.0275
▁citizens	-9.0295
▁negotiations	-9.03022
▁independent	-9.03071
▁industrial	-9.03111
▁paid	-9.03128
▁document	-9.03129
ry	-9.03234
▁clearly	-9.03276
▁achieved	-9.03291
▁concerning	-9.03383
▁beijing	-9.03407
▁permanent	-9.03482
um	-9.03524
ty	-9.03563
id	-9.03566
▁earlier	-9.03576
▁why	-9.0358
▁commercial	-9.03589
▁requirements	-9.03608
▁incident	-9.03691
and	-9.03759
▁contributions	-9.03932
▁reasons	-9.03967
▁develop	-9.04059
less	-9.04134
▁travel	-9.04239
▁second	-9.04241
vi	-9.04527
▁submitted	-9.04606
▁requested	-9.05027
▁22	-9.05033
▁points	-9.05084
▁site	-9.05262
▁successful	-9.05275
▁motion	-9.05285
▁similar	-9.05433
ton	-9.05519
▁lot	-9.0555
ad	-9.05615
▁promotion	-9.05622
▁illegal	-9.05794
▁provides	-9.0593
ating	-9.06074
▁arrangements	-9.06146
▁timor	-9.06309
▁joint	-9.06394
▁funds	-9.06409
▁previous	-9.06471
▁27	-9.06489
▁apply	-9.06663
sh	-9.06743
▁agencies	-9.06835
▁quite	-9.07012
▁rise	-9.07086
▁woman	-9.07188
▁loss	-9.07515
▁reduce	-9.07662
▁going	-9.07704
▁century	-9.07738
▁either	-9.07887
▁actions	-9.07996
ful	-9.08009
▁tax	-9.08062
▁priority	-9.0808
▁longer	-9.0808
▁declaration	-9.08244
ter	-9.08375
▁manner	-9.08434
▁chen	-9.08478
▁body	-9.086
▁vehicles	-9.08662
di	-9.08706
▁informed	-9.0874
▁hu	-9.08895
▁understand	-9.08907
▁al	-9.08987
▁kind	-9.09083
▁discussion	-9.09207
▁standards	-9.09239
▁2000.	-9.09362
ence	-9.09394
▁personal	-9.09648
▁mind	-9.09658
▁proposals	-9.09741
▁american	-9.09749
▁maintain	-9.09778
▁stability	-9.10032
▁western	-9.10057
▁went	-9.10088
▁remained	-9.10229
▁delegations	-9.10358
▁1994	-9.10535
▁v	-9.10574
▁understanding	-9.10629
▁strengthen	-9.10712
▁keep	-9.10714
▁says	-9.10892
▁1990	-9.10898
▁1995	-9.109
▁internal	-9.10921
▁range	-9.11009
ian	-9.1104
▁investigations	-9.11077
▁providing	-9.1111
▁ba	-9.11172
▁exports	-9.11327
▁procedures	-9.11513
man	-9.1152
▁complete	-9.11609
▁text	-9.11657
▁sent	-9.11708
▁assist	-9.11739
▁afghanistan	-9.11841
▁kosovo	-9.12024
▁reference	-9.12029
▁run	-9.12301
▁rural	-9.12394
▁encourage	-9.12506
▁opinion	-9.12701
▁concept	-9.12946
▁round	-9.12952
▁actually	-9.13069
▁w	-9.13118
▁known	-9.13314
▁prevent	-9.13408
▁hold	-9.13434
▁asked	-9.13465
▁improvement	-9.13499
▁regular	-9.13501
▁conflicts	-9.13521
▁m	-9.13558
▁phase	-9.13692
▁station	-9.1371
▁debt	-9.14053
▁despite	-9.14065
▁sanctions	-9.14065
▁design	-9.1411
▁mentioned	-9.1431
▁markets	-9.14436
▁residents	-9.14574
▁participate	-9.14592
▁sectors	-9.1467
▁employees	-9.14733
▁trial	-9.14785
▁senior	-9.14818
▁don	-9.14888
▁wan	-9.14934
▁airport	-9.15014
iv	-9.1503
▁circumstances	-9.15075
▁places	-9.15089
▁contribution	-9.15183
▁things	-9.15385
▁volume	-9.15386
▁difficulties	-9.15414
▁prime	-9.15578
▁india	-9.15772
line	-9.1583
ized	-9.15932
▁away	-9.15947
▁kingdom	-9.15958
▁forum	-9.15987
▁using	-9.16287
▁indicated	-9.16491
▁facilitate	-9.16532
▁regions	-9.16795
▁lives	-9.16864
▁2001.	-9.1689
▁se	-9.16906
▁plans	-9.16919
▁1993	-9.16926
▁amendment	-9.16991
▁receive	-9.17078
▁house	-9.17109
▁opening	-9.17148
▁agency	-9.17243
▁customs	-9.1729
▁material	-9.17325
▁doubt	-9.17497
▁abuse	-9.17502
▁mid	-9.17509
▁generally	-9.17526
▁nor	-9.17624
ization	-9.17646
▁base	-9.17685
▁regime	-9.17694
▁applications	-9.18014
▁contract	-9.18141
▁prepared	-9.18183
be	-9.18266
▁parents	-9.1835
▁killed	-9.18361
ca	-9.18459
▁entire	-9.18479
▁sides	-9.18743
ts	-9.18758
▁bar	-9.18884
▁attacks	-9.1938
▁ten	-9.19445
▁ordinance	-9.19456
▁parts	-9.19498
▁matters	-9.19577
led	-9.19604
making	-9.19655
▁approved	-9.19687
▁avoid	-9.1982
▁ever	-9.19847
▁referred	-9.19856
▁event	-9.19918
▁professional	-9.20016
▁approximately	-9.2008
▁attack	-9.2014
▁standard	-9.20166
▁heart	-9.20247
▁elderly	-9.20251
▁100	-9.20299
▁knowledge	-9.2045
▁internet	-9.20455
▁29	-9.20494
▁job	-9.20557
▁published	-9.20566
▁active	-9.20576
▁hk	-9.2059
way	-9.20595
▁commissioner	-9.2063
▁compensation	-9.20656
▁answer	-9.20662
▁objective	-9.20748
▁zone	-9.20762
▁immediately	-9.20789
▁pressure	-9.20862
▁mo	-9.20872
▁federation	-9.21051
▁movement	-9.21197
▁advisory	-9.21261
op	-9.21446
▁wide	-9.21452
▁enhance	-9.2146
ous	-9.21623
▁source	-9.21765
▁concerns	-9.21874
▁aware	-9.21915
▁released	-9.22012
▁seek	-9.22039
▁asian	-9.22215
▁events	-9.22257
po	-9.22277
▁test	-9.22346
▁participants	-9.22602
▁assessment	-9.22617
▁supported	-9.22617
▁became	-9.22877
▁language	-9.23044
▁extent	-9.23082
▁60	-9.23108
▁addressed	-9.23176
▁analysis	-9.23287
▁strategy	-9.23287
▁single	-9.2329
▁red	-9.23319
▁allowed	-9.23478
▁implement	-9.23519
▁behalf	-9.23699
▁mrs	-9.23734
▁b	-9.23814
▁1999.	-9.23879
▁english	-9.23906
▁iraqi	-9.24166
▁fundamental	-9.2432
▁procedure	-9.24484
▁mainly	-9.24532
▁confidence	-9.24555
▁enforcement	-9.24566
▁1997.	-9.24672
▁raised	-9.24688
▁pa	-9.24728
▁honour	-9.24739
▁build	-9.24785
▁lu	-9.24937
▁relating	-9.24945
▁growing	-9.25047
▁challenges	-9.25099
▁fair	-9.25148
▁headquarters	-9.25154
▁welfare	-9.25154
▁late	-9.25266
▁record	-9.25389
▁departments	-9.25452
▁ro	-9.25556
ct	-9.25557
▁coming	-9.2573
▁external	-9.25785
▁stressed	-9.26013
▁1998.	-9.26101
ung	-9.2615
▁behind	-9.26207
▁ra	-9.2624
per	-9.26364
▁lee	-9.26444
▁aids	-9.26447
▁constitution	-9.26507
▁funding	-9.26521
▁presented	-9.26524
▁balance	-9.26625
▁front	-9.2667
▁claim	-9.26719
ize	-9.26746
▁campaign	-9.26844
▁started	-9.26927
▁defence	-9.27183
▁institute	-9.27256
▁2001,	-9.2726
▁expenditure	-9.27285
▁association	-9.27285
▁shown	-9.27419
▁consultation	-9.27509
▁u	-9.2767
▁continuing	-9.277
▁federal	-9.277
▁network	-9.27726
4	-9.2774
▁began	-9.27854
▁combat	-9.27925
▁ca	-9.27997
▁doing	-9.28063
▁electronic	-9.2813
▁below	-9.28131
▁solution	-9.28161
▁agricultural	-9.28346
▁occurred	-9.2835
▁require	-9.28368
▁rest	-9.28385
▁arab	-9.28398
▁name	-9.2845
▁enjoy	-9.28578
▁nevertheless	-9.2878
▁code	-9.28782
ph	-9.28851
▁protect	-9.28865
▁traditional	-9.28878
ac	-9.28912
▁peaceful	-9.28916
ial	-9.28997
▁globalization	-9.29244
▁contribute	-9.29312
▁civilians	-9.29355
▁closed	-9.29417
▁create	-9.29427
▁million	-9.29499
based	-9.29501
▁enough	-9.29657
▁sales	-9.29819
▁thought	-9.29835
▁favour	-9.29838
▁border	-9.29839
tr	-9.29862
▁youth	-9.2989
▁chan	-9.29904
▁carry	-9.29978
▁ethnic	-9.2998
▁annex	-9.30091
▁centres	-9.30119
▁officer	-9.30199
▁counter	-9.30236
▁r	-9.3024
▁speak	-9.30271
▁condition	-9.30298
▁j	-9.30507
▁spirit	-9.30532
▁leading	-9.30597
▁reduced	-9.30603
▁benefits	-9.30631
▁individuals	-9.30685
▁2002.	-9.30714
▁conclusion	-9.30839
▁er	-9.30869
▁search	-9.30975
▁teachers	-9.31005
▁agreements	-9.31007
▁pm	-9.31126
▁waste	-9.31149
▁enquiries	-9.31197
▁medium	-9.31197
▁multi	-9.31414
▁overseas	-9.3142
ical	-9.31434
▁directly	-9.31507
out	-9.31537
▁ask	-9.31562
ni	-9.31634
▁undertaken	-9.31915
▁scene	-9.32091
▁laws	-9.32211
▁factors	-9.32247
▁industries	-9.32316
▁respectively	-9.32419
▁news	-9.32492
ning	-9.32523
▁true	-9.32543
▁unemployment	-9.32548
▁1992	-9.32551
▁enable	-9.32584
▁initiative	-9.32657
▁transfer	-9.32762
▁female	-9.32767
▁stay	-9.32767
▁floor	-9.32993
▁sustainable	-9.33007
▁model	-9.33054
▁effects	-9.33206
▁fall	-9.3331
0	-9.33311
▁introduced	-9.33371
▁affect	-9.33392
▁maintenance	-9.33447
▁su	-9.3345
▁though	-9.33486
▁sp	-9.33489
no	-9.3351
▁duty	-9.33914
▁decisions	-9.33927
▁recorded	-9.34095
▁stand	-9.34249
9	-9.34254
▁host	-9.3432
▁adoption	-9.34397
▁wong	-9.3442
▁returned	-9.34452
▁yu	-9.34467
ish	-9.34563
▁mutual	-9.34591
for	-9.34621
▁japanese	-9.34661
da	-9.34708
ie	-9.34786
▁settlement	-9.34996
ng	-9.35119
▁coordination	-9.35292
▁congo	-9.35298
▁peacekeeping	-9.35309
▁crimes	-9.3534
▁aspects	-9.35421
▁useful	-9.35476
der	-9.35477
▁yesterday	-9.35516
▁credit	-9.3556
▁payment	-9.35657
▁prison	-9.35701
▁consultations	-9.35736
▁activity	-9.35749
▁governor	-9.35767
▁discuss	-9.35788
▁critical	-9.35815
▁paper	-9.35957
▁reflect	-9.3598
▁communities	-9.35982
▁charter	-9.36004
▁vice	-9.36018
▁resulted	-9.3607
ine	-9.36093
▁class	-9.36098
▁details	-9.36109
ag	-9.36127
▁york	-9.36215
cu	-9.36223
▁equal	-9.36232
▁documents	-9.36307
▁elected	-9.36319
▁room	-9.36583
▁closely	-9.36595
▁injured	-9.36735
go	-9.36824
▁organized	-9.36856
▁whose	-9.36963
building	-9.37035
▁talk	-9.37039
▁launched	-9.37192
▁peoples	-9.37223
▁extremely	-9.3723
erra	-9.37286
▁daily	-9.37394
▁finance	-9.37451
pp	-9.37464
▁ceremony	-9.37629
▁secondary	-9.37655
▁broad	-9.37753
▁improved	-9.37804
▁drugs	-9.37809
▁ways	-9.37835
▁parliament	-9.37898
pe	-9.37912
▁largest	-9.37986
ut	-9.38098
▁contact	-9.381
▁lost	-9.38152
▁ta	-9.38169
mb	-9.38305
▁economies	-9.38343
▁simply	-9.38343
▁presence	-9.38344
▁stock	-9.38351
▁deep	-9.384
▁items	-9.38538
▁practical	-9.38582
▁sense	-9.38583
▁followed	-9.38623
▁appointed	-9.38722
▁certainly	-9.38755
▁agree	-9.38807
▁science	-9.39063
▁na	-9.39103
▁initiatives	-9.3918
▁proceed	-9.39211
▁chi	-9.39227
▁materials	-9.39277
▁suggested	-9.39292
▁degree	-9.39322
▁aid	-9.39379
ge	-9.39411
▁add	-9.39599
oc	-9.39608
▁sc	-9.39664
▁troops	-9.39708
▁recognized	-9.39742
▁choice	-9.39791
▁discrimination	-9.39871
ir	-9.39927
▁join	-9.40016
▁physical	-9.4003
▁decline	-9.40048
▁moment	-9.40055
▁hoped	-9.40164
ure	-9.40211
▁dollar	-9.40307
▁likely	-9.4032
▁units	-9.40381
▁something	-9.4052
▁sa	-9.40551
▁province	-9.40559
▁placed	-9.40583
▁highest	-9.40641
he	-9.40644
ee	-9.40765
▁threat	-9.4077
▁cut	-9.40786
ot	-9.40827
▁studies	-9.41007
▁operating	-9.41011
▁intention	-9.41014
▁te	-9.41024
▁structure	-9.41098
▁sources	-9.4112
▁du	-9.41213
▁talks	-9.41269
▁mechanism	-9.41306
▁buildings	-9.41432
▁damage	-9.41523
▁judicial	-9.41567
▁forms	-9.41581
▁item	-9.41611
▁immigration	-9.41746
▁nothing	-9.41756
▁stop	-9.41861
▁tai	-9.41933
▁1998,	-9.41966
▁net	-9.41974
▁begin	-9.41987
sa	-9.42164
▁girls	-9.42188
▁seems	-9.4251
▁eastern	-9.42614
▁elements	-9.42676
▁notes	-9.42714
▁registered	-9.42742
▁reportedly	-9.42744
▁located	-9.42761
▁trend	-9.42827
day	-9.42841
▁kowloon	-9.42989
▁canada	-9.4299
va	-9.43194
▁reporting	-9.4329
▁normal	-9.43302
▁offer	-9.43444
tion	-9.43446
▁direction	-9.43564
▁sure	-9.4363
▁died	-9.4372
▁cover	-9.43721
▁indigenous	-9.43743
▁television	-9.43743
▁mi	-9.43756
▁adopt	-9.43822
▁communication	-9.43847
▁appear	-9.43941
▁measure	-9.44011
▁sufficient	-9.44018
▁mass	-9.44083
▁discussed	-9.44163
ping	-9.44266
▁regulations	-9.44343
▁signed	-9.44511
su	-9.44616
▁terrorist	-9.44705
▁seven	-9.44765
▁trust	-9.44909
tu	-9.44945
▁accept	-9.45075
▁fine	-9.45123
▁expert	-9.45123
▁northern	-9.45268
▁river	-9.45269
▁claims	-9.45269
ring	-9.45378
▁submit	-9.45508
▁gender	-9.45525
▁created	-9.45532
▁urge	-9.45542
▁goal	-9.45717
▁cold	-9.45894
ite	-9.45894
▁extend	-9.45909
▁steps	-9.4601
▁heavy	-9.46039
▁1991	-9.46051
▁assets	-9.46112
▁import	-9.46244
▁told	-9.46249
▁operational	-9.46281
if	-9.46316
▁felt	-9.4636
▁obtain	-9.46428
ba	-9.46529
30	-9.46622
▁objectives	-9.46701
▁pakistan	-9.4671
▁vehicle	-9.46747
▁french	-9.46816
▁infrastructure	-9.46847
00	-9.46874
▁initial	-9.46888
▁discussions	-9.47005
▁believed	-9.4703
▁ad	-9.47032
▁consensus	-9.47077
▁independence	-9.47077
▁rich	-9.47078
▁failure	-9.47084
▁big	-9.47145
▁considerable	-9.47157
os	-9.47189
▁shows	-9.47252
▁applied	-9.47338
▁perhaps	-9.47338
▁index	-9.47342
▁everyone	-9.47355
▁british	-9.47436
by	-9.4746
▁comments	-9.47489
▁disease	-9.47519
▁afternoon	-9.476
▁emergency	-9.476
▁france	-9.476
▁port	-9.47616
▁cities	-9.4763
▁accepted	-9.47735
▁speech	-9.47795
▁unable	-9.47803
▁leadership	-9.47866
▁scheduled	-9.47984
▁army	-9.48157
▁decrease	-9.48164
▁increasingly	-9.48182
qui	-9.48195
▁safe	-9.48265
▁figures	-9.48365
▁modern	-9.48381
mp	-9.4841
of	-9.48464
▁remind	-9.4861
con	-9.48667
▁dead	-9.48962
q	-9.49088
volving	-9.49185
▁tsang	-9.49186
▁gr	-9.49191
ho	-9.49244
▁engaged	-9.49285
▁park	-9.49444
▁distribution	-9.49453
▁series	-9.49457
▁estate	-9.49466
▁holding	-9.49478
▁sentence	-9.4951
▁target	-9.49558
▁premises	-9.49585
▁completion	-9.49719
000000000	-9.49724
ious	-9.49779
▁detailed	-9.49911
em	-9.49918
▁complex	-9.49919
▁developments	-9.4995
▁opened	-9.50032
hi	-9.5014
▁san	-9.50249
▁aircraft	-9.50256
▁approval	-9.50256
▁southern	-9.50256
▁l	-9.50368
end	-9.50436
▁honourabl	-9.50526
▁night	-9.5053
▁banks	-9.50773
men	-9.50783
▁le	-9.50788
▁urged	-9.51033
▁speed	-9.51068
▁fight	-9.51182
tra	-9.51245
che	-9.51257
▁promoting	-9.51338
▁registration	-9.51338
cy	-9.51374
▁prosecutor	-9.51377
▁strengthening	-9.51388
red	-9.51408
▁--	-9.51519
▁sar	-9.5158
▁monitor	-9.51581
com	-9.51611
▁immediate	-9.51695
gu	-9.51821
related	-9.51845
▁principal	-9.51884
▁gave	-9.51898
▁substantial	-9.51969
▁provisional	-9.52091
level	-9.52111
▁sw	-9.52264
▁australia	-9.52328
ap	-9.52349
▁iran	-9.52364
▁adequate	-9.52519
▁aged	-9.52561
▁bus	-9.52627
▁notice	-9.52631
ga	-9.52652
▁across	-9.52708
▁victim	-9.52722
▁rapid	-9.52795
▁trafficking	-9.53014
▁letter	-9.53047
▁charges	-9.53077
▁invited	-9.53092
▁70	-9.53179
▁spread	-9.53262
▁figure	-9.53287
▁soldiers	-9.53335
8	-9.53398
que	-9.53506
▁chamber	-9.53539
▁tomorrow	-9.53539
▁heard	-9.53617
▁appointment	-9.53663
land	-9.5379
▁negative	-9.53818
▁encouraged	-9.53879
▁original	-9.53983
rd	-9.54013
bo	-9.54021
▁mine	-9.54037
▁strength	-9.54062
▁owing	-9.541
▁purchase	-9.54152
▁sexual	-9.54378
▁passed	-9.54438
▁diseases	-9.54466
▁attend	-9.54509
▁functions	-9.54562
▁sir	-9.54592
▁agriculture	-9.54658
▁ban	-9.54724
art	-9.54741
ao	-9.54892
▁leone	-9.54945
▁tourism	-9.54947
▁contained	-9.54975
▁web	-9.55015
▁art	-9.55097
▁entitled	-9.55223
▁insurance	-9.55223
▁mother	-9.55284
▁enter	-9.55407
ill	-9.55481
▁corruption	-9.55554
▁whom	-9.55574
▁inside	-9.55592
▁accordingly	-9.55687
▁town	-9.55758
▁nation	-9.55772
▁birth	-9.55782
▁penalty	-9.55793
▁challenge	-9.55866
▁ready	-9.5588
▁sale	-9.55901
ities	-9.56019
▁h	-9.56038
▁efficiency	-9.56075
ff	-9.56122
weapon	-9.56334
▁ambassador	-9.56361
▁pacific	-9.56552
50	-9.56556
▁displaced	-9.56647
▁emphasis	-9.56647
▁satellite	-9.56647
▁yugoslavia	-9.56662
▁actual	-9.56745
▁preparation	-9.57038
▁en	-9.57183
▁character	-9.57208
▁neighbour	-9.57221
▁posts	-9.57266
ab	-9.57295
▁candidates	-9.57439
▁partnership	-9.57514
▁decide	-9.57721
▁outcome	-9.57802
▁alone	-9.57811
ise	-9.57912
▁word	-9.57931
▁welcomed	-9.57982
▁foundation	-9.58071
▁transition	-9.58274
▁purposes	-9.58381
▁radio	-9.58384
▁relief	-9.58395
▁percent	-9.58433
▁entered	-9.58491
free	-9.58667
fi	-9.58673
▁identified	-9.58676
ah	-9.5868
pro	-9.58683
▁evaluation	-9.58751
-19	-9.58774
▁instruments	-9.58871
ong	-9.58922
▁financing	-9.58969
▁guidelines	-9.58969
▁limit	-9.59026
▁ah	-9.59057
▁confirmed	-9.59117
▁covered	-9.59127
▁communications	-9.59142
ps	-9.59177
▁exhibition	-9.59275
uc	-9.59363
▁mis	-9.59407
▁recommended	-9.59409
▁protocol	-9.59558
▁religious	-9.59558
▁speaking	-9.59562
▁attended	-9.59671
▁gu	-9.59759
▁saying	-9.59818
▁beyond	-9.59854
▁scope	-9.59854
▁entry	-9.59855
▁scale	-9.59859
▁count	-9.59863
▁ja	-9.59964
om	-9.60138
scale	-9.60151
▁music	-9.60176
▁won	-9.60185
islamic	-9.60188
▁friends	-9.6027
▁practices	-9.60279
▁prior	-9.60417
▁amendments	-9.60426
▁forced	-9.60432
▁weather	-9.60449
▁highly	-9.60466
▁eight	-9.60469
▁release	-9.60522
▁computer	-9.60625
▁leung	-9.60757
▁revealed	-9.60864
pr	-9.60868
▁concluded	-9.61144
▁imp	-9.61166
▁ch	-9.61237
▁mean	-9.61308
▁sh	-9.61352
pi	-9.61354
mm	-9.61354
▁gas	-9.61425
▁violations	-9.61428
▁determined	-9.61832
ell	-9.61848
▁learn	-9.61896
▁universal	-9.61922
▁bilateral	-9.6195
▁raise	-9.62038
▁charge	-9.62055
bi	-9.62165
wa	-9.62193
▁black	-9.62253
▁meanwhile	-9.62253
ner	-9.62468
▁complaints	-9.62561
▁separate	-9.62584
▁ni	-9.62612
▁calls	-9.62622
ign	-9.62649
▁accident	-9.62777
off	-9.62797
▁dollars	-9.62819
fer	-9.62882
▁membership	-9.62893
▁looking	-9.63084
▁audit	-9.63155
▁destruction	-9.63168
▁el	-9.63171
▁wu	-9.63217
▁love	-9.63362
▁decreased	-9.6343
▁consumer	-9.63727
called	-9.63737
▁zealand	-9.63782
▁easy	-9.63782
▁judges	-9.63827
▁subsequently	-9.63878
eh	-9.63921
ka	-9.63962
lu	-9.64035
▁extensive	-9.64091
▁cheung	-9.64099
▁incidents	-9.6419
▁remaining	-9.64297
▁manufacturing	-9.644
▁summit	-9.644
▁sites	-9.64475
▁arrived	-9.64494
▁ga	-9.64518
▁suffering	-9.64534
ard	-9.64677
▁employers	-9.6469
▁shui	-9.64745
▁recovery	-9.64746
▁attempt	-9.64904
▁courts	-9.64951
ction	-9.65016
▁shanghai	-9.65023
▁burden	-9.65025
ations	-9.65106
▁judge	-9.65254
▁instance	-9.65301
▁hands	-9.65437
▁hiv	-9.65509
und	-9.65615
▁attitude	-9.65649
▁railway	-9.65653
▁sought	-9.65657
▁minutes	-9.65836
▁constitutional	-9.65869
▁patients	-9.65878
▁intended	-9.65942
▁proportion	-9.65961
▁reply	-9.65964
▁offence	-9.65964
▁sometimes	-9.65967
▁book	-9.65968
bu	-9.66047
▁changed	-9.66095
▁mark	-9.66167
▁diplomatic	-9.6628
hu	-9.66434
▁35	-9.66523
▁arrest	-9.66524
▁loans	-9.66553
▁undp	-9.66596
▁fear	-9.66624
our	-9.66675
▁type	-9.66676
▁articles	-9.6668
pl	-9.66688
▁stations	-9.66694
▁read	-9.66704
▁resource	-9.66901
operation	-9.66913
▁popular	-9.66913
ably	-9.66919
▁pass	-9.66922
▁ability	-9.6709
▁ka	-9.67148
▁partners	-9.67177
▁improving	-9.67231
▁possibility	-9.67231
▁reality	-9.67305
▁goals	-9.67382
▁expect	-9.67435
▁significantly	-9.67439
▁80	-9.67483
▁gross	-9.67551
▁injuries	-9.67553
▁advance	-9.67624
so	-9.67815
▁product	-9.67822
au	-9.67849
▁otherwise	-9.67871
▁miss	-9.67877
▁ms	-9.67906
▁200	-9.67925
▁described	-9.67969
▁weeks	-9.67993
▁thing	-9.68014
▁size	-9.68047
▁vi	-9.68211
▁content	-9.68212
ep	-9.68212
▁fighting	-9.68233
ou	-9.68264
fa	-9.68294
▁aim	-9.6835
1	-9.68504
▁instead	-9.68515
▁designed	-9.68533
ji	-9.68595
▁imposed	-9.68598
▁singapore	-9.68839
▁metres	-9.68858
▁participated	-9.68902
res	-9.6894
▁kuwait	-9.68975
▁becoming	-9.6908
▁actively	-9.69146
▁acting	-9.69157
▁retail	-9.69163
▁fuel	-9.69184
nd	-9.69252
▁setting	-9.69266
▁effectiveness	-9.69319
▁takes	-9.69325
▁offered	-9.69359
▁includes	-9.69384
▁wang	-9.69427
):	-9.69493
son	-9.69735
▁latest	-9.69867
▁educational	-9.69869
▁lau	-9.69914
▁seriously	-9.6996
▁successfully	-9.70184
▁village	-9.70197
▁bad	-9.70274
▁effectively	-9.70491
▁failed	-9.70527
▁fi	-9.7061
▁bear	-9.70653
▁chang	-9.70657
.8	-9.70702
▁explain	-9.70745
▁apart	-9.70773
eg	-9.7088
▁occasion	-9.70882
▁contributed	-9.70938
▁extended	-9.7097
▁moved	-9.70983
▁warm	-9.71109
▁missions	-9.71258
▁strongly	-9.71325
ster	-9.71393
▁bu	-9.71415
▁fail	-9.71424
▁colleagues	-9.7143
▁root	-9.71451
responsibilities	-9.71466
▁influence	-9.71466
▁000	-9.71718
▁requires	-9.7177
▁wrong	-9.71802
▁kept	-9.71807
▁origin	-9.7187
▁makes	-9.71927
▁mu	-9.72005
▁causes	-9.72027
▁visited	-9.72052
▁mechanisms	-9.72061
▁core	-9.72065
▁ship	-9.72102
▁academic	-9.72134
▁latin	-9.72134
▁cash	-9.72158
▁consequences	-9.72326
▁produced	-9.72344
▁message	-9.72469
▁taipei	-9.72469
▁(19	-9.72481
▁planned	-9.72491
▁launch	-9.72515
▁gradually	-9.72536
▁revenue	-9.72573
▁sound	-9.72754
▁suffered	-9.72793
▁creation	-9.72806
▁methods	-9.72811
▁brief	-9.72856
▁standing	-9.72882
▁inflation	-9.73144
▁trading	-9.73145
▁chung	-9.73245
▁homes	-9.73254
▁bl	-9.73264
▁severe	-9.73296
▁saw	-9.73324
▁yuan	-9.73337
▁recognize	-9.734
▁pollution	-9.73483
▁himself	-9.73495
▁outstanding	-9.73527
▁hit	-9.73572
▁recommends	-9.73635
▁mar	-9.73695
▁plant	-9.73799
▁simple	-9.73823
▁tin	-9.73953
▁allegedly	-9.73972
ak	-9.74094
ig	-9.74156
rc	-9.74188
▁comment	-9.74309
▁requests	-9.74349
do	-9.74402
cl	-9.7443
▁detention	-9.74507
▁sudan	-9.74507
▁maintained	-9.74561
▁represented	-9.74564
rr	-9.74691
▁jobs	-9.74702
▁proceedings	-9.74718
ip	-9.7472
▁accounts	-9.74725
▁rwanda	-9.74753
▁charged	-9.74762
▁draw	-9.74857
▁integration	-9.74857
▁prosecution	-9.74859
▁1,	-9.74917
ber	-9.74985
▁showed	-9.75047
▁korean	-9.75072
▁contain	-9.75101
▁served	-9.75165
▁believes	-9.75165
▁resulting	-9.75184
▁participating	-9.75195
▁tell	-9.75266
ft	-9.75335
▁accused	-9.75351
▁clean	-9.7553
▁strategic	-9.75541
▁green	-9.75541
▁fell	-9.75579
▁detained	-9.75595
▁aimed	-9.75625
▁users	-9.75691
▁disaster	-9.75709
▁thousands	-9.75769
▁licence	-9.75889
▁supplies	-9.75889
▁opposition	-9.75889
▁delivery	-9.75953
▁islands	-9.76099
▁taxi	-9.7641
les	-9.76464
▁reflected	-9.76467
▁wishes	-9.76505
▁occupation	-9.76537
gh	-9.76546
▁exist	-9.76697
▁top	-9.7673
▁refugee	-9.76799
▁resolutions	-9.76828
▁picture	-9.76937
▁written	-9.76937
▁maximum	-9.7694
▁father	-9.7694
▁sustained	-9.77197
▁mexico	-9.7729
▁voice	-9.77293
ned	-9.77404
▁ill	-9.7741
▁courses	-9.77449
▁obligations	-9.7749
▁break	-9.77528
▁white	-9.77649
▁offences	-9.77674
ral	-9.77755
▁observers	-9.77854
▁congress	-9.78
▁factor	-9.78008
▁idea	-9.78012
▁collective	-9.78015
▁cha	-9.78018
▁delay	-9.78207
▁weak	-9.78287
cr	-9.7832
▁geneva	-9.78354
▁values	-9.78391
▁appears	-9.78558
▁male	-9.78673
▁che	-9.78695
▁expansion	-9.78711
▁identify	-9.78711
▁involvement	-9.78732
▁awareness	-9.78744
▁tons	-9.78897
▁inspection	-9.7896
▁stress	-9.79041
▁numerous	-9.79069
0,000	-9.79175
rn	-9.79194
▁teaching	-9.79211
▁owners	-9.79285
chi	-9.79286
▁path	-9.79309
▁grant	-9.79328
▁reforms	-9.79386
▁increases	-9.79471
ven	-9.79604
▁buy	-9.79669
▁examination	-9.79681
▁ti	-9.79772
▁built	-9.7979
▁formal	-9.7988
▁fo	-9.8011
▁multilateral	-9.80152
▁violation	-9.80423
▁alternative	-9.80516
▁giving	-9.80516
▁earth	-9.80528
▁respond	-9.80643
ze	-9.80664
▁bomb	-9.80692
▁0	-9.8076
▁indonesia	-9.80776
▁45	-9.8083
▁produce	-9.80871
▁happy	-9.80881
▁scientific	-9.80881
▁burundi	-9.80881
▁types	-9.80898
▁carrying	-9.8111
ified	-9.8121
▁fees	-9.81223
▁appreciation	-9.81247
▁dealing	-9.81334
▁skills	-9.8146
▁slow	-9.81474
▁angola	-9.8151
▁jurisdiction	-9.81615
▁protest	-9.81622
▁experienced	-9.81627
ger	-9.81637
▁guarantee	-9.81686
▁heads	-9.8173
gen	-9.81735
▁determine	-9.81758
rt	-9.81771
▁positions	-9.81792
▁medicine	-9.81924
▁requirement	-9.81964
▁probably	-9.81984
▁marine	-9.82001
gr	-9.82017
▁municipal	-9.82347
▁crucial	-9.82354
▁cancer	-9.82361
▁drop	-9.82382
rg	-9.82555
▁try	-9.82573
ward	-9.82633
relatively	-9.82677
▁dangerous	-9.82735
99	-9.82743
▁germany	-9.82779
▁sign	-9.82795
▁collection	-9.82797
▁got	-9.82822
▁flow	-9.82905
ai	-9.83011
▁n	-9.83057
▁percentage	-9.83116
▁reasonable	-9.83192
▁passengers	-9.83298
▁resolve	-9.83304
▁servants	-9.83425
▁film	-9.83436
ten	-9.83442
▁program	-9.83455
▁faced	-9.83457
▁perspective	-9.83473
▁completely	-9.83486
izing	-9.83553
▁ongoing	-9.83586
▁moral	-9.83661
▁consumption	-9.83849
▁imprisonment	-9.83849
▁strategies	-9.83849
▁illicit	-9.83849
▁deployment	-9.83858
▁granted	-9.83875
▁taiwanese	-9.83879
▁evening	-9.83886
▁prisoners	-9.83928
▁hearing	-9.83963
cc	-9.84031
▁ahead	-9.84175
▁decades	-9.84181
▁worked	-9.84198
▁sex	-9.84207
▁anniversary	-9.84227
▁voluntary	-9.84227
▁festival	-9.84239
▁...	-9.84299
▁quickly	-9.84304
▁cuba	-9.84335
▁integrated	-9.84359
sp	-9.84422
▁ministers	-9.84503
▁da	-9.8451
▁seem	-9.84523
▁absence	-9.84606
▁grave	-9.84606
▁focused	-9.84729
▁welcomes	-9.849
rat	-9.84904
▁train	-9.84907
ec	-9.8494
▁arrangement	-9.8498
▁allocation	-9.84986
▁ensuring	-9.84987
ability	-9.85062
af	-9.85066
ja	-9.85086
▁sun	-9.851
▁award	-9.85183
▁method	-9.85357
▁explanation	-9.85367
▁records	-9.85385
▁businesses	-9.85393
▁efficient	-9.85451
▁observed	-9.85494
▁obtained	-9.85558
▁90	-9.85636
j	-9.85644
▁russia	-9.85646
▁claimed	-9.85681
▁employed	-9.85688
▁preparatory	-9.8575
▁worth	-9.8583
▁fu	-9.85899
▁suspected	-9.85916
▁wind	-9.85918
▁fields	-9.86006
▁fa	-9.86089
▁contrary	-9.86135
▁enormous	-9.86135
▁estimates	-9.86373
▁lin	-9.865
▁electoral	-9.86521
▁recognition	-9.86521
▁equality	-9.86572
▁stable	-9.86654
▁advice	-9.86909
▁corporation	-9.86934
▁unfortunately	-9.86967
▁ii	-9.8702
▁32	-9.87132
▁goes	-9.87261
▁square	-9.87305
▁1995.	-9.87377
▁tv	-9.87433
▁urgent	-9.87521
east	-9.87635
her	-9.87651
▁professor	-9.87689
▁torture	-9.87689
▁visitors	-9.87755
▁gap	-9.87851
see	-9.87928
▁older	-9.87947
▁mere	-9.87993
▁learning	-9.88042
▁linked	-9.88056
▁danger	-9.88074
▁extension	-9.88081
▁introduction	-9.88082
▁mun	-9.88106
▁nine	-9.88114
▁decade	-9.88129
▁lam	-9.88181
ow	-9.88201
▁interested	-9.88211
ory	-9.88326
ru	-9.88391
▁implementing	-9.88395
▁operate	-9.88417
▁correct	-9.88435
▁identity	-9.88474
▁besides	-9.88485
one	-9.88507
ship	-9.88575
▁bush	-9.88594
▁selected	-9.88714
▁findings	-9.88828
▁impossible	-9.8887
▁prosperity	-9.8887
▁guide	-9.88928
▁relation	-9.88928
2%	-9.88977
▁cheng	-9.89135
▁gain	-9.89211
xi	-9.89251
je	-9.89259
▁vital	-9.89268
▁existence	-9.89279
ld	-9.89313
▁usually	-9.89352
▁expression	-9.89362
we	-9.89377
▁killing	-9.89524
▁deeply	-9.89582
▁hi	-9.89616
ran	-9.89653
▁definition	-9.89665
▁latter	-9.89675
▁happen	-9.89676
▁disputes	-9.89758
▁hall	-9.89781
▁forest	-9.89814
▁games	-9.89879
▁pe	-9.89884
▁introduce	-9.89905
▁marriage	-9.90065
▁meaning	-9.90318
▁minimum	-9.90466
▁murder	-9.90466
▁facing	-9.90473
▁check	-9.90582
fu	-9.90668
▁pleased	-9.90691
▁suffer	-9.90712
▁perform	-9.9073
▁turned	-9.90779
use	-9.90936
10	-9.90986
bound	-9.91075
▁numbers	-9.91125
▁informal	-9.91149
▁technologies	-9.91275
▁rose	-9.91318
▁advantage	-9.91389
ight	-9.91434
1%	-9.91446
▁please	-9.91456
▁trying	-9.91499
▁proper	-9.915
▁suggest	-9.91662
▁blood	-9.91681
▁technological	-9.91681
▁wife	-9.91681
▁coast	-9.91681
▁permit	-9.91787
▁bi	-9.91797
▁joined	-9.91923
▁comp	-9.92017
▁leader	-9.92034
▁attached	-9.92045
▁thailand	-9.92091
▁seized	-9.92112
▁greatly	-9.92116
▁trip	-9.92174
▁shortly	-9.92406
▁warning	-9.92566
▁instrument	-9.92637
▁function	-9.92688
over	-9.92706
3%	-9.92754
▁situations	-9.92801
du	-9.92807
ex	-9.92818
▁z	-9.92842
▁2003	-9.92853
▁dealt	-9.9287
▁respective	-9.92891
▁transparency	-9.92911
▁rehabilitation	-9.92917
▁era	-9.9293
vis	-9.92984
▁gone	-9.93009
▁center	-9.93053
▁link	-9.93274
▁residential	-9.93329
▁sovereignty	-9.93329
▁super	-9.93342
▁exceed	-9.93351
▁send	-9.93385
▁mention	-9.93392
▁firm	-9.93413
▁adjustment	-9.9349
▁claimant	-9.93504
▁fish	-9.93651
sc	-9.93703
▁depend	-9.93723
▁duties	-9.93744
▁chance	-9.9382
▁1996.	-9.93821
▁listen	-9.93848
▁sum	-9.93964
▁generation	-9.94013
500	-9.94067
▁door	-9.94137
▁master	-9.94185
▁intend	-9.94195
▁fan	-9.94199
▁secondly	-9.94203
▁yuen	-9.9422
ative	-9.94228
▁explained	-9.94228
ny	-9.94286
▁presentation	-9.94334
▁changing	-9.9447
▁processes	-9.94516
▁constitute	-9.9455
98	-9.94573
▁malaysia	-9.94574
▁register	-9.94605
7%	-9.94677
▁em	-9.94699
▁greatest	-9.94703
▁obligation	-9.94761
▁hoc	-9.94764
▁watch	-9.94835
▁achiev	-9.9487
▁missing	-9.94929
▁represent	-9.94986
▁worse	-9.94995
▁image	-9.94996
▁begun	-9.94997
▁associated	-9.95086
▁powers	-9.9512
▁regards	-9.95214
▁represents	-9.95226
▁interpretation	-9.95227
▁bosnia	-9.95311
▁attract	-9.95387
▁consist	-9.95404
▁temporary	-9.95416
▁season	-9.95438
▁interview	-9.95451
▁occupied	-9.95493
▁tests	-9.95549
▁comes	-9.95582
governing	-9.95607
▁widely	-9.95814
▁afford	-9.9584
▁chapter	-9.9584
▁lebanon	-9.9584
▁unique	-9.9584
▁imports	-9.96009
▁recommendation	-9.9607
▁waiting	-9.9609
▁36	-9.96107
▁pain	-9.9622
▁census	-9.96265
▁currency	-9.96265
▁struggle	-9.96265
ud	-9.96333
▁determination	-9.96402
▁speakers	-9.96441
▁brazil	-9.96681
▁governance	-9.96703
▁losses	-9.96855
set	-9.96941
▁ku	-9.96943
▁born	-9.97003
▁britain	-9.97122
▁drawn	-9.97253
▁historical	-9.97308
▁propose	-9.97328
▁mines	-9.97494
▁amp	-9.97507
load	-9.97537
ko	-9.97546
▁criteria	-9.97553
▁walk	-9.97553
▁wealth	-9.97555
▁hence	-9.97571
pt	-9.97683
▁33	-9.97791
▁ju	-9.97799
▁alleged	-9.97835
▁indicate	-9.98055
▁marked	-9.98085
▁mon	-9.98181
▁starting	-9.98219
ology	-9.98224
mentioned	-9.98261
▁bridge	-9.98318
▁forecast	-9.98421
▁operators	-9.98459
▁th	-9.98468
▁institutional	-9.9853
▁sports	-9.98681
20	-9.98726
▁ko	-9.98815
▁substantive	-9.98857
▁representing	-9.99018
ese	-9.99186
▁regulation	-9.99238
▁writing	-9.99296
▁savings	-9.993
▁revised	-9.99337
▁strengthened	-9.99357
▁length	-9.99736
▁grow	-9.99921
ea	-10.0014
▁safeguard	-10.0018
▁arrival	-10.0018
▁race	-10.0025
ped	-10.0032
ban	-10.0039
ised	-10.0047
ble	-10.0056
▁differences	-10.0062
▁encouraging	-10.0062
▁vulnerable	-10.0062
▁electricity	-10.0064
▁votes	-10.0072
▁wanted	-10.0072
▁card	-10.0073
▁photo	-10.0076
▁declared	-10.0077
proliferation	-10.0092
▁played	-10.01
▁refer	-10.01
▁liberal	-10.0106
hk	-10.0109
▁unicef	-10.0113
▁rent	-10.0125
▁emphasized	-10.0126
▁hopes	-10.0132
▁advanced	-10.0138
▁commitments	-10.0142
▁category	-10.0152
▁flu	-10.0155
▁lay	-10.0155
▁representation	-10.0161
▁wage	-10.0163
▁block	-10.0165
▁hear	-10.017
▁solve	-10.0175
▁appeared	-10.0176
40	-10.0178
determination	-10.0182
▁hour	-10.0185
▁achievement	-10.0194
▁regret	-10.0197
▁endeavour	-10.0197
▁millennium	-10.0197
▁mortality	-10.0197
▁museum	-10.0197
▁denied	-10.0197
▁pick	-10.0199
▁recall	-10.0203
▁visits	-10.021
▁cooperate	-10.0216
▁dispute	-10.0231
▁college	-10.0242
▁unhcr	-10.0242
▁version	-10.0242
▁innocent	-10.0242
▁rank	-10.0245
▁etc	-10.0245
▁pace	-10.0247
▁tender	-10.0248
▁wear	-10.0257
▁proved	-10.0259
▁restrictions	-10.026
ov	-10.0267
▁continent	-10.0278
▁arts	-10.0284
▁variety	-10.0288
▁output	-10.0288
▁ya	-10.0291
▁uh	-10.0293
ron	-10.0293
▁34	-10.03
ei	-10.0301
▁ideas	-10.0306
▁tasks	-10.0311
istic	-10.0321
▁shared	-10.0329
▁minority	-10.0336
▁assistant	-10.0345
▁improvements	-10.0345
▁helped	-10.0359
▁obvious	-10.036
▁lands	-10.0367
▁camp	-10.0369
▁ocean	-10.0379
▁ukraine	-10.0379
▁procurement	-10.0379
▁anything	-10.0379
▁vision	-10.0381
▁hotel	-10.0382
▁assess	-10.0384
▁indicators	-10.0384
▁(1)	-10.0392
▁frequently	-10.0393
tan	-10.0408
▁mobile	-10.0425
▁societies	-10.0425
▁moving	-10.0425
▁signs	-10.043
cing	-10.0432
▁compliance	-10.0437
▁extra	-10.0437
▁trans	-10.0443
▁destroyed	-10.0444
av	-10.0446
▁reading	-10.0463
▁wait	-10.047
▁neither	-10.0471
▁cease	-10.0472
▁foot	-10.0472
▁submission	-10.0473
lin	-10.0473
arian	-10.0478
▁eu	-10.0486
▁treated	-10.0505
▁directed	-10.0511
▁statute	-10.0518
▁vast	-10.0518
▁everything	-10.0518
▁deaths	-10.0542
▁sl	-10.0542
▁institution	-10.0543
▁earn	-10.0553
▁caus	-10.0558
▁reconciliation	-10.0565
▁rain	-10.0574
▁boat	-10.0574
▁unita	-10.0574
200	-10.0585
▁comply	-10.0586
▁zones	-10.0587
▁secure	-10.0589
▁enhanced	-10.0597
▁concrete	-10.0612
▁repair	-10.0612
▁except	-10.0615
▁distributed	-10.0617
ification	-10.0617
war	-10.062
dy	-10.0621
▁seminar	-10.0656
▁fixed	-10.0659
▁voting	-10.066
▁liu	-10.0661
▁shortage	-10.0665
▁allowance	-10.0668
▁eyes	-10.069
▁tang	-10.0692
lan	-10.0695
ler	-10.0696
▁names	-10.0702
▁chemical	-10.0706
▁1980	-10.0709
▁maintaining	-10.0716
▁commerce	-10.0729
▁38	-10.0737
▁cr	-10.0741
pc	-10.0742
▁option	-10.0745
▁seeking	-10.0746
▁thanks	-10.0747
▁inform	-10.0748
▁pi	-10.0766
▁accidents	-10.0767
▁consistent	-10.0785
friday	-10.079
▁occasions	-10.079
▁ratio	-10.0794
▁300	-10.0798
▁egypt	-10.0801
▁easily	-10.0802
▁difference	-10.0802
▁spring	-10.0803
▁arise	-10.0804
▁bur	-10.0812
▁achievements	-10.0814
▁eat	-10.0817
▁appreciate	-10.0827
▁equally	-10.0841
▁yes	-10.0843
▁occur	-10.0848
▁gaza	-10.085
▁climate	-10.0851
▁collect	-10.0853
▁huge	-10.0863
▁languages	-10.0866
air	-10.0867
▁star	-10.0876
side	-10.0897
▁guard	-10.0898
▁religion	-10.0898
▁intervention	-10.0904
▁hksar	-10.0909
▁examples	-10.091
▁para	-10.0916
▁banking	-10.0932
▁customers	-10.0937
wide	-10.0937
▁object	-10.0944
▁integrity	-10.0947
▁leaving	-10.0947
▁turkey	-10.0947
▁rice	-10.0947
▁pu	-10.0948
▁coverage	-10.0949
▁fast	-10.095
▁objection	-10.0951
hy	-10.0951
▁gold	-10.0955
▁schedule	-10.0973
▁undertake	-10.0985
tter	-10.0992
▁restaurant	-10.0995
▁telephone	-10.0995
▁disabled	-10.0995
▁suitable	-10.0998
▁prize	-10.1004
▁worldwide	-10.1004
▁commend	-10.1005
▁demonstrate	-10.1022
ya	-10.1026
▁contracts	-10.1034
11	-10.1035
▁write	-10.1045
▁ballot	-10.1045
▁son	-10.1046
▁track	-10.1046
owned	-10.1068
▁sold	-10.1071
▁profit	-10.1072
▁tried	-10.1075
▁expenses	-10.1086
▁branch	-10.1087
▁ob	-10.109
▁minor	-10.1091
▁counsel	-10.1092
▁collaboration	-10.1095
▁withdrawal	-10.11
▁shi	-10.1106
ming	-10.1109
▁laid	-10.1112
5%	-10.113
▁ki	-10.1141
▁monetary	-10.1143
▁receiving	-10.1143
▁tension	-10.1143
▁eligible	-10.1144
▁manpower	-10.1144
▁loan	-10.1161
▁involve	-10.1175
being	-10.1182
▁lies	-10.1189
▁comparison	-10.1193
▁pension	-10.1193
▁dropped	-10.1194
▁cast	-10.1203
▁learned	-10.1207
73	-10.1217
▁sessions	-10.1224
▁feeling	-10.1235
sponsor	-10.1243
▁afghan	-10.1243
▁legitimate	-10.1243
▁plenary	-10.1243
▁transit	-10.1244
hand	-10.1256
.1	-10.1261
▁defined	-10.1262
▁demonstrated	-10.1266
▁monthly	-10.1271
▁reserve	-10.1274
month	-10.1284
▁threats	-10.1284
▁palestinians	-10.1292
▁spent	-10.1297
▁consequently	-10.1297
▁remarks	-10.1297
▁getting	-10.1299
▁flats	-10.1302
▁workshop	-10.1303
▁display	-10.1305
▁subjected	-10.131
▁fee	-10.1312
▁covers	-10.1323
▁fe	-10.1328
▁briefing	-10.1329
long	-10.1336
▁nationality	-10.1341
▁concession	-10.1344
▁washington	-10.1344
▁pilot	-10.1344
▁story	-10.1348
▁specifically	-10.1349
▁girl	-10.1355
▁ru	-10.1371
ible	-10.1388
▁houses	-10.139
▁caribbean	-10.1394
▁landmines	-10.1394
▁carefully	-10.141
▁huang	-10.1416
▁thinking	-10.1416
▁rev	-10.1418
▁profession	-10.1427
▁wai	-10.1431
going	-10.1445
▁invitation	-10.1445
▁netherlands	-10.1445
▁securities	-10.1445
▁allegations	-10.1446
▁teams	-10.1446
▁previously	-10.145
▁tra	-10.1456
▁element	-10.1457
▁deployed	-10.1461
▁ge	-10.1469
port	-10.1481
▁orders	-10.1481
▁xi	-10.149
▁valid	-10.1497
▁valuable	-10.1497
▁ireland	-10.1497
▁admission	-10.1498
▁execution	-10.1498
▁transferred	-10.1498
▁looked	-10.1504
▁sin	-10.1513
rel	-10.1517
▁pan	-10.1526
▁amounts	-10.1528
bian	-10.1533
▁page	-10.1535
▁broadcast	-10.1542
▁confident	-10.1547
▁sai	-10.1548
za	-10.1549
▁recruitment	-10.155
▁stands	-10.1552
bb	-10.1553
▁transactions	-10.1557
▁payments	-10.1561
▁unless	-10.1563
▁location	-10.1563
▁considering	-10.1564
▁serb	-10.1566
nc	-10.1576
▁75	-10.1582
ki	-10.1588
▁monday	-10.1596
▁elimination	-10.16
▁patrol	-10.16
▁succeed	-10.16
▁taliban	-10.16
▁phone	-10.1601
▁sino	-10.1604
▁expand	-10.1607
ear	-10.1613
▁publication	-10.1615
▁transportation	-10.1619
▁container	-10.163
▁delivered	-10.1638
ple	-10.1639
▁explosion	-10.1652
▁guangdong	-10.1652
▁preliminary	-10.1652
▁primarily	-10.1652
▁software	-10.1652
▁admitted	-10.1653
▁awarded	-10.1654
▁slightly	-10.1662
▁lose	-10.1663
▁wages	-10.1666
▁managed	-10.1668
15	-10.1674
▁donor	-10.168
▁ne	-10.1702
▁installation	-10.1708
▁eventually	-10.171
▁allocated	-10.1712
cent	-10.1716
▁sustain	-10.1722
▁tend	-10.1727
hold	-10.1728
▁bay	-10.1743
▁solutions	-10.175
▁declined	-10.1753
▁ourselves	-10.1757
▁reducing	-10.1757
▁bird	-10.1758
▁somalia	-10.1761
▁seats	-10.1774
▁hon	-10.1785
▁pursue	-10.1788
▁timely	-10.179
▁emphasize	-10.1794
▁reviewed	-10.1797
▁farm	-10.1803
▁ng	-10.1807
▁estimate	-10.1808
▁provincial	-10.181
▁reconstruction	-10.1811
▁investors	-10.1811
▁500	-10.1831
▁1000	-10.1834
▁bound	-10.1835
▁song	-10.1846
▁judiciary	-10.1863
▁adverse	-10.1864
▁expertise	-10.1867
▁breach	-10.1868
▁mental	-10.187
▁touch	-10.1881
▁suggestions	-10.1885
▁aspect	-10.1885
▁philippines	-10.1894
▁prepare	-10.1894
▁demands	-10.19
▁rapidly	-10.19
▁command	-10.1902
▁resolved	-10.1912
▁risks	-10.1913
▁husband	-10.1917
▁saudi	-10.1917
▁peak	-10.1918
▁package	-10.1918
ren	-10.1919
▁iranian	-10.1919
▁remember	-10.192
▁deliver	-10.1922
▁jointly	-10.1922
▁similarly	-10.1922
state	-10.1924
▁kok	-10.1925
▁wto	-10.1926
▁2003.	-10.1929
zhou	-10.1932
▁observer	-10.1944
▁55	-10.1953
keeping	-10.1959
▁liberia	-10.196
ying	-10.1965
▁fulfil	-10.1966
▁fresh	-10.1971
80	-10.1972
60	-10.1972
▁punishment	-10.1973
▁2004	-10.1973
▁advised	-10.1977
▁initiated	-10.1978
▁save	-10.1982
▁refused	-10.1991
▁properly	-10.1996
▁detail	-10.2011
▁protected	-10.2013
▁testing	-10.2015
▁tea	-10.2021
▁accompanied	-10.2025
▁colombia	-10.2025
▁grateful	-10.2025
▁intelligence	-10.2025
▁platform	-10.2025
▁truth	-10.2025
▁investigating	-10.2025
▁fra	-10.203
▁competitive	-10.203
68	-10.2035
▁anyone	-10.2036
▁passenger	-10.205
▁student	-10.205
▁households	-10.2052
▁53	-10.2056
800	-10.2061
▁doctors	-10.2064
▁shan	-10.2066
economic	-10.2074
▁expenditures	-10.2075
▁entirely	-10.2077
▁categories	-10.2079
▁deficit	-10.2079
▁ordinary	-10.2079
▁(2)	-10.2079
▁shot	-10.208
▁wall	-10.2081
▁disposal	-10.2084
▁defendant	-10.2085
▁preventive	-10.2086
▁ph	-10.2096
▁visa	-10.2097
▁household	-10.2107
▁ideal	-10.2112
▁yi	-10.2131
▁happened	-10.2132
▁summer	-10.2134
▁indication	-10.2135
▁hang	-10.2148
▁supporting	-10.2149
.5%	-10.215
▁serving	-10.2154
▁roads	-10.2168
67	-10.2174
▁37	-10.2185
▁choose	-10.2189
▁background	-10.2189
han	-10.2201
▁drivers	-10.2205
▁limits	-10.2215
ever	-10.2221
▁chee	-10.2225
▁yang	-10.2226
pu	-10.2227
▁designat	-10.2228
lam	-10.2242
▁stood	-10.2244
▁guinea	-10.2244
▁worry	-10.2244
▁humanity	-10.2245
▁exploitation	-10.2246
▁cell	-10.2253
▁formed	-10.2262
ries	-10.2265
cap	-10.2294
▁aggression	-10.2299
▁palestine	-10.2299
▁creating	-10.2299
▁unctad	-10.2299
▁appeals	-10.2303
▁broke	-10.2311
▁flight	-10.2333
▁topic	-10.2334
▁witnessed	-10.2335
▁defend	-10.2344
ants	-10.2345
dh	-10.2345
ide	-10.2348
ists	-10.2352
▁larger	-10.2354
▁fiscal	-10.2355
▁solidarity	-10.2355
▁widespread	-10.2355
▁dream	-10.2355
▁farmers	-10.236
▁deposits	-10.2365
lecommunications	-10.2368
wi	-10.2374
tru	-10.2374
▁obviously	-10.2378
▁unity	-10.2381
▁reiterate	-10.2389
▁continuous	-10.2392
▁third	-10.2402
▁shift	-10.2412
▁wonder	-10.2413
▁prospects	-10.2418
▁interim	-10.2419
500000	-10.2427
▁corresponding	-10.2432
▁wounded	-10.2439
▁contains	-10.2443
▁kinds	-10.2452
▁structures	-10.2456
▁exception	-10.2465
▁necessarily	-10.2468
▁uganda	-10.2468
▁violent	-10.2468
▁socio	-10.2468
▁announcement	-10.2469
▁br	-10.247
▁devoted	-10.2475
▁couple	-10.2481
▁100000	-10.2495
▁resume	-10.2502
nan	-10.2508
▁donors	-10.251
rm	-10.2516
▁contrast	-10.2525
▁hotline	-10.2526
▁selection	-10.253
▁1994.	-10.2537
▁schemes	-10.2542
▁belong	-10.2544
▁signing	-10.2555
yu	-10.256
▁ip	-10.2568
des	-10.2579
▁coordinator	-10.2582
▁summary	-10.2582
▁tunnel	-10.2582
▁racial	-10.2582
▁pending	-10.2582
▁44	-10.2592
▁settlements	-10.2598
▁undermine	-10.2603
dge	-10.2612
ily	-10.2623
eng	-10.2625
▁arabia	-10.2638
▁atmosphere	-10.2639
▁phenomenon	-10.2639
▁video	-10.2639
▁adapt	-10.2639
▁treaties	-10.264
▁painting	-10.2641
▁tuen	-10.2643
▁chairperson	-10.2647
▁actors	-10.2649
45	-10.266
▁wood	-10.2662
▁wished	-10.2666
▁depends	-10.2675
▁ce	-10.2679
▁hundreds	-10.2681
▁accounting	-10.2688
▁namely	-10.269
▁associations	-10.2693
▁relative	-10.2696
▁engine	-10.2697
▁definitely	-10.2697
▁excellent	-10.2697
▁intellectual	-10.2697
▁photograph	-10.2697
▁universities	-10.2697
▁rescue	-10.2697
▁crop	-10.2699
▁spend	-10.2699
▁1989	-10.27
▁surface	-10.2706
chung	-10.2706
▁geographical	-10.2711
▁processing	-10.2712
▁57	-10.2717
▁hung	-10.2724
▁um	-10.2725
▁lines	-10.2731
▁originally	-10.2739
▁jo	-10.2742
▁sole	-10.2745
▁fruit	-10.2747
▁remote	-10.2755
▁italy	-10.2759
▁cap	-10.2763
▁consumers	-10.2769
▁spot	-10.2773
▁dog	-10.2782
▁attach	-10.2789
▁invite	-10.2791
ku	-10.2792
▁route	-10.2798
gi	-10.2801
▁driver	-10.2803
▁41	-10.2813
▁abroad	-10.2814
▁cambodia	-10.2814
▁statistical	-10.2814
▁retirement	-10.282
▁totally	-10.282
▁42	-10.2823
▁wing	-10.2828
▁48	-10.2848
▁observation	-10.2857
▁performed	-10.287
▁conviction	-10.2873
▁ratification	-10.2873
▁resort	-10.2873
▁tan	-10.2886
▁opinions	-10.2892
▁feature	-10.29
▁deposit	-10.2901
▁considers	-10.2901
▁grounds	-10.2902
▁organisations	-10.2903
▁firms	-10.291
ham	-10.2919
▁residence	-10.2932
ken	-10.2933
▁accountability	-10.2935
▁harm	-10.294
▁flows	-10.2942
▁keeping	-10.2949
▁refuse	-10.2969
▁prove	-10.2988
▁characteristics	-10.299
▁seat	-10.299
▁strike	-10.2991
▁tsui	-10.2991
▁truly	-10.2991
▁tu	-10.2992
▁internally	-10.2994
▁56	-10.2998
▁healthy	-10.3
▁specialized	-10.3013
▁highlight	-10.3017
ier	-10.302
press	-10.302
▁gun	-10.3023
▁engage	-10.3026
ular	-10.3027
▁quot	-10.3037
▁sentenced	-10.3042
▁spare	-10.3042
▁harbour	-10.3051
▁hectares	-10.3051
▁tsuen	-10.3051
▁driving	-10.3051
▁overcome	-10.3051
▁engineering	-10.3051
personnel	-10.3052
▁regularly	-10.3052
▁assert	-10.3052
▁convinced	-10.3056
▁expectations	-10.3058
▁speaker	-10.306
▁extreme	-10.3092
▁periods	-10.3093
unt	-10.3094
▁didn	-10.3095
▁listed	-10.3097
▁ethiopia	-10.3101
▁covenant	-10.3111
▁politics	-10.3111
secretary	-10.3112
▁none	-10.3113
.9%	-10.3115
▁lift	-10.3119
▁parking	-10.3121
▁witness	-10.3126
▁conferences	-10.3132
▁reiterated	-10.3136
▁king	-10.3145
▁applicants	-10.3156
▁drinking	-10.316
ire	-10.3161
▁provinces	-10.3162
▁flat	-10.3162
▁assessed	-10.3163
▁degrees	-10.3167
.4	-10.3171
▁corporate	-10.3172
▁eritrea	-10.3172
▁incidence	-10.3172
▁supervision	-10.3172
oriented	-10.3172
▁micro	-10.3172
▁merit	-10.3172
▁ownership	-10.3172
▁unemployed	-10.3173
▁grand	-10.3175
▁flood	-10.3175
▁1988	-10.3175
ium	-10.3175
▁handling	-10.3184
▁rental	-10.3184
▁suspended	-10.3187
▁fishing	-10.3196
▁removed	-10.3203
▁chai	-10.3204
pec	-10.3206
▁conventional	-10.3209
▁desire	-10.321
▁subsequent	-10.3214
▁drive	-10.3228
▁shock	-10.3233
▁compromise	-10.3233
▁constructive	-10.3234
▁winter	-10.3234
▁difficulty	-10.3234
flow	-10.3237
▁cargo	-10.3237
▁firmly	-10.3261
table	-10.3269
▁43	-10.327
▁meant	-10.3272
▁expanded	-10.3279
▁investments	-10.3281
ain	-10.3281
.6%	-10.3281
▁fly	-10.3286
▁certificate	-10.3287
▁facts	-10.3291
▁audience	-10.3294
▁behaviour	-10.3294
▁minorities	-10.3295
▁2005	-10.3299
▁tour	-10.33
▁addressing	-10.3303
▁fallen	-10.3304
▁rely	-10.3307
▁cur	-10.3316
▁hot	-10.332
▁returning	-10.3326
▁fill	-10.3327
▁tradition	-10.3346
▁forth	-10.3348
▁teacher	-10.3353
▁database	-10.3356
▁supreme	-10.3356
▁priorities	-10.3357
▁obstacles	-10.3358
▁running	-10.3359
▁evident	-10.3362
▁divided	-10.3365
win	-10.3368
▁sad	-10.337
69	-10.3382
▁amended	-10.3382
▁bit	-10.3384
▁49	-10.3387
late	-10.3388
▁chair	-10.3412
▁channel	-10.3413
▁shop	-10.3414
▁39	-10.3415
88	-10.3416
▁inadequate	-10.3418
▁innovation	-10.3418
▁pursuan	-10.3418
▁unilateral	-10.3418
▁revision	-10.3418
▁rising	-10.3418
▁seemed	-10.342
point	-10.3421
▁leg	-10.3421
▁districts	-10.3421
▁cla	-10.3424
▁targets	-10.3428
▁dance	-10.3437
▁wo	-10.344
▁weight	-10.345
▁drawing	-10.346
ua	-10.347
▁chu	-10.3472
▁belief	-10.3481
▁spanish	-10.3481
▁virtually	-10.3484
▁chosen	-10.3484
hua	-10.3484
▁hair	-10.3486
hai	-10.3487
▁availability	-10.3487
▁god	-10.3494
▁authorized	-10.3496
▁documentation	-10.3497
▁producer	-10.3506
▁publicity	-10.3507
▁closer	-10.351
▁approaches	-10.3521
▁profits	-10.3537
▁secret	-10.3541
▁kilometres	-10.3544
▁consultative	-10.3544
▁hospitals	-10.3563
▁naturally	-10.3564
▁tri	-10.3565
tat	-10.3575
▁dimension	-10.3577
▁ye	-10.3577
ju	-10.3584
▁frequent	-10.3588
▁components	-10.3596
▁machine	-10.3606
▁spending	-10.3607
▁afraid	-10.3607
▁closing	-10.3607
▁shelter	-10.3607
▁sample	-10.3607
▁bearing	-10.3609
▁indian	-10.3611
▁agents	-10.3612
.4%	-10.362
test	-10.3625
▁implications	-10.3629
▁lasting	-10.363
▁sort	-10.3631
regulatory	-10.3633
▁pr	-10.3638
tel	-10.3662
▁47	-10.3666
▁preced	-10.3669
▁familiar	-10.3671
▁reaction	-10.3673
▁complaint	-10.3676
▁playing	-10.3685
▁organised	-10.3689
▁mode	-10.3692
▁select	-10.3693
▁certified	-10.3735
▁identification	-10.3735
▁tribute	-10.3735
▁excise	-10.3735
▁casualties	-10.3735
▁match	-10.3735
▁title	-10.3735
▁excessive	-10.3736
▁prohibition	-10.3738
▁rebel	-10.3741
▁turning	-10.3743
▁covering	-10.3753
▁offers	-10.3753
har	-10.3754
▁billion	-10.3754
▁poll	-10.3757
can	-10.3769
▁books	-10.3775
▁boy	-10.378
▁smooth	-10.378
▁comprise	-10.3781
▁54	-10.3785
▁villages	-10.3788
▁suit	-10.379
▁organs	-10.3794
▁rid	-10.3798
▁suicide	-10.3799
▁inhabitants	-10.3799
▁criticism	-10.38
work	-10.3803
▁putting	-10.3815
fl	-10.3827
od	-10.3837
▁locations	-10.3845
▁nu	-10.3857
▁dedicated	-10.3864
▁genuine	-10.3864
▁profound	-10.3864
▁premier	-10.3864
▁salary	-10.3864
▁website	-10.3864
laundering	-10.3864
rew	-10.3869
▁lake	-10.387
▁deserve	-10.3876
▁win	-10.3881
▁tam	-10.3882
▁powerful	-10.3888
shi	-10.389
▁immigrants	-10.3897
▁historic	-10.3901
▁interior	-10.3901
▁links	-10.3906
ties	-10.3921
bri	-10.3924
▁manufacture	-10.3928
▁closure	-10.3929
▁disabilities	-10.3929
▁equivalent	-10.3929
▁signature	-10.3929
▁understood	-10.3929
▁segment	-10.3929
▁clause	-10.393
▁options	-10.3931
▁undertaking	-10.3933
▁publications	-10.3934
▁judgement	-10.3936
▁reflects	-10.3942
▁remove	-10.3943
▁signal	-10.3945
▁progressive	-10.3948
▁county	-10.3952
▁65	-10.3953
▁streets	-10.3954
▁discovered	-10.3954
▁organ	-10.3954
▁replaced	-10.396
▁promoted	-10.3971
25	-10.3982
rap	-10.3982
rb	-10.3988
▁commit	-10.3988
▁wave	-10.399
▁defense	-10.3995
▁hygiene	-10.3995
▁imperative	-10.3995
▁restructuring	-10.3995
▁territorial	-10.3995
94	-10.3999
▁constantly	-10.4014
like	-10.4014
▁store	-10.4032
▁freedoms	-10.4039
▁career	-10.4042
▁sharp	-10.4043
light	-10.4045
▁lawyers	-10.4052
▁mountain	-10.4054
vested	-10.4056
▁applicable	-10.4061
▁cycle	-10.4061
▁guilty	-10.4061
monday	-10.4068
▁qi	-10.4069
▁newly	-10.4086
▁accession	-10.4092
▁fare	-10.4122
▁motor	-10.4128
▁capacities	-10.4128
▁emerging	-10.4128
▁jerusalem	-10.4128
▁reunification	-10.4128
▁screen	-10.4128
▁seizure	-10.4128
producing	-10.4128
▁ruling	-10.413
▁euro	-10.4131
▁witnesses	-10.4135
▁enterprise	-10.4137
▁employer	-10.4144
▁reaffirm	-10.4156
▁publish	-10.4156
▁bra	-10.4161
▁normally	-10.4179
▁replace	-10.4181
▁argentina	-10.4195
▁tragedy	-10.4195
▁vienna	-10.4195
▁guidance	-10.4196
▁entering	-10.4198
▁distinction	-10.4198
▁tong	-10.4205
▁nt	-10.4206
▁updated	-10.4206
▁rushed	-10.4214
may	-10.4215
▁talking	-10.4224
2000	-10.4232
▁constant	-10.4244
▁corporations	-10.4258
government	-10.4262
▁double	-10.4263
▁collapse	-10.4263
▁embargo	-10.4263
▁georgia	-10.4263
▁somewhat	-10.4263
▁structural	-10.4263
▁trouble	-10.4263
▁liaison	-10.4264
▁ended	-10.4266
▁considerably	-10.4267
▁tackle	-10.4269
▁whatever	-10.4269
eu	-10.427
▁broadcasting	-10.4271
wednesday	-10.4271
▁tickets	-10.4271
▁enhanc	-10.4272
▁london	-10.4272
▁component	-10.4274
▁friday	-10.4279
▁partner	-10.4285
▁alia	-10.4295
▁disasters	-10.4298
▁eliminate	-10.4308
▁examine	-10.4322
200000	-10.4328
▁attain	-10.4328
▁contingent	-10.4331
▁livelihood	-10.4331
▁significance	-10.4331
▁mistake	-10.4331
▁pla	-10.4331
▁passport	-10.4332
let	-10.4334
▁rail	-10.4337
tric	-10.4341
board	-10.4341
▁features	-10.4349
▁style	-10.435
▁ease	-10.4353
house	-10.4361
fire	-10.437
care	-10.4373
▁qu	-10.4376
fully	-10.4383
▁missiles	-10.4385
▁appr	-10.4385
mission	-10.4393
▁commodities	-10.4399
▁daughter	-10.4399
▁fisheries	-10.4399
▁shenzhen	-10.4399
▁temperature	-10.4399
▁unprecedented	-10.4399
▁entities	-10.4399
▁escape	-10.4399
▁400	-10.4399
▁timorese	-10.4401
▁channels	-10.4405
▁awards	-10.4407
▁camps	-10.4411
▁missile	-10.4414
▁commander	-10.4418
▁reservations	-10.4419
▁condemn	-10.4423
▁realized	-10.4433
▁observe	-10.4439
▁conclude	-10.4446
▁substantially	-10.4447
▁finding	-10.445
▁battle	-10.4468
▁diversity	-10.4468
▁species	-10.4468
▁venue	-10.4468
▁competitiveness	-10.4471
▁infection	-10.4472
water	-10.4481
▁dark	-10.4492
▁seeks	-10.4497
▁die	-10.4499
ition	-10.4505
▁owner	-10.4507
ker	-10.4509
▁threaten	-10.4509
down	-10.452
ib	-10.4523
▁vessels	-10.4526
▁german	-10.4528
▁networks	-10.453
▁haiti	-10.4535
▁explore	-10.4538
▁brother	-10.4538
exports	-10.4538
▁oversight	-10.4538
▁norms	-10.4538
▁strip	-10.4539
▁anticipated	-10.4543
▁syrian	-10.4545
▁push	-10.4545
terrorism	-10.4548
70	-10.4551
▁candidate	-10.4555
▁grants	-10.4556
▁inspector	-10.4558
▁mostly	-10.4561
▁preserve	-10.4564
▁ming	-10.4575
▁pledge	-10.4585
▁assume	-10.4585
▁crossing	-10.4592
▁pose	-10.4604
▁punish	-10.4605
▁mari	-10.4605
typical	-10.4608
▁heavily	-10.4608
▁preparing	-10.4608
▁satisfied	-10.4608
▁storage	-10.4608
▁surplus	-10.4608
▁jiang	-10.4608
▁contacts	-10.4609
▁renewal	-10.4613
▁doctor	-10.4627
▁thirdly	-10.4631
▁cards	-10.4632
95	-10.4632
▁plane	-10.4632
▁targeted	-10.4639
▁stages	-10.4642
▁chau	-10.4644
▁severely	-10.4647
▁drafting	-10.4654
kin	-10.4656
▁patient	-10.4659
5000000	-10.4672
▁famous	-10.4678
▁garden	-10.4678
▁crowd	-10.4678
▁responded	-10.4683
▁massive	-10.4685
▁invest	-10.4686
▁adviser	-10.4692
▁papers	-10.4693
▁compet	-10.4694
▁routes	-10.4698
▁negotiation	-10.4699
▁presidential	-10.4699
▁resident	-10.471
▁($	-10.4715
▁affecting	-10.4716
▁professionals	-10.4716
▁calling	-10.4719
tory	-10.4721
▁fit	-10.4722
▁duration	-10.4726
▁insist	-10.4732
▁careful	-10.4739
▁feelings	-10.4742
shan	-10.4746
▁myanmar	-10.4749
▁textile	-10.4749
▁persist	-10.4751
▁envisaged	-10.4756
93	-10.4759
▁civilization	-10.476
▁emerged	-10.4761
▁absolutely	-10.4761
june	-10.4762
▁drink	-10.4763
▁repeatedly	-10.4763
▁someone	-10.477
▁functioning	-10.4778
89	-10.478
▁indicates	-10.4782
77	-10.4787
▁tourist	-10.4793
▁77	-10.4806
92	-10.4815
▁asylum	-10.482
▁militia	-10.482
▁satisfaction	-10.482
▁copies	-10.482
▁arising	-10.4821
▁stopped	-10.4822
▁specified	-10.4823
law	-10.4825
▁sight	-10.4826
▁ultimately	-10.4834
▁employ	-10.4837
▁troop	-10.4844
▁hwa	-10.4849
▁reject	-10.4854
87	-10.4858
▁delet	-10.4865
▁borders	-10.4872
▁strict	-10.4873
▁reserves	-10.4874
duct	-10.4877
act	-10.4879
▁realize	-10.488
91	-10.4882
▁regarded	-10.4883
▁boys	-10.4892
▁celebrate	-10.4892
▁fashion	-10.4892
▁statutor	-10.4892
▁distance	-10.4892
▁movie	-10.4892
▁nomination	-10.4892
▁transmitted	-10.4894
▁bond	-10.4896
wo	-10.4897
▁permitted	-10.4899
▁catch	-10.49
▁relatives	-10.4903
thursday	-10.4905
▁grown	-10.4909
▁holds	-10.4912
▁demonstration	-10.4917
▁eye	-10.4918
▁australian	-10.492
hour	-10.4926
▁retain	-10.4926
▁restricted	-10.4929
▁ching	-10.4929
▁lived	-10.4945
▁respected	-10.4951
▁flag	-10.4954
▁interpret	-10.4956
▁ordered	-10.4963
▁deterioration	-10.4965
▁satisfactory	-10.4965
▁blue	-10.4965
▁worst	-10.4965
▁herzegovina	-10.4971
▁aims	-10.4975
90	-10.4996
▁topics	-10.4997
▁kam	-10.4998
▁prohibited	-10.4998
bur	-10.4999
96	-10.5005
▁han	-10.5022
▁ec	-10.5026
▁possess	-10.5034
▁supplement	-10.5036
▁bangladesh	-10.5038
▁equity	-10.5038
▁jordan	-10.5038
▁legislature	-10.5038
▁manifest	-10.5038
▁repatriation	-10.5038
▁assigned	-10.5038
▁consent	-10.5038
▁blow	-10.5039
▁input	-10.5039
▁brand	-10.504
▁1987	-10.5041
▁generated	-10.5054
78	-10.506
▁proliferation	-10.5062
▁spoke	-10.5068
▁constitutes	-10.5082
▁conclusions	-10.5083
66	-10.5087
▁towns	-10.5092
▁thursday	-10.5098
▁baghdad	-10.5111
▁belarus	-10.5111
▁colonial	-10.5111
▁facility	-10.5111
▁narrow	-10.5111
▁yield	-10.5111
▁(3)	-10.5112
▁infant	-10.5113
▁deriv	-10.5119
▁unions	-10.5123
▁substance	-10.5141
rate	-10.5151
▁trends	-10.5159
bre	-10.5165
▁46	-10.5167
▁dan	-10.5168
▁thereby	-10.5168
▁croatia	-10.5176
ept	-10.5177
den	-10.5184
▁biggest	-10.5185
▁embassy	-10.5185
▁incurred	-10.5185
▁drought	-10.5187
▁belonging	-10.5187
▁iii	-10.5188
▁dependent	-10.5189
0%	-10.5192
▁rica	-10.5193
▁acceptance	-10.5194
▁endorsed	-10.5194
▁file	-10.52
▁cater	-10.5202
▁fung	-10.5205
97	-10.5209
▁van	-10.5209
cul	-10.5212
▁offering	-10.5214
head	-10.5215
▁consequence	-10.5217
▁transitional	-10.522
▁cars	-10.5226
▁contractor	-10.5231
tle	-10.5235
▁fired	-10.5235
▁arrive	-10.5238
▁plants	-10.5238
▁150	-10.5256
▁convicted	-10.526
▁equitable	-10.526
▁presidency	-10.526
▁tragic	-10.526
▁labor	-10.526
▁alliance	-10.526
▁penalties	-10.526
▁predict	-10.526
▁foster	-10.5261
▁ball	-10.5261
▁machinery	-10.5261
▁cooperative	-10.5263
▁spain	-10.5265
19	-10.5265
▁buses	-10.5279
▁highway	-10.528
▁acknowledged	-10.5284
▁employee	-10.5294
▁movements	-10.5296
▁height	-10.5297
▁congratulate	-10.5299
▁deliberations	-10.5301
▁proceeding	-10.5318
▁bills	-10.5319
lay	-10.5321
▁flexibility	-10.5335
▁guatemala	-10.5335
▁acceptable	-10.5345
tuesday	-10.5351
september	-10.5351
▁rational	-10.5355
▁cru	-10.536
self	-10.5362
nch	-10.5364
▁game	-10.5375
▁boundary	-10.538
▁constraints	-10.5383
▁iron	-10.5387
▁withdraw	-10.5391
▁cd	-10.5397
ix	-10.5403
▁courage	-10.5411
▁epidemic	-10.5411
▁mandatory	-10.5411
▁outbreak	-10.5411
▁suspension	-10.5411
▁temple	-10.5411
▁heritage	-10.5411
▁elsewhere	-10.5411
▁perpetrators	-10.5412
▁trained	-10.5413
▁lung	-10.5417
▁kung	-10.5418
▁assumed	-10.5436
▁sit	-10.5437
▁opposed	-10.5443
▁interesting	-10.5445
▁bid	-10.5445
▁shape	-10.5446
▁organisation	-10.545
▁selling	-10.5458
sized	-10.5459
▁raising	-10.5463
ria	-10.5471
▁collected	-10.5472
▁licensing	-10.5487
▁salaries	-10.5487
▁saddam	-10.5487
▁sphere	-10.5487
▁storm	-10.5487
og	-10.5489
▁norway	-10.5491
▁capable	-10.5492
lien	-10.5498
class	-10.5505
▁band	-10.5505
▁52	-10.5509
▁tools	-10.5514
▁kai	-10.5517
▁resumed	-10.5518
▁officially	-10.552
▁revenues	-10.554
▁1000000	-10.5542
▁wednesday	-10.5555
▁barriers	-10.5558
▁compulsory	-10.5564
▁productivity	-10.5564
▁convey	-10.5564
▁prefer	-10.5567
▁2006	-10.5567
▁experiences	-10.5577
▁medicines	-10.558
sis	-10.5581
south	-10.5582
▁hsi	-10.5587
▁examined	-10.559
300000	-10.5595
▁confirm	-10.5598
▁restrict	-10.5599
▁fat	-10.5601
▁har	-10.5608
▁bombing	-10.5609
▁fled	-10.5611
▁piece	-10.5617
▁rape	-10.5619
▁mayor	-10.5632
▁gained	-10.564
▁ascertain	-10.5642
▁quantity	-10.5642
▁detainees	-10.5642
▁ancient	-10.5642
▁liquid	-10.5642
▁1985	-10.5642
▁cpi	-10.565
▁roll	-10.5652
▁insufficient	-10.5666
▁fate	-10.5671
rac	-10.569
▁preparations	-10.5692
▁highlighted	-10.5692
▁expresse	-10.5695
▁sections	-10.5697
ict	-10.5714
▁christian	-10.572
▁conducive	-10.572
▁dynamic	-10.572
▁false	-10.572
▁impression	-10.572
▁reinforce	-10.572
▁resumption	-10.572
▁invasion	-10.572
▁mankind	-10.572
▁perfect	-10.572
▁recommend	-10.572
▁migration	-10.5721
▁sitting	-10.5722
▁characterized	-10.5723
▁beaten	-10.5724
▁injury	-10.5724
▁destination	-10.5728
▁smaller	-10.5732
▁occupying	-10.5741
▁treat	-10.5745
▁artist	-10.5748
▁qua	-10.5752
▁tourists	-10.5775
▁techniques	-10.5779
hal	-10.5796
▁grass	-10.5799
▁jintao	-10.5799
▁olympic	-10.5799
▁overwhelming	-10.5799
▁tremendous	-10.5799
▁warrant	-10.5799
rom	-10.58
▁liberalization	-10.58
▁modest	-10.5803
▁possession	-10.5803
▁governmental	-10.5822
▁map	-10.5823
▁clearance	-10.5836
▁operated	-10.5846
▁lai	-10.585
▁apparent	-10.5859
▁commence	-10.586
▁enjoyed	-10.5861
lm	-10.5862
west	-10.5866
▁objects	-10.5872
▁switzerland	-10.5878
▁deceased	-10.5878
▁oppose	-10.5879
▁momentum	-10.5882
▁precisely	-10.5889
▁observations	-10.5899
▁wider	-10.59
▁finds	-10.59
▁friend	-10.5906
01	-10.5907
empt	-10.5915
ended	-10.5917
▁sri	-10.5918
▁wound	-10.592
▁suggestion	-10.5934
▁lastly	-10.5935
▁notification	-10.5941
▁dissemination	-10.5958
▁inclusion	-10.5958
▁royal	-10.5958
▁turkish	-10.5958
▁eradication	-10.5959
▁sister	-10.5961
ook	-10.5962
▁myself	-10.5965
ade	-10.5965
▁hkma	-10.5967
81	-10.5968
rry	-10.5972
▁km	-10.5978
saturday	-10.5979
eous	-10.5979
▁graduates	-10.5989
▁wants	-10.5993
▁exists	-10.5998
▁controlled	-10.6007
▁tree	-10.6008
▁61	-10.6023
yan	-10.6024
▁parent	-10.603
▁communist	-10.6039
▁cyprus	-10.6039
▁explosive	-10.6039
▁innovative	-10.6039
▁cloud	-10.6039
▁departure	-10.6039
▁manufacturers	-10.6041
▁proud	-10.6041
▁pair	-10.6046
▁qualified	-10.6052
700000	-10.6053
▁51	-10.6053
▁indonesian	-10.6062
▁hardly	-10.6063
▁consult	-10.6068
▁appealed	-10.6075
▁pieces	-10.6077
▁risen	-10.6087
▁generations	-10.6088
▁promise	-10.6097
▁describe	-10.6097
▁manage	-10.6104
▁via	-10.6107
▁acknowledge	-10.6107
▁involves	-10.6108
▁letters	-10.6113
▁accommodation	-10.612
▁uniform	-10.612
▁soviet	-10.612
▁crises	-10.612
▁verification	-10.612
▁respondents	-10.612
▁acute	-10.612
▁confine	-10.612
▁transparent	-10.612
▁tsim	-10.612
▁ping	-10.612
▁else	-10.6121
▁lanka	-10.6121
standing	-10.6123
▁replacement	-10.6124
▁hill	-10.6129
▁whenever	-10.6131
▁periodic	-10.6139
income	-10.6142
▁grade	-10.6144
▁58	-10.6157
▁animals	-10.6161
36	-10.6179
▁strive	-10.6181
zi	-10.62
▁journal	-10.6202
▁azerbaijan	-10.6202
▁cabinet	-10.6202
▁utmost	-10.6202
▁pleasure	-10.6202
▁sweden	-10.6202
▁willingness	-10.6204
▁resistance	-10.6204
▁confrontation	-10.6207
▁transformation	-10.6208
▁businessmen	-10.6212
▁voters	-10.6213
18	-10.6214
▁quota	-10.6214
35	-10.6224
▁shu	-10.6227
▁depending	-10.6234
mar	-10.6246
▁condemned	-10.6248
400000	-10.6252
▁permits	-10.626
▁workshops	-10.6268
700	-10.627
▁capabilities	-10.6285
▁clothing	-10.6285
▁commodity	-10.6285
▁club	-10.6285
▁nigeria	-10.6285
▁james	-10.6285
▁window	-10.6286
▁instances	-10.6294
▁pool	-10.6295
▁strictly	-10.6306
▁organiz	-10.6307
▁outline	-10.6308
▁compris	-10.6309
▁alarm	-10.631
▁glo	-10.6317
▁sharing	-10.6319
▁computers	-10.6319
▁recovered	-10.6321
▁terrorists	-10.6327
tech	-10.6327
made	-10.6328
▁argument	-10.6343
rated	-10.6343
▁millions	-10.6345
▁investigate	-10.6345
▁checks	-10.6348
▁accurate	-10.6368
▁helicopter	-10.6368
▁likewise	-10.6368
▁formulation	-10.6369
▁holidays	-10.637
▁attending	-10.6373
▁survival	-10.6374
meter	-10.6394
▁gains	-10.6397
▁trees	-10.64
▁discharge	-10.6414
▁protecting	-10.6422
▁receipts	-10.6423
▁citizen	-10.6428
▁coordinate	-10.6433
▁offenders	-10.6435
59	-10.6437
▁formation	-10.6445
▁cope	-10.6445
▁opera	-10.6446
▁assault	-10.6452
▁biennium	-10.6452
▁composition	-10.6452
▁morocco	-10.6452
▁leisure	-10.6452
▁aviation	-10.6452
▁forget	-10.6453
▁multiple	-10.6453
02	-10.6455
▁passage	-10.6455
▁cook	-10.6456
▁discipline	-10.6458
▁stone	-10.6459
matic	-10.646
▁combined	-10.6462
▁assisted	-10.6462
▁broken	-10.6468
▁metal	-10.6469
isation	-10.6474
▁ties	-10.6474
▁classes	-10.6476
ose	-10.6477
▁busy	-10.6483
000000.	-10.6485
▁factory	-10.6485
▁flights	-10.6489
▁prohibit	-10.6494
▁pattern	-10.6514
▁emb	-10.6517
86	-10.6522
▁distinct	-10.6533
▁asset	-10.6535
▁vocation	-10.6537
▁caught	-10.6537
▁clarification	-10.6537
▁library	-10.6537
▁queen	-10.6537
▁systematic	-10.6537
▁inquiry	-10.6537
▁grew	-10.6539
▁seminars	-10.6542
▁existed	-10.6546
▁basically	-10.6548
▁attempts	-10.6548
▁mixed	-10.6561
▁arm	-10.6563
cp	-10.6573
49	-10.6573
hong	-10.6586
ica	-10.6598
▁advantages	-10.6598
▁mothers	-10.6601
▁advances	-10.662
▁revolution	-10.662
▁affirm	-10.6622
▁worried	-10.6622
▁vary	-10.6631
▁electrical	-10.6636
itu	-10.6638
▁guarantees	-10.6639
▁consistently	-10.6656
right	-10.6659
▁imported	-10.6665
▁internationally	-10.6685
▁saturday	-10.6686
▁accus	-10.6696
kh	-10.6697
▁stall	-10.6699
▁peninsula	-10.6708
▁tolerance	-10.6708
▁armenia	-10.6709
▁coalition	-10.6709
▁transmission	-10.6709
▁capability	-10.6709
▁beaches	-10.6714
▁outer	-10.6716
▁chile	-10.6721
▁projected	-10.6723
▁installed	-10.6725
▁meaningful	-10.6734
▁bail	-10.6734
agency	-10.6736
american	-10.6736
▁productive	-10.6737
trial	-10.674
▁delays	-10.6741
▁ngos	-10.6743
▁ran	-10.6744
▁faith	-10.6746
▁repeat	-10.6756
▁yan	-10.676
▁thorough	-10.6776
▁user	-10.6792
▁negotiating	-10.6795
▁church	-10.6795
▁relax	-10.6795
▁mongolia	-10.6795
▁conservation	-10.6797
▁tenants	-10.6797
21	-10.6798
▁luck	-10.6803
▁clients	-10.6808
▁assisting	-10.6809
▁paris	-10.6813
▁bosnian	-10.6817
pped	-10.682
▁dated	-10.6821
raising	-10.6825
▁prevail	-10.6825
▁liable	-10.6828
▁moderate	-10.6832
▁impose	-10.6861
▁usual	-10.6864
▁pat	-10.6872
▁elect	-10.6873
▁habit	-10.6876
▁contents	-10.6878
▁attacked	-10.6878
▁stocks	-10.688
▁applies	-10.6883
▁custody	-10.6883
▁veto	-10.6883
▁knew	-10.6884
▁halt	-10.6884
500000000	-10.6885
▁migrants	-10.6886
▁briefed	-10.6896
▁favourable	-10.6897
▁soil	-10.6898
▁raw	-10.6898
▁auto	-10.6907
▁accountable	-10.6918
▁recover	-10.6923
jo	-10.6923
▁oh	-10.6924
▁concert	-10.6933
▁nam	-10.6934
▁filled	-10.6939
▁contractors	-10.694
▁serbs	-10.6941
▁prevailing	-10.6941
▁transaction	-10.6957
▁1970	-10.6957
ordinate	-10.6968
▁gratitude	-10.6972
▁surrounding	-10.6972
▁turmoil	-10.6972
▁sleep	-10.6972
▁throw	-10.6972
▁journalists	-10.6972
▁enrolment	-10.6973
▁albanian	-10.6978
para	-10.6983
ibility	-10.6989
▁renewed	-10.7
pacific	-10.7001
▁intensive	-10.7005
▁mong	-10.7018
63	-10.7019
▁falling	-10.7019
▁wa	-10.7019
▁beat	-10.7021
▁launching	-10.7036
▁showing	-10.7044
lv	-10.7049
▁prospect	-10.705
▁organizational	-10.705
▁manager	-10.7053
▁3000	-10.7057
eva	-10.7057
stream	-10.7059
▁compound	-10.7061
▁democratization	-10.7061
▁privilege	-10.7061
▁petition	-10.7061
uring	-10.7062
▁supplementary	-10.7063
▁64	-10.7064
▁kill	-10.7064
▁toward	-10.7067
▁complicated	-10.7068
erial	-10.707
▁fla	-10.7085
ological	-10.7088
depth	-10.7091
▁assessments	-10.7091
ball	-10.7099
▁suspect	-10.71
▁formally	-10.7118
july	-10.7118
▁analyse	-10.7128
▁passing	-10.7133
▁pen	-10.7136
run	-10.7139
▁adult	-10.714
▁stamp	-10.7141
▁heading	-10.7145
▁psych	-10.7151
▁interference	-10.7151
▁kwai	-10.7151
▁terminal	-10.7151
▁yeung	-10.7152
▁utilization	-10.7153
▁balanced	-10.7156
▁liability	-10.7156
▁advocate	-10.7161
▁stamps	-10.7162
known	-10.7177
▁inspections	-10.7182
back	-10.7184
▁posed	-10.7186
▁threatened	-10.7202
io	-10.721
ii	-10.7211
net	-10.7217
▁prompt	-10.7223
▁electric	-10.7224
saharan	-10.7224
clock	-10.7232
▁depart	-10.7238
▁lie	-10.7238
▁austria	-10.7242
▁borrow	-10.7242
▁venture	-10.7242
▁shoes	-10.7242
▁truck	-10.7242
▁gift	-10.7242
▁psychological	-10.7242
▁color	-10.7242
▁properties	-10.7243
▁organize	-10.7245
▁hostage	-10.7247
▁squad	-10.725
▁ministerial	-10.7251
▁ying	-10.727
condition	-10.7274
64	-10.7277
61	-10.7281
▁lend	-10.7281
▁vo	-10.7284
▁10%	-10.7285
▁adjustments	-10.7299
3000000	-10.7299
▁quick	-10.7315
▁remark	-10.7329
▁cat	-10.733
▁sovereign	-10.7332
▁qualification	-10.7334
▁questionnaire	-10.7334
▁decisive	-10.7334
▁dignity	-10.7334
▁john	-10.7334
▁moscow	-10.7334
▁nicaragua	-10.7334
▁registry	-10.7334
▁subsidiary	-10.7334
▁frank	-10.7334
▁married	-10.7334
▁kenya	-10.7334
▁praise	-10.7334
▁concentration	-10.7334
▁consolidation	-10.7334
▁calm	-10.7335
▁1986	-10.7337
▁proof	-10.7338
▁exactly	-10.7344
▁partial	-10.7359
▁gathering	-10.7366
▁pursued	-10.7373
▁kin	-10.7399
▁capita	-10.7399
▁acc	-10.7401
▁define	-10.7404
▁restore	-10.7404
▁enabl	-10.742
▁exceeded	-10.742
▁differ	-10.7423
▁sincere	-10.7426
▁administrator	-10.7426
▁beautiful	-10.7426
▁earthquake	-10.7426
▁imagine	-10.7426
▁prostitution	-10.7426
▁sentiment	-10.7426
▁digital	-10.7426
▁managing	-10.7426
▁arbitration	-10.7427
▁spite	-10.7429
▁lowest	-10.7443
▁gate	-10.7448
▁apparently	-10.7448
▁adjusted	-10.7452
▁flower	-10.7456
▁annan	-10.7471
▁functional	-10.7472
79	-10.7486
coming	-10.7493
▁costa	-10.7495
fac	-10.7495
▁handle	-10.7498
▁younger	-10.7499
600000	-10.7501
▁milita	-10.7519
▁recreation	-10.752
▁beneficial	-10.752
▁credibility	-10.752
▁experiment	-10.752
▁kabul	-10.752
▁league	-10.752
▁steadily	-10.752
▁studied	-10.752
▁neglect	-10.752
▁unido	-10.752
▁ceasefire	-10.752
▁cultivation	-10.7522
form	-10.7524
feng	-10.7524
▁yiu	-10.7526
▁smuggling	-10.7526
▁buyer	-10.753
▁tariff	-10.7533
▁sell	-10.7536
▁assured	-10.7537
▁uphold	-10.7537
▁regardless	-10.7543
▁refers	-10.7547
▁consolidated	-10.7549
▁taxes	-10.7555
▁destroy	-10.7575
▁aside	-10.7583
gue	-10.7584
door	-10.7585
▁initially	-10.7588
▁surely	-10.7591
▁holiday	-10.7611
▁obstacle	-10.7611
▁illness	-10.7612
▁circle	-10.7614
▁commemorat	-10.7614
▁discount	-10.7614
▁entrance	-10.7614
▁sensitive	-10.7614
▁tertiary	-10.7614
▁administering	-10.7614
▁steel	-10.7614
▁solid	-10.7614
▁lessons	-10.7615
▁competent	-10.7618
▁guests	-10.7619
▁films	-10.7624
▁sick	-10.7626
▁devices	-10.7626
▁managers	-10.763
▁prince	-10.763
▁react	-10.7635
▁diamonds	-10.7658
book	-10.7663
▁claimants	-10.7675
▁coal	-10.7684
▁chao	-10.7686
▁compete	-10.7687
▁gradual	-10.769
▁exercised	-10.7694
yi	-10.7699
note	-10.7701
▁instruct	-10.7705
▁attorney	-10.7709
▁attributable	-10.7709
▁curriculum	-10.7709
▁envoy	-10.7709
▁gazette	-10.7709
▁greek	-10.7709
▁mortgage	-10.7709
▁surprising	-10.7709
▁czech	-10.7709
▁slope	-10.7709
▁nepal	-10.7709
▁hardship	-10.7713
▁commencement	-10.7713
▁chow	-10.7714
▁insert	-10.7714
14	-10.7715
▁raid	-10.7715
▁concentrated	-10.773
▁repeated	-10.7733
▁outlined	-10.7735
▁reporters	-10.774
▁urgently	-10.7756
▁colour	-10.7766
▁borne	-10.777
55	-10.7773
▁symbol	-10.7775
▁cuban	-10.7778
▁meal	-10.7783
wan	-10.7785
▁yugoslav	-10.78
▁acquisition	-10.7805
▁assumption	-10.7805
▁pedestrian	-10.7805
▁vicinity	-10.7805
▁instability	-10.7805
▁friendship	-10.7806
▁chiang	-10.7811
▁yau	-10.7814
▁penal	-10.7814
▁hsu	-10.7815
▁convened	-10.7817
12	-10.7827
17	-10.7832
▁fourth	-10.7837
▁discharged	-10.784
▁smes	-10.7842
october	-10.7843
▁whereas	-10.7844
owed	-10.7851
▁attache	-10.7857
▁rejected	-10.7858
▁hosted	-10.7873
mu	-10.7875
cha	-10.789
disciplinary	-10.7902
▁culprit	-10.7902
▁excellency	-10.7902
▁phrase	-10.7902
▁vegetable	-10.7902
▁practis	-10.7902
▁incentive	-10.7903
▁calculation	-10.7904
▁contest	-10.7905
▁meantime	-10.7906
▁disability	-10.7907
▁crew	-10.7907
▁unknown	-10.7907
▁recalled	-10.791
▁rio	-10.7914
▁portion	-10.7917
▁reward	-10.792
▁personally	-10.7921
▁10000	-10.7923
gram	-10.7924
▁coordinated	-10.7929
▁examinations	-10.7932
mark	-10.7938
august	-10.7941
bel	-10.7944
sector	-10.7951
▁headed	-10.7966
▁mobilize	-10.7975
march	-10.7976
▁settle	-10.7979
▁dar	-10.7982
far	-10.7988
lp	-10.7991
▁attracted	-10.7993
▁contracting	-10.7996
▁lane	-10.7996
▁delegates	-10.7998
▁autonomy	-10.8
▁disseminate	-10.8
▁license	-10.8
▁registrar	-10.8
▁smoke	-10.8
▁steer	-10.8001
▁diplomacy	-10.8001
▁bright	-10.8002
▁blame	-10.8003
▁shipping	-10.8003
▁limitations	-10.8003
▁preventing	-10.801
▁correction	-10.801
▁volunteers	-10.8017
▁negotiated	-10.8018
ana	-10.8029
cies	-10.8034
▁chain	-10.8036
december	-10.804
▁hir	-10.8047
71	-10.8048
▁reveal	-10.8061
▁tse	-10.8064
▁friendly	-10.8066
mail	-10.8066
▁voted	-10.8069
▁ultimate	-10.808
33	-10.8082
▁mail	-10.8087
▁damaged	-10.8091
▁exhibit	-10.8096
▁excess	-10.8097
▁admit	-10.8098
▁copy	-10.8099
▁consecutive	-10.8099
▁declining	-10.8099
▁juvenile	-10.8099
▁literature	-10.8099
▁stories	-10.8099
▁zhang	-10.8099
▁racism	-10.8099
▁iaea	-10.81
▁biological	-10.81
▁expir	-10.81
▁freely	-10.8101
▁victory	-10.8103
▁golden	-10.8107
▁prevented	-10.8108
▁unlikely	-10.8111
▁tide	-10.8113
▁tsing	-10.8114
▁suddenly	-10.8116
▁benefited	-10.8131
▁filed	-10.8133
town	-10.814
party	-10.814
▁connected	-10.8142
7000000	-10.8147
▁ling	-10.815
▁demonstrations	-10.8165
44	-10.8166
▁1983	-10.8168
▁consolidate	-10.8181
▁assurance	-10.8199
▁combination	-10.8199
▁flexible	-10.8199
▁readiness	-10.8199
▁reception	-10.8199
▁temporarily	-10.8199
▁canadian	-10.8199
▁determining	-10.8199
▁harmony	-10.8199
▁gdp	-10.82
▁restoration	-10.82
▁xiao	-10.8201
▁declare	-10.8202
▁preservation	-10.8202
▁theatre	-10.8204
▁box	-10.8206
▁talent	-10.8208
▁mao	-10.8212
▁suspects	-10.8213
▁helpful	-10.8219
▁deprived	-10.8219
▁workload	-10.822
▁muslim	-10.8221
28	-10.8224
sheng	-10.8225
▁dispos	-10.8227
▁arguments	-10.823
defence	-10.8241
ware	-10.8255
24	-10.8273
aries	-10.8278
▁slight	-10.8287
▁120	-10.8295
▁magistrate	-10.83
▁pursuit	-10.83
▁rough	-10.83
▁motive	-10.83
▁prevalen	-10.8301
▁diesel	-10.8301
▁separation	-10.8302
▁persistent	-10.8303
▁alert	-10.8305
zu	-10.8307
▁resignation	-10.8307
▁advancement	-10.831
▁weapon	-10.8317
▁yen	-10.8318
▁congolese	-10.8322
▁attempted	-10.8325
▁violated	-10.8327
▁firstly	-10.8335
treatment	-10.8343
"	-10.8343
president	-10.8344
▁600	-10.8347
▁syria	-10.8392
▁beach	-10.8396
▁assignment	-10.8403
▁chronic	-10.8403
▁comfort	-10.8403
▁easier	-10.8403
▁everybody	-10.8403
▁infected	-10.8403
▁lecture	-10.8403
▁shoot	-10.8403
▁embark	-10.8403
▁workforce	-10.8403
▁(4)	-10.8403
▁wild	-10.8403
▁edition	-10.8403
▁rare	-10.8403
ngue	-10.8403
▁competence	-10.8404
▁attributed	-10.8409
▁withdrawn	-10.8417
▁annually	-10.8427
bl	-10.8432
zo	-10.8438
▁practitioners	-10.8438
member	-10.8439
▁meat	-10.8444
current	-10.8447
▁contribut	-10.8447
easing	-10.8452
hood	-10.8455
export	-10.8462
▁funded	-10.8464
▁discover	-10.8467
▁inspect	-10.8471
▁85	-10.8473
600	-10.848
▁associate	-10.8483
▁purchased	-10.8486
▁chin	-10.8489
▁muslims	-10.8497
▁academy	-10.8506
▁chicken	-10.8506
▁kindergarten	-10.8506
▁snow	-10.8506
▁blind	-10.8506
▁reliable	-10.8506
▁virus	-10.8506
▁deemed	-10.8506
▁carrier	-10.8506
▁uncertainty	-10.8506
▁5000	-10.8507
▁label	-10.8507
▁reproductive	-10.8509
▁upgrade	-10.851
▁dry	-10.8512
▁travelling	-10.8514
▁realization	-10.8516
▁expense	-10.8521
▁lawyer	-10.8521
▁introducing	-10.8522
▁permission	-10.8522
▁vis	-10.8526
▁acquired	-10.8528
▁tele	-10.8543
▁incorporated	-10.8543
looking	-10.855
▁concerted	-10.8551
▁requir	-10.8551
ley	-10.8551
▁vol	-10.8555
52	-10.856
▁fatal	-10.8562
▁bru	-10.8564
▁lan	-10.8576
ching	-10.8577
▁format	-10.8584
▁amend	-10.8585
▁consultants	-10.8587
▁generate	-10.8587
▁argue	-10.8587
▁tuesday	-10.8588
▁hui	-10.8599
▁talents	-10.8601
▁somali	-10.8603
▁adjourn	-10.861
▁impartial	-10.861
▁liberation	-10.861
▁unchanged	-10.861
▁equipped	-10.861
▁manual	-10.861
▁breakdown	-10.8611
▁rocket	-10.8611
▁whi	-10.8613
▁sake	-10.8616
▁shops	-10.8619
▁appearance	-10.8621
▁mountains	-10.8622
▁certificates	-10.8623
▁adults	-10.8623
▁eradicate	-10.8626
▁newspaper	-10.8627
▁vessel	-10.8627
▁enacted	-10.8629
▁pure	-10.8631
300	-10.8638
border	-10.8655
▁performing	-10.8655
▁wah	-10.8672
▁appoint	-10.8673
▁guaranteed	-10.8674
▁relates	-10.8683
gan	-10.8684
chen	-10.8695
▁resign	-10.8709
▁complement	-10.8713
▁vietnam	-10.8715
▁alcohol	-10.8715
▁counterfeit	-10.8715
▁afterwards	-10.8715
▁multinational	-10.8716
▁breast	-10.8716
▁classified	-10.8718
▁remarkable	-10.8719
▁industrialized	-10.8722
ility	-10.8726
▁margin	-10.8732
▁coup	-10.8733
▁criticized	-10.874
▁bal	-10.8743
reaching	-10.8746
▁63	-10.8749
▁eco	-10.8754
▁handled	-10.8756
▁2000000	-10.876
effective	-10.876
▁named	-10.8766
6000000	-10.8773
▁fun	-10.8784
▁acquire	-10.8799
▁instructions	-10.88
▁recipients	-10.8812
▁mpf	-10.8815
▁transmit	-10.882
▁accommodate	-10.8821
▁arrears	-10.8821
▁cypriot	-10.8821
▁defeat	-10.8821
▁dinner	-10.8821
▁exhaust	-10.8821
▁journey	-10.8821
▁robbery	-10.8821
▁decree	-10.8821
▁ratified	-10.8821
▁sanitation	-10.8821
▁capture	-10.8821
▁intense	-10.8821
▁unmik	-10.8821
▁ear	-10.8822
▁issuance	-10.8822
▁tokyo	-10.8822
uff	-10.8823
▁heroin	-10.8824
▁qing	-10.8824
▁deadline	-10.8826
▁baby	-10.8826
▁expo	-10.883
▁spa	-10.883
▁exceptional	-10.8835
▁surprised	-10.8842
▁instruction	-10.8848
nom	-10.8849
▁finished	-10.8852
▁announce	-10.8863
november	-10.8869
april	-10.8869
spoke	-10.8872
boundary	-10.8874
▁fighter	-10.8875
48	-10.8878
▁sunday	-10.8881
fil	-10.8893
tergovernmental	-10.8911
75	-10.8911
▁answered	-10.8922
▁dramatic	-10.8928
▁celebration	-10.8929
▁clothes	-10.8929
▁displacement	-10.8929
▁logistics	-10.8929
▁neutral	-10.8929
▁prominent	-10.8929
▁steady	-10.8929
▁plastic	-10.8929
▁donald	-10.8929
▁visible	-10.8929
51	-10.8929
58	-10.8933
▁expanding	-10.8941
▁pig	-10.8943
▁zhu	-10.8943
▁regulate	-10.8945
▁tien	-10.8947
▁gathered	-10.8955
▁consultant	-10.8955
▁customer	-10.8958
▁66	-10.8961
800000	-10.8966
22	-10.8981
▁deter	-10.899
▁substances	-10.8994
▁narcotics	-10.8994
row	-10.8994
41	-10.8997
▁stronger	-10.9
▁depth	-10.9001
hou	-10.9004
▁scholars	-10.9007
bar	-10.9011
▁newspapers	-10.902
▁collaborat	-10.9034
▁hazard	-10.9037
▁description	-10.9038
▁dynasty	-10.9038
▁impetus	-10.9038
▁magazine	-10.9038
▁pupils	-10.9038
▁quantities	-10.9038
▁straight	-10.9038
▁civic	-10.9038
▁folk	-10.9038
▁translation	-10.9038
▁drove	-10.9038
▁exposed	-10.9038
▁subcommittee	-10.9039
▁peru	-10.9039
▁1984	-10.904
%)	-10.904
▁kwan	-10.9041
▁govern	-10.9045
▁slip	-10.9047
▁warned	-10.9049
▁honor	-10.905
▁spoken	-10.9053
▁contributor	-10.9054
▁suppliers	-10.9056
100000000	-10.907
▁players	-10.9077
served	-10.9077
▁upper	-10.9087
▁rock	-10.9102
▁aspirations	-10.9112
mic	-10.9113
16	-10.9116
yin	-10.9132
hung	-10.9136
▁sham	-10.914
▁desirable	-10.9148
▁dwell	-10.9148
▁exclusion	-10.9148
▁foremost	-10.9148
▁sacrifice	-10.9148
▁evil	-10.9148
▁beauty	-10.9148
▁error	-10.9148
▁disappearance	-10.9149
▁winner	-10.9149
▁referring	-10.915
licit	-10.9155
▁deny	-10.916
▁smoking	-10.9164
▁executed	-10.9167
▁del	-10.9172
▁siu	-10.9173
▁patterns	-10.9177
▁applicant	-10.9177
▁ruf	-10.9188
sunday	-10.9199
nuclear	-10.9199
▁formula	-10.92
room	-10.9208
▁mali	-10.9222
iii	-10.9224
▁constituted	-10.9224
▁tau	-10.9232
▁rein	-10.9233
▁sudden	-10.924
▁absolute	-10.924
▁transform	-10.925
hui	-10.9256
▁concluding	-10.9259
▁facilitating	-10.9259
▁insolvency	-10.9259
▁kilograms	-10.9259
▁reputation	-10.9259
▁undoubtedly	-10.9259
▁exacerbat	-10.9259
▁focal	-10.9259
▁keen	-10.9259
▁childhood	-10.9261
▁realistic	-10.9263
▁removal	-10.9263
▁pull	-10.9266
▁1,000	-10.9269
▁airline	-10.9272
▁reverse	-10.9272
▁puer	-10.9277
05	-10.9277
▁distinguished	-10.9283
▁logic	-10.9286
▁holders	-10.9288
▁hundred	-10.9291
▁broader	-10.9296
▁surge	-10.9297
▁render	-10.9332
▁flee	-10.9333
▁reporter	-10.9355
epd	-10.9356
▁clinics	-10.9366
▁conscious	-10.9371
▁accompany	-10.9371
▁beneficiaries	-10.9371
▁craft	-10.9371
▁hostilities	-10.9371
▁junction	-10.9371
▁parallel	-10.9371
▁valley	-10.9371
▁venezuela	-10.9371
▁boundaries	-10.9371
▁diverse	-10.9372
▁wake	-10.9383
▁trace	-10.9387
cho	-10.9388
▁50%	-10.9392
▁relate	-10.9395
▁doesn	-10.9395
▁roc	-10.9395
▁rwandan	-10.9407
▁pledged	-10.9407
▁continuously	-10.9409
place	-10.941
▁dam	-10.9415
commission	-10.9426
38	-10.9435
▁feed	-10.944
26	-10.9444
metre	-10.945
▁mei	-10.9454
▁par	-10.9467
car	-10.9468
ought	-10.9473
▁eve	-10.9476
▁cluster	-10.9485
▁disadvantage	-10.9485
▁forgotten	-10.9485
▁phoenix	-10.9485
▁possibilities	-10.9485
▁poultry	-10.9485
▁treasure	-10.9485
▁vacancies	-10.9485
▁vacancy	-10.9485
▁whereabouts	-10.9485
▁advertise	-10.9485
▁disagree	-10.9485
▁tunisia	-10.9485
▁forthcoming	-10.9485
▁ferry	-10.9485
▁entertainment	-10.9486
▁communicate	-10.9486
▁unacceptable	-10.9487
pin	-10.9498
▁arranged	-10.9502
▁exclusively	-10.9502
▁occupational	-10.9514
▁angolan	-10.9517
▁smoothly	-10.9518
▁opt	-10.9521
400	-10.9536
kwong	-10.954
how	-10.9542
▁hua	-10.9542
▁1960	-10.9548
▁adequately	-10.9564
▁pop	-10.9569
bat	-10.9569
47	-10.9573
▁surprise	-10.9577
▁earned	-10.9581
▁pot	-10.9597
56	-10.9599
▁condolences	-10.96
▁continuation	-10.96
▁kashmir	-10.96
▁necessity	-10.96
▁recognise	-10.96
▁tobacco	-10.96
▁denmark	-10.96
▁exposure	-10.96
▁tropical	-10.96
▁glad	-10.96
▁martin	-10.96
▁stick	-10.96
▁salt	-10.9601
▁mainstream	-10.9602
sembl	-10.9607
▁reflection	-10.9619
▁survive	-10.9623
wah	-10.9631
▁alleviate	-10.9631
▁quo	-10.9633
▁tak	-10.9635
▁receipt	-10.9639
▁thousand	-10.964
▁meters	-10.964
13	-10.9641
▁84	-10.9649
list	-10.9651
50000000	-10.9652
election	-10.9656
▁lok	-10.9679
▁hub	-10.9692
5000	-10.97
seekers	-10.9706
ordination	-10.9712
operative	-10.9712
03	-10.9715
▁clarify	-10.9716
▁certification	-10.9716
▁frequency	-10.9716
▁obliged	-10.9716
▁politician	-10.9716
▁pregnancy	-10.9716
▁sewage	-10.9716
mortem	-10.9716
▁unfair	-10.9716
▁inmates	-10.9716
▁namibia	-10.9716
▁auction	-10.9716
▁tonight	-10.9717
▁fellow	-10.9717
▁earnings	-10.9719
▁justification	-10.9725
▁delayed	-10.9726
▁justified	-10.9728
▁evolution	-10.9729
ologist	-10.9741
▁exit	-10.9747
▁soft	-10.9758
▁payable	-10.9761
▁ranging	-10.9771
▁bag	-10.9774
▁responding	-10.9785
▁lending	-10.979
▁chaired	-10.9791
tern	-10.9792
▁(1	-10.9794
date	-10.9803
62	-10.9815
▁foreigners	-10.9815
▁polling	-10.9822
▁exploit	-10.9829
▁memorandum	-10.9834
▁portfolio	-10.9834
▁pursuing	-10.9834
▁surveillance	-10.9834
▁dozen	-10.9834
▁inherent	-10.9834
▁wholesale	-10.9834
▁shopping	-10.9835
▁adhere	-10.9835
▁factions	-10.9835
▁everywhere	-10.9836
▁detection	-10.9837
▁lease	-10.9837
▁pride	-10.9837
▁thin	-10.9837
▁score	-10.984
▁evaluate	-10.9842
▁enjoyment	-10.985
▁essentially	-10.9851
▁croatian	-10.9851
▁settled	-10.9861
▁utilized	-10.9862
▁encountered	-10.9862
▁feet	-10.9866
300000000	-10.9872
82	-10.9873
▁noise	-10.9891
week	-10.9893
uch	-10.9895
payment	-10.9895
train	-10.9909
▁abandon	-10.9913
▁commonly	-10.9918
0000000000	-10.992
▁95	-10.9925
worthy	-10.9928
4000000	-10.9928
▁terror	-10.9946
▁pun	-10.9951
▁adolescent	-10.9953
▁commonwealth	-10.9953
▁dragon	-10.9953
▁macedonia	-10.9953
▁maternal	-10.9953
▁nobody	-10.9953
▁possibly	-10.9953
▁relevance	-10.9953
▁creative	-10.9953
garet	-10.9953
▁quiet	-10.9953
▁transnational	-10.9953
▁novel	-10.9954
chang	-10.9954
▁winning	-10.9954
▁comparative	-10.9957
▁mining	-10.9961
▁nearby	-10.9961
saving	-10.9964
▁farming	-10.9971
▁skill	-10.9981
▁82	-10.9983
▁cool	-10.9988
▁rendered	-10.9994
▁providers	-11
▁sport	-11.0008
▁72	-11.001
school	-11.0013
ethnic	-11.0013
direct	-11.0019
eastern	-11.0019
▁recruit	-11.0031
▁stipulat	-11.0034
some	-11.0038
▁minute	-11.0044
▁ecuador	-11.0073
▁entrusted	-11.0073
▁genocide	-11.0073
▁inevitably	-11.0073
▁magnitude	-11.0073
▁nonetheless	-11.0073
▁replied	-11.0073
▁subprogramme	-11.0073
▁swimming	-11.0073
▁memory	-11.0073
▁opium	-11.0073
▁outlook	-11.0073
▁zambia	-11.0073
▁supervisor	-11.0073
▁bulk	-11.0073
▁fortune	-11.0073
▁indiscriminate	-11.0073
▁greet	-11.0073
▁prescribed	-11.0075
reliance	-11.0076
▁1982	-11.0077
▁linkage	-11.0077
▁utilit	-11.0077
▁honest	-11.0078
29	-11.008
▁debtor	-11.0081
▁faster	-11.0094
ky	-11.01
▁nan	-11.0101
▁detected	-11.0104
▁bio	-11.0118
▁watching	-11.0119
▁strait	-11.0126
china	-11.0127
▁solved	-11.0134
▁chat	-11.0135
▁resolv	-11.0138
▁separately	-11.0149
▁62	-11.015
▁renew	-11.0153
76	-11.0167
▁guided	-11.0174
▁formulate	-11.0174
▁exclusive	-11.0176
46	-11.0183
▁interviewed	-11.0185
combatants	-11.0189
chairmen	-11.0194
▁advertising	-11.0195
▁bahrain	-11.0195
▁explicit	-11.0195
▁firearms	-11.0195
▁portugal	-11.0195
▁precaution	-11.0195
▁refrain	-11.0195
▁remuneration	-11.0195
▁wrote	-11.0195
▁david	-11.0195
▁pillar	-11.0195
▁thereafter	-11.0195
▁cairo	-11.0195
▁tonnes	-11.0195
▁brutal	-11.0195
▁panama	-11.0195
▁vietnamese	-11.0196
▁kmt	-11.0214
▁formulated	-11.022
▁mounted	-11.0225
▁luna	-11.0239
commerce	-11.0259
held	-11.0261
▁semi	-11.0262
omic	-11.0269
wei	-11.0281
▁lock	-11.0292
▁negotiate	-11.0296
▁assure	-11.0301
▁chart	-11.0312
▁bulgaria	-11.0318
▁clashes	-11.0318
▁imbalance	-11.0318
▁scourge	-11.0318
▁twice	-11.0318
▁hamper	-11.0318
▁convert	-11.0319
▁harmoniz	-11.0319
▁strange	-11.032
▁motherland	-11.0322
▁1979	-11.0323
37	-11.0323
▁haitian	-11.0324
under	-11.0329
sect	-11.033
shore	-11.0333
▁alter	-11.0342
▁mini	-11.0345
▁argued	-11.0345
▁restored	-11.0349
23	-11.0363
▁pin	-11.0365
▁commenced	-11.0367
▁consulted	-11.0379
▁frame	-11.0384
▁amongst	-11.0389
contribut	-11.0393
▁connect	-11.0401
aged	-11.041
▁71	-11.0422
▁complain	-11.0423
bil	-11.0424
▁devastating	-11.0443
▁diminish	-11.0443
▁exemption	-11.0443
▁indebted	-11.0443
▁kazakhstan	-11.0443
▁regrettably	-11.0443
▁reimbursement	-11.0443
▁treasury	-11.0443
▁switch	-11.0443
▁hongkong	-11.0443
▁isolated	-11.0444
▁nurse	-11.0444
▁judgment	-11.0445
▁triad	-11.0446
▁mobilization	-11.0446
▁factories	-11.0449
▁poland	-11.0451
▁curb	-11.0453
▁homeland	-11.0454
▁restraint	-11.0455
lc	-11.0456
▁complexity	-11.0457
▁disclosed	-11.0458
▁translated	-11.0459
▁peter	-11.0476
▁driven	-11.0501
minister	-11.0511
▁cable	-11.0515
▁chun	-11.0516
ranging	-11.0526
organi	-11.0526
100	-11.0527
▁deploy	-11.0528
rum	-11.0536
▁elaborate	-11.0537
▁unfortunate	-11.0551
chuan	-11.0555
case	-11.0561
▁59	-11.0563
▁financed	-11.0564
▁notwithstanding	-11.057
▁perception	-11.057
▁suspicious	-11.057
▁distort	-11.057
▁interaction	-11.057
▁kidnap	-11.057
▁poison	-11.057
▁unlawful	-11.057
▁endanger	-11.057
▁cited	-11.057
▁subregional	-11.0579
▁broaden	-11.059
▁promptly	-11.0597
▁crown	-11.0618
van	-11.0629
▁animal	-11.0634
pm	-11.0635
patient	-11.0638
▁emotional	-11.0649
vian	-11.0663
▁surviv	-11.0663
▁commended	-11.0672
▁investing	-11.0677
▁deliberate	-11.0679
▁traditionally	-11.0685
▁flooding	-11.0692
▁illustrate	-11.0695
▁christmas	-11.0698
▁conjunction	-11.0698
▁earliest	-11.0698
▁privatization	-11.0698
▁tajikistan	-11.0698
▁trigger	-11.0698
▁unanimous	-11.0698
▁yellow	-11.0698
▁fifth	-11.0698
▁shadow	-11.0698
▁stolen	-11.0698
▁enrich	-11.0698
▁undcp	-11.0698
▁oios	-11.0698
▁intent	-11.0699
▁lunch	-11.07
▁rmb	-11.0704
▁viet	-11.0704
▁proven	-11.0725
▁eliminated	-11.0741
power	-11.0765
january	-11.0768
controlled	-11.0769
31	-11.0777
▁displayed	-11.0798
▁kit	-11.0808
▁resist	-11.081
yang	-11.0811
▁76	-11.0824
▁nutrition	-11.0828
▁promulgat	-11.0828
▁aggravate	-11.0828
▁composed	-11.0828
▁demonstrators	-11.0828
▁extradition	-11.0828
▁feasibility	-11.0828
▁fragile	-11.0828
▁indispensable	-11.0828
▁prosperous	-11.0828
▁salvador	-11.0828
▁speculation	-11.0828
▁inaugura	-11.0828
▁abd	-11.0828
▁orbit	-11.0828
▁jump	-11.0831
▁intervene	-11.0831
▁sky	-11.0832
▁tight	-11.0832
▁stepped	-11.0832
▁neck	-11.0833
▁kick	-11.0833
900000	-11.0834
▁fever	-11.0837
▁bin	-11.0838
▁finalized	-11.0838
▁attendance	-11.0841
▁gang	-11.0846
▁camera	-11.0848
▁jia	-11.0853
▁uk	-11.0858
▁sharply	-11.0866
▁row	-11.087
▁accede	-11.0888
▁diamond	-11.0899
frame	-11.09
field	-11.09
group	-11.09
added	-11.0901
with	-11.0909
▁shek	-11.0915
▁relie	-11.0925
▁tall	-11.0936
exist	-11.0944
amp	-11.0946
▁74	-11.0957
▁pharmaceutical	-11.096
▁editor	-11.096
▁emergence	-11.096
▁enemy	-11.096
▁greece	-11.096
▁junior	-11.096
▁kwok	-11.096
▁orchestra	-11.096
▁tanzania	-11.096
▁typhoon	-11.096
▁precious	-11.096
▁underlined	-11.096
▁disappointed	-11.0961
▁coordinating	-11.0961
▁asean	-11.0961
▁hague	-11.0962
▁classification	-11.0962
▁municipalities	-11.0962
▁plight	-11.0965
▁pack	-11.0968
▁50000	-11.0972
▁mosquito	-11.0977
▁deepen	-11.098
▁arabic	-11.0982
zz	-11.0982
▁successive	-11.0983
200000000	-11.0988
▁sheet	-11.1016
▁secured	-11.1024
▁kwong	-11.1029
permanent	-11.1033
security	-11.1033
▁kim	-11.1038
▁hsin	-11.1051
▁await	-11.1093
▁abortion	-11.1093
▁belgium	-11.1093
▁kaohsiung	-11.1093
▁struck	-11.1093
▁glass	-11.1093
▁officiat	-11.1093
▁imposition	-11.1093
▁opposite	-11.1093
▁plus	-11.1093
▁pearl	-11.1093
▁fraud	-11.1094
▁preferred	-11.1094
▁1976	-11.1097
▁carries	-11.1097
▁fred	-11.1103
lab	-11.1111
chan	-11.1118
▁habitat	-11.113
▁stipulated	-11.1136
4%	-11.1149
food	-11.1168
▁mix	-11.1201
▁approve	-11.1206
▁organis	-11.1218
▁consume	-11.1221
▁emerge	-11.1224
ography	-11.1228
▁entail	-11.1228
▁gambling	-11.1228
▁cigarette	-11.1228
▁discretion	-11.1228
▁disregard	-11.1228
▁generous	-11.1228
▁intensified	-11.1228
▁liberty	-11.1228
▁lusaka	-11.1228
▁pregnant	-11.1228
▁premium	-11.1228
▁rainfall	-11.1228
▁twenty	-11.1228
▁wisdom	-11.1228
▁excuse	-11.1228
▁unfpa	-11.1228
▁domain	-11.1228
▁spouse	-11.1228
▁entity	-11.1228
▁indirectly	-11.1229
▁drainage	-11.1229
▁classroom	-11.1229
▁readily	-11.123
▁downturn	-11.123
▁interfere	-11.1231
▁attractive	-11.1236
▁realities	-11.1236
▁83	-11.1241
▁excluded	-11.1242
▁skin	-11.1244
▁dare	-11.1244
▁sorry	-11.1246
▁hunger	-11.1247
▁graduated	-11.125
▁enforced	-11.1251
visual	-11.1253
▁calculated	-11.1253
▁thoroughly	-11.1258
▁succession	-11.1267
43	-11.127
▁ignored	-11.1275
interpretation	-11.1281
8000000	-11.1288
▁wine	-11.129
▁originat	-11.1294
▁slowly	-11.1299
committee	-11.1304
strait	-11.1306
▁restriction	-11.1317
▁construct	-11.132
▁alarming	-11.1323
▁finish	-11.1326
▁enforce	-11.1339
▁update	-11.1355
▁optim	-11.1365
▁entrepreneurs	-11.1365
▁satisfy	-11.1365
▁crack	-11.1365
▁expensive	-11.1365
▁feasible	-11.1365
▁guangzhou	-11.1365
▁impunity	-11.1365
▁indictment	-11.1365
▁integral	-11.1365
▁lebanese	-11.1365
▁situated	-11.1365
▁souvenir	-11.1365
▁taught	-11.1365
▁uruguay	-11.1365
▁climb	-11.1365
▁essence	-11.1365
▁breath	-11.1365
▁tactic	-11.1365
▁scholarship	-11.1365
▁toilet	-11.1366
▁bought	-11.1366
▁choi	-11.1367
▁accomplishment	-11.1367
▁preference	-11.1367
▁delta	-11.1368
qi	-11.1376
2000000	-11.1377
roots	-11.1377
09	-11.1378
▁postponed	-11.138
▁reside	-11.1383
6%	-11.1389
yuan	-11.1397
▁analysed	-11.14
npt	-11.1402
▁constructed	-11.1404
▁printing	-11.1412
▁appreciated	-11.143
▁preserv	-11.1432
▁retained	-11.144
dom	-11.1448
odd	-11.1456
national	-11.146
▁adjust	-11.1462
▁graduate	-11.1467
9000000	-11.1482
▁precise	-11.1485
▁lifting	-11.1498
▁compensat	-11.15
▁empower	-11.1502
▁arbitra	-11.1502
▁abolition	-11.1504
▁ammunition	-11.1504
▁constituency	-11.1504
▁contemporary	-11.1504
▁emergencies	-11.1504
▁piracy	-11.1504
▁prejudice	-11.1504
▁spokesperson	-11.1504
▁stretch	-11.1504
▁symptom	-11.1504
▁verify	-11.1504
▁emperor	-11.1504
▁kwun	-11.1504
▁imposing	-11.1504
▁boost	-11.1504
▁ltd	-11.1504
▁sponsored	-11.1505
aligned	-11.1505
▁conformity	-11.1506
▁sme	-11.1507
▁harmful	-11.1507
▁drew	-11.1508
▁princess	-11.151
▁2007	-11.151
▁auditors	-11.151
▁libyan	-11.151
▁wise	-11.1511
▁herself	-11.1512
▁nato	-11.1523
▁mouth	-11.1527
▁joy	-11.1529
▁110	-11.1534
▁confronted	-11.1538
▁recruited	-11.1549
▁painful	-11.1556
▁ngo	-11.1557
▁maybe	-11.1575
▁romania	-11.1578
charge	-11.1583
▁subscribe	-11.1585
friendly	-11.1585
jung	-11.1593
pay	-11.1596
▁rush	-11.1609
39	-11.1619
▁marginal	-11.1619
▁absorb	-11.1645
▁consultancy	-11.1645
▁crash	-11.1645
▁escort	-11.1645
▁exploration	-11.1645
▁harmonious	-11.1645
▁moratorium	-11.1645
▁occurrence	-11.1645
▁prerequisite	-11.1645
▁referendum	-11.1645
▁subsidies	-11.1645
▁verbal	-11.1645
▁massacre	-11.1645
▁empty	-11.1645
▁enactment	-11.1647
▁serbian	-11.1648
▁counselling	-11.1649
▁upgrading	-11.1649
▁accessible	-11.1652
▁tied	-11.1652
▁complainant	-11.1653
42	-11.1654
▁burst	-11.1657
▁xu	-11.1657
▁integrate	-11.1657
▁apartment	-11.1658
sessional	-11.1659
▁everyday	-11.166
▁fao	-11.1664
▁enhancement	-11.1666
▁printed	-11.1678
▁weigh	-11.168
▁promised	-11.1684
▁mor	-11.1703
▁economically	-11.1714
▁indicat	-11.1721
appointment	-11.1728
▁bro	-11.1734
position	-11.1748
▁accelerate	-11.1765
metric	-11.1781
▁span	-11.1783
▁remedi	-11.1783
▁abstain	-11.1788
▁lantau	-11.1788
▁tendency	-11.1788
▁unusual	-11.1788
▁volatile	-11.1788
▁estonia	-11.1788
▁binding	-11.1788
▁inviting	-11.1788
▁italian	-11.1788
▁refine	-11.1788
▁degradation	-11.1789
▁dress	-11.179
▁recourse	-11.1792
▁weekend	-11.1794
▁villagers	-11.1796
▁harvest	-11.1798
▁edge	-11.1798
▁plain	-11.1799
▁bureaux	-11.1805
▁branches	-11.1807
▁servicing	-11.1809
gged	-11.1822
▁tun	-11.1866
employment	-11.1868
▁reaffirmed	-11.1872
8000	-11.1894
▁lei	-11.1913
▁sand	-11.1914
▁ski	-11.1921
▁subregion	-11.1924
600000000	-11.1932
▁ambulance	-11.1933
▁appropriation	-11.1933
▁arriving	-11.1933
▁divorce	-11.1933
▁enquiry	-11.1933
▁philosophy	-11.1933
▁replies	-11.1933
▁robust	-11.1933
▁subsistence	-11.1933
▁virtue	-11.1933
▁coincide	-11.1933
▁macau	-11.1933
▁meteorolog	-11.1933
generating	-11.1933
▁congratulations	-11.1933
▁contractual	-11.1933
▁corner	-11.1933
▁annum	-11.1933
▁cssa	-11.1933
▁optimistic	-11.1933
▁contradiction	-11.1935
▁illustrat	-11.1937
▁scar	-11.1938
range	-11.1946
▁weaken	-11.1948
item	-11.1953
▁accomplished	-11.1958
▁pri	-11.1965
▁abolished	-11.197
▁upward	-11.197
400000000	-11.197
▁abandoned	-11.1981
▁20%	-11.1982
▁geo	-11.2008
27	-11.2011
operate	-11.2018
first	-11.202
▁plac	-11.2022
▁teach	-11.2022
▁dump	-11.2056
▁kar	-11.2065
▁albania	-11.2069
▁worship	-11.2077
▁mtr	-11.2077
▁adjudicat	-11.208
▁predecessor	-11.208
▁congestion	-11.208
▁franchise	-11.208
▁inappropriate	-11.208
▁laboratory	-11.208
▁nowadays	-11.208
▁respirator	-11.208
▁silence	-11.208
▁subsidy	-11.208
▁vulnerability	-11.208
▁england	-11.208
▁jean	-11.208
▁zero	-11.208
▁horse	-11.208
▁automatically	-11.2081
▁methodology	-11.2082
▁dramatically	-11.2082
▁councillor	-11.2083
100000	-11.2083
▁unpaid	-11.2083
▁harsh	-11.2084
▁exert	-11.2084
▁offset	-11.2086
▁1978	-11.2086
▁guid	-11.2088
▁oau	-11.2089
▁artistic	-11.2089
▁victoria	-11.2096
▁poorest	-11.2101
▁0.1	-11.2102
▁encouragement	-11.2104
▁timetable	-11.2111
▁cutting	-11.2128
establish	-11.213
▁peng	-11.2144
▁enthusiastic	-11.2157
▁addresses	-11.2169
conflict	-11.2169
drug	-11.2169
speaking	-11.2169
▁reservation	-11.2186
but	-11.2196
▁arrange	-11.2203
▁supportive	-11.2204
than	-11.2221
▁advocacy	-11.2229
▁benchmark	-11.2229
▁constituencies	-11.2229
▁continual	-11.2229
▁fabric	-11.2229
▁harassment	-11.2229
▁investigator	-11.2229
▁maternity	-11.2229
▁observance	-11.2229
▁procedural	-11.2229
▁slogan	-11.2229
▁2000-2001	-11.2229
▁unesco	-11.2229
▁solving	-11.2229
▁conservative	-11.2229
▁tough	-11.2229
▁medal	-11.223
▁checkpoint	-11.223
▁extraordinary	-11.2231
▁sat	-11.2234
▁mtrc	-11.2239
▁stem	-11.2242
▁fairness	-11.2243
stop	-11.2247
▁incorporate	-11.2249
▁alive	-11.2252
▁circulated	-11.2252
▁rarely	-11.2257
▁speeches	-11.2267
▁developers	-11.2272
▁shut	-11.2282
▁regulated	-11.2291
▁pier	-11.2302
▁dab	-11.231
▁detect	-11.2338
▁soldier	-11.2341
▁committ	-11.2345
▁makers	-11.2349
04	-11.2363
▁destin	-11.2365
new	-11.2374
▁concentrate	-11.2375
▁accuracy	-11.238
▁conversion	-11.238
▁escalation	-11.238
▁expeditious	-11.238
▁frustration	-11.238
▁literacy	-11.238
▁offensive	-11.238
▁syndicate	-11.238
▁urgency	-11.238
▁vaccine	-11.238
▁varied	-11.238
▁malaria	-11.238
▁surrender	-11.238
▁convening	-11.2381
▁delighted	-11.2381
▁profile	-11.2381
▁tsai	-11.2381
▁programming	-11.2382
▁timing	-11.2383
▁terminate	-11.2383
▁complementary	-11.2383
▁suppression	-11.2384
▁underground	-11.2388
▁engagement	-11.2388
▁decent	-11.2393
▁rome	-11.2393
▁plead	-11.2395
▁accumulated	-11.2395
▁rating	-11.2402
▁1.5	-11.2406
▁taxation	-11.2416
▁roman	-11.2417
▁prosecuted	-11.2417
minded	-11.2419
▁comparable	-11.2419
▁outset	-11.2421
▁desired	-11.2437
▁traders	-11.2439
54	-11.2466
▁jin	-11.2471
turn	-11.2472
february	-11.2475
▁luk	-11.2475
▁abolish	-11.2495
scribed	-11.2509
▁divide	-11.2511
elect	-11.2513
▁rear	-11.2515
▁vigorous	-11.2515
▁automatic	-11.2533
exploded	-11.2534
▁adjacent	-11.2534
▁bottom	-11.2534
▁convenient	-11.2534
▁faculty	-11.2534
▁inevitable	-11.2534
▁intensify	-11.2534
▁jamaica	-11.2534
▁malnutrition	-11.2534
▁prudent	-11.2534
▁avenue	-11.2534
▁zaire	-11.2534
▁dispatch	-11.2534
▁prolonged	-11.2534
▁centuries	-11.2534
▁corps	-11.2534
▁shortcomings	-11.2534
▁tanks	-11.2535
▁returnees	-11.2535
▁arbitrary	-11.2536
▁crude	-11.2537
▁mineral	-11.2538
▁leong	-11.2538
▁elementary	-11.254
▁southeast	-11.2545
▁taste	-11.255
uous	-11.2555
▁fruitful	-11.2556
▁chien	-11.2557
▁liberian	-11.2565
▁controlling	-11.2566
▁ignore	-11.2569
▁continental	-11.2588
▁underway	-11.2606
▁deleted	-11.2618
▁owe	-11.262
intensive	-11.2631
▁correspond	-11.2631
where	-11.2642
▁pet	-11.2669
established	-11.2672
▁uncertain	-11.2689
▁abkhaz	-11.2691
▁convenience	-11.2691
▁curfew	-11.2691
▁currencies	-11.2691
▁dedication	-11.2691
▁destabiliz	-11.2691
▁engaging	-11.2691
▁equat	-11.2691
▁furniture	-11.2691
▁ministries	-11.2691
▁radiation	-11.2691
▁sophisticated	-11.2691
▁supposed	-11.2691
▁sympathy	-11.2691
▁threshold	-11.2691
▁jeopardiz	-11.2691
▁sugar	-11.2691
▁atlantic	-11.2691
▁gulf	-11.2691
▁prestig	-11.2691
▁superior	-11.2691
▁inventory	-11.2691
▁reopen	-11.2691
▁anxious	-11.2691
▁abode	-11.2691
▁pertain	-11.2691
▁copyright	-11.2691
▁motorists	-11.2692
-1997	-11.2692
▁scarce	-11.2693
▁simultaneously	-11.2698
▁relieve	-11.2698
▁authorization	-11.2702
mulating	-11.2708
▁countryside	-11.2712
▁mill	-11.2713
▁investigated	-11.2733
▁trainees	-11.2735
▁pakistani	-11.2755
▁planet	-11.2761
finding	-11.279
british	-11.279
▁confront	-11.2802
▁encounter	-11.281
▁suspend	-11.281
tude	-11.2826
▁0.2	-11.2826
▁prof	-11.2837
▁cry	-11.2841
▁altogether	-11.2849
▁cancelled	-11.2849
▁confiscated	-11.2849
▁expectancy	-11.2849
▁impressive	-11.2849
▁purchasing	-11.2849
▁reintegration	-11.2849
▁remedy	-11.2849
▁resolute	-11.2849
▁unexpected	-11.2849
▁worries	-11.2849
▁athlete	-11.2849
▁landscape	-11.2849
▁persuade	-11.2849
▁belgrade	-11.2849
▁summarize	-11.2849
▁milk	-11.2849
▁confidential	-11.2849
▁thick	-11.2849
▁wales	-11.2851
▁sustainability	-11.2851
▁electors	-11.2852
▁thai	-11.2857
▁nominated	-11.2859
▁downward	-11.286
▁jet	-11.2862
▁workplace	-11.2862
▁70%	-11.2864
▁disappeared	-11.2872
▁accelerated	-11.2875
▁openness	-11.2882
▁seriousness	-11.2889
▁criticiz	-11.2903
▁fleet	-11.2904
▁lion	-11.2933
▁kuwaiti	-11.2943
▁prosecut	-11.2945
profit	-11.2951
media	-11.2954
▁utiliz	-11.2968
▁mount	-11.2975
▁successor	-11.2987
▁initiate	-11.2988
800000000	-11.2988
ola	-11.2991
serving	-11.2996
▁suppress	-11.3007
▁clarified	-11.3011
▁evolve	-11.3011
▁immense	-11.3011
▁kilometers	-11.3011
▁magistracy	-11.3011
▁modalities	-11.3011
▁petroleum	-11.3011
▁premature	-11.3011
▁pretext	-11.3011
▁relocation	-11.3011
▁testimony	-11.3011
▁troupe	-11.3011
▁unrwa	-11.3011
▁humankind	-11.3011
▁swiss	-11.3011
▁rico	-11.3011
▁outlets	-11.3011
▁ecological	-11.3011
▁unops	-11.3011
▁proactive	-11.3012
▁citizenship	-11.3012
▁pipeline	-11.3012
▁tangible	-11.3012
▁fulfilled	-11.3014
hr	-11.3016
▁mpfa	-11.302
▁boxes	-11.3021
▁confirmation	-11.3021
▁deliberately	-11.3035
▁perpetrated	-11.3043
▁sincerely	-11.3044
▁oversee	-11.3065
▁governed	-11.3068
▁emotion	-11.3073
▁gather	-11.3077
1000000	-11.3094
including	-11.3115
country	-11.3115
market	-11.3117
link	-11.3139
▁supplier	-11.3147
▁volunteer	-11.3147
hwa	-11.3149
▁croat	-11.3173
▁detriment	-11.3175
▁legislator	-11.3175
▁aggregate	-11.3175
▁california	-11.3175
▁drastic	-11.3175
▁eliminating	-11.3175
▁illiteracy	-11.3175
▁incumbent	-11.3175
▁lithuania	-11.3175
▁mozambique	-11.3175
▁perceived	-11.3175
▁unnecessary	-11.3175
▁1974	-11.3175
▁administered	-11.3175
▁finland	-11.3175
▁summon	-11.3175
▁sfc	-11.3175
▁albert	-11.3175
▁stake	-11.3175
▁float	-11.3175
▁abide	-11.3175
▁yemen	-11.3177
▁globe	-11.3177
▁endorsement	-11.3177
▁township	-11.3178
▁setback	-11.3182
▁merger	-11.3185
▁freeze	-11.3186
midst	-11.3189
▁chiu	-11.3214
▁pipe	-11.3215
▁layer	-11.3217
verse	-11.3219
plan	-11.3219
talled	-11.3264
void	-11.3281
sharing	-11.3285
hsi	-11.3294
elecommunication	-11.3302
0.5	-11.3309
rong	-11.3314
▁client	-11.3317
▁allocate	-11.3319
▁patriot	-11.3341
▁autonomous	-11.3341
▁confusion	-11.3341
▁contingency	-11.3341
▁immunity	-11.3341
▁legitimacy	-11.3341
▁michael	-11.3341
▁orientation	-11.3341
▁qatar	-11.3341
▁scenario	-11.3341
autumn	-11.3341
▁cessation	-11.3341
▁hinder	-11.3341
▁silver	-11.3341
▁undertook	-11.3341
▁peking	-11.3341
▁spiritual	-11.3341
▁robert	-11.3342
▁osce	-11.3342
▁demobilization	-11.3342
duced	-11.3345
▁preside	-11.3347
▁guam	-11.3349
▁repatriated	-11.3349
▁duck	-11.3354
post	-11.3356
▁attraction	-11.3357
▁belt	-11.3361
▁ethiopian	-11.3371
▁optional	-11.3373
▁dili	-11.3379
chih	-11.3391
▁advocated	-11.3398
▁print	-11.3416
taking	-11.3444
minute	-11.3451
shek	-11.3452
▁alleviat	-11.3464
chun	-11.3471
surge	-11.3476
▁device	-11.3489
▁ticket	-11.3489
▁exact	-11.3495
▁readers	-11.3498
▁unlike	-11.3504
▁assassination	-11.3511
▁brigade	-11.3511
▁conscience	-11.3511
▁corridor	-11.3511
▁encompass	-11.3511
▁experiencing	-11.3511
▁influx	-11.3511
▁kyrgyzstan	-11.3511
▁observatory	-11.3511
▁pollutant	-11.3511
▁recession	-11.3511
▁scientists	-11.3511
▁supplied	-11.3511
▁symposium	-11.3511
▁indefinite	-11.3511
▁sensing	-11.3511
▁imf	-11.3512
▁hazardous	-11.3512
▁precedent	-11.3515
▁anywhere	-11.352
▁deteriorated	-11.3522
▁brain	-11.3525
▁fortunately	-11.3526
locked	-11.3528
▁viable	-11.3529
lessness	-11.353
expend	-11.3531
▁vigorously	-11.3532
▁specialists	-11.3534
▁bold	-11.3536
▁importation	-11.3538
▁30%	-11.3557
kang	-11.3563
:00	-11.357
session	-11.3596
83	-11.3609
72	-11.3611
chairman	-11.3623
discrimination	-11.3625
child	-11.3626
price	-11.3629
▁ration	-11.3657
▁favor	-11.3659
▁indicator	-11.3669
▁fei	-11.3671
step	-11.3672
▁cultivat	-11.3679
▁adherence	-11.3683
▁astronaut	-11.3683
▁caution	-11.3683
▁cornerstone	-11.3683
▁defect	-11.3683
▁diversification	-11.3683
▁evacuation	-11.3683
▁inception	-11.3683
▁intercepted	-11.3683
▁irregular	-11.3683
▁jakarta	-11.3683
▁leaflet	-11.3683
▁stringent	-11.3683
▁substitute	-11.3683
▁variation	-11.3683
curricula	-11.3683
▁fragment	-11.3683
▁implies	-11.3683
▁ohchr	-11.3683
▁packaging	-11.3683
▁zimbabwe	-11.3683
▁streamline	-11.3683
▁entries	-11.3683
▁zoning	-11.3683
▁coach	-11.3683
▁notify	-11.3684
▁interactive	-11.3685
▁impair	-11.3685
▁tired	-11.3687
▁cleansing	-11.3689
risk	-11.3691
▁remedies	-11.3691
▁universality	-11.37
▁arch	-11.3701
▁chest	-11.3708
tou	-11.3726
▁cup	-11.3743
logical	-11.3766
▁1.6	-11.3787
▁10000000	-11.3793
service	-11.3799
section	-11.3806
84	-11.3811
▁distinguish	-11.382
article	-11.3821
▁operator	-11.3843
5,000	-11.3843
communica	-11.3856
▁drama	-11.3857
▁amnesty	-11.3859
▁balkans	-11.3859
▁decolonization	-11.3859
▁disparity	-11.3859
▁fluctuation	-11.3859
▁intimidation	-11.3859
▁palace	-11.3859
▁phenomena	-11.3859
▁spectrum	-11.3859
▁stimulate	-11.3859
▁aroused	-11.3859
▁cautious	-11.3859
▁completing	-11.3859
▁deplore	-11.3859
▁slovak	-11.3859
▁swift	-11.3859
▁forensic	-11.3859
▁minimal	-11.3859
▁bolivia	-11.3859
▁minimize	-11.3859
▁fireworks	-11.3859
▁paramount	-11.3859
▁(2001)	-11.3859
▁embrace	-11.3859
▁radioactive	-11.3859
▁airspace	-11.386
▁customary	-11.386
▁native	-11.3861
▁patent	-11.3862
▁bulletin	-11.3863
▁1975	-11.3864
▁redevelopment	-11.3865
▁roof	-11.3865
▁expectation	-11.3865
▁mediation	-11.387
▁roadside	-11.3871
▁dpp	-11.3872
▁jail	-11.3873
▁condemnation	-11.3875
▁clinical	-11.3877
▁agent	-11.3878
▁moon	-11.3888
fai	-11.392
6000	-11.3928
▁tape	-11.3952
▁injur	-11.4014
▁interrupt	-11.4028
▁bangkok	-11.4037
▁challenging	-11.4037
▁controversy	-11.4037
▁facilitator	-11.4037
▁genetic	-11.4037
▁irrespective	-11.4037
▁juncture	-11.4037
▁nairobi	-11.4037
▁overview	-11.4037
▁petrol	-11.4037
▁refusal	-11.4037
▁routine	-11.4037
▁stadium	-11.4037
▁voluntarily	-11.4037
▁neighbor	-11.4037
▁ambition	-11.4037
▁smart	-11.4037
▁depict	-11.4038
▁secretaries	-11.4038
ozp	-11.4038
▁egyptian	-11.4041
▁loud	-11.4046
▁seng	-11.4056
▁tower	-11.4075
▁tolerate	-11.4102
▁incorporat	-11.4128
▁900	-11.414
huang	-11.4146
official	-11.4159
specific	-11.4159
sub	-11.417
▁optic	-11.4178
▁devote	-11.4196
▁refuge	-11.4199
▁republi	-11.42
▁disrupt	-11.4215
▁maxim	-11.4218
▁cannabis	-11.4219
▁deficiencies	-11.4219
▁examining	-11.4219
▁joseph	-11.4219
▁montenegro	-11.4219
▁motivated	-11.4219
▁reclamation	-11.4219
▁shortfall	-11.4219
▁uzbekistan	-11.4219
▁disorder	-11.4219
▁vicious	-11.4219
▁radical	-11.4219
▁stephen	-11.4219
▁wfp	-11.4219
▁soccer	-11.4219
▁justify	-11.4219
▁ladies	-11.4219
▁inherit	-11.4219
▁regrettable	-11.422
▁marginalized	-11.422
▁hsiao	-11.4221
▁correspondent	-11.4221
▁guest	-11.4221
▁strain	-11.4224
▁1981	-11.4226
▁widening	-11.4228
▁retired	-11.4232
▁paul	-11.4237
▁unep	-11.4247
▁deng	-11.4254
azi	-11.4277
▁laugh	-11.4304
ground	-11.4332
▁advise	-11.4344
makers	-11.4344
▁yam	-11.4372
▁audio	-11.4372
▁sunni	-11.438
▁chose	-11.4395
▁migrant	-11.4398
▁propriet	-11.4404
▁authentic	-11.4404
▁disclosure	-11.4404
▁discriminatory	-11.4404
▁excellence	-11.4404
▁hidden	-11.4404
▁imminent	-11.4404
▁influenza	-11.4404
▁interdependence	-11.4404
▁monument	-11.4404
▁opponents	-11.4404
▁practicable	-11.4404
▁pronounce	-11.4404
▁srpska	-11.4404
▁suspicion	-11.4404
▁antarctic	-11.4404
▁cameroon	-11.4404
▁george	-11.4404
▁intensity	-11.4404
▁teenage	-11.4404
▁macao	-11.4404
▁subsidiz	-11.4404
▁warehouse	-11.4404
▁warfare	-11.4404
▁lobby	-11.4404
▁conceal	-11.4404
▁ceiling	-11.4404
▁underscore	-11.4404
▁fault	-11.4404
▁redress	-11.4404
▁debris	-11.4404
▁isolation	-11.4405
▁slaughter	-11.4406
▁brazilian	-11.4409
▁cheap	-11.4409
▁hurt	-11.441
▁trail	-11.4413
▁80%	-11.4419
▁bitter	-11.4419
▁pap	-11.4449
▁violate	-11.445
▁measur	-11.4474
▁seller	-11.449
lou	-11.4523
borne	-11.4533
▁extract	-11.4553
▁woo	-11.4556
▁eventual	-11.4574
700000000	-11.4576
▁rebuild	-11.459
▁allegation	-11.4591
▁hurricane	-11.4593
▁navigat	-11.4593
▁atrocities	-11.4593
▁cheuk	-11.4593
▁confiscation	-11.4593
▁demographic	-11.4593
▁deterrent	-11.4593
▁duplication	-11.4593
▁eliza	-11.4593
▁enthusiasm	-11.4593
▁fishermen	-11.4593
▁freight	-11.4593
▁mexican	-11.4593
▁milestone	-11.4593
▁fujian	-11.4593
▁hostile	-11.4593
▁undergone	-11.4593
▁smile	-11.4593
▁trauma	-11.4594
▁football	-11.4594
▁instant	-11.4594
▁patten	-11.4594
▁slowdown	-11.4594
▁nationwide	-11.4596
jeou	-11.4596
▁confidentiality	-11.4596
▁1972	-11.4597
▁empowerment	-11.4597
▁2008	-11.4597
▁solicitor	-11.4611
▁hide	-11.4613
▁complexion	-11.4621
kai	-11.4684
photo	-11.4725
▁perpetrat	-11.4745
▁convene	-11.4764
deficiency	-11.4785
▁arusha	-11.4785
▁chernobyl	-11.4785
▁creativity	-11.4785
▁disturbing	-11.4785
▁entitlement	-11.4785
▁handicapped	-11.4785
▁inflicted	-11.4785
▁mechanical	-11.4785
▁motivation	-11.4785
▁promising	-11.4785
▁syndrome	-11.4785
▁vacant	-11.4785
▁homepage	-11.4785
▁knife	-11.4785
▁portuguese	-11.4785
▁wheel	-11.4785
▁dominica	-11.4785
▁livestock	-11.4785
▁modification	-11.4785
▁welcoming	-11.4785
▁textbooks	-11.4785
▁loyal	-11.4785
▁contend	-11.4785
▁latvia	-11.4786
▁carriageway	-11.4786
▁regulat	-11.4787
▁circulation	-11.4788
▁guardian	-11.479
▁hungary	-11.4791
▁yung	-11.4793
▁fulfilment	-11.4796
▁investor	-11.4797
▁critic	-11.4812
▁undu	-11.482
skilled	-11.4825
▁mobiliz	-11.4831
▁separat	-11.4837
▁decid	-11.4845
▁mou	-11.4887
▁roma	-11.49
development	-11.4915
quarter	-11.4922
type	-11.4931
▁depriv	-11.4937
▁combine	-11.4959
▁evaluat	-11.4962
▁infectio	-11.4971
▁champion	-11.4981
▁casual	-11.4981
▁miscellan	-11.4981
▁battalion	-11.4981
▁calendar	-11.4981
▁carnival	-11.4981
▁catastrophe	-11.4981
▁cholera	-11.4981
▁composite	-11.4981
▁fertility	-11.4981
▁mauritius	-11.4981
▁retention	-11.4981
▁thrust	-11.4981
▁uranium	-11.4981
bissau	-11.4981
▁advent	-11.4981
▁cotton	-11.4981
▁batch	-11.4981
▁studio	-11.4981
▁desertification	-11.4982
▁marginalization	-11.4983
▁delegate	-11.4987
▁birthday	-11.4987
▁modernization	-11.4989
▁characteristic	-11.499
erick	-11.4992
▁defenders	-11.4998
▁angle	-11.4999
natal	-11.5007
▁40%	-11.5009
▁ignor	-11.5068
employed	-11.5117
contract	-11.5121
bank	-11.5143
▁endorse	-11.5156
▁disclose	-11.5159
▁ensu	-11.5168
▁clinic	-11.517
▁bullet	-11.5176
▁solicit	-11.5181
▁arafat	-11.5181
▁auspices	-11.5181
▁bottle	-11.5181
▁curtail	-11.5181
▁disappointing	-11.5181
▁irrigation	-11.5181
▁libraries	-11.5181
▁precarious	-11.5181
▁privacy	-11.5181
▁specify	-11.5181
▁mirror	-11.5181
▁peasant	-11.5181
▁abilities	-11.5181
▁mortar	-11.5181
▁penetrat	-11.5181
▁absent	-11.5181
▁kcrc	-11.5181
▁0.7	-11.5181
▁denial	-11.5181
▁breakthrough	-11.5181
▁demining	-11.5182
▁icac	-11.5182
▁nominal	-11.5183
▁surgery	-11.5183
▁lifestyle	-11.5185
▁fought	-11.5185
▁yourself	-11.5186
▁attainment	-11.519
▁passive	-11.5196
▁shin	-11.5198
▁oman	-11.5203
▁fdi	-11.5205
▁ample	-11.521
▁sau	-11.5279
▁integrat	-11.5292
cheng	-11.5321
claim	-11.5325
firm	-11.5327
▁distribute	-11.5363
▁tackl	-11.5368
▁avail	-11.5382
▁custom	-11.5385
▁artillery	-11.5385
▁basket	-11.5385
▁carpark	-11.5385
▁catholic	-11.5385
▁constituent	-11.5385
▁deteriorating	-11.5385
▁exercising	-11.5385
▁mobility	-11.5385
▁repercussions	-11.5385
▁resettlement	-11.5385
▁revival	-11.5385
▁substantiate	-11.5385
▁tuberculosis	-11.5385
▁flagrant	-11.5385
▁dominant	-11.5385
▁robbed	-11.5385
▁silent	-11.5385
▁dawn	-11.5385
▁split	-11.5385
▁orphan	-11.5385
▁renovat	-11.5385
▁inequality	-11.5385
sharif	-11.5386
▁unclear	-11.5387
▁elaboration	-11.5388
ctbt	-11.5388
▁toxic	-11.5388
▁monuc	-11.5388
▁tiger	-11.5389
▁fiji	-11.5389
▁northeast	-11.539
▁irre	-11.5392
▁turnover	-11.5393
▁deprivation	-11.5393
▁illnesses	-11.54
▁hoping	-11.54
▁castle	-11.5402
▁donated	-11.5404
▁60%	-11.5409
▁parade	-11.5423
▁kuan	-11.5446
departmental	-11.545
active	-11.55
course	-11.5527
waiting	-11.5529
driven	-11.5534
paid	-11.5545
▁enact	-11.5554
900000000	-11.5562
grade	-11.5565
▁1965	-11.557
▁postpone	-11.5571
▁concur	-11.5592
circuit	-11.5594
▁abundant	-11.5594
▁ambitious	-11.5594
▁automobile	-11.5594
▁cumulative	-11.5594
▁cyclone	-11.5594
▁disturbance	-11.5594
▁doctrine	-11.5594
▁hussein	-11.5594
▁kinshasa	-11.5594
▁motorcycle	-11.5594
▁stabilization	-11.5594
▁stanley	-11.5594
▁sydney	-11.5594
▁terrible	-11.5594
▁timber	-11.5594
▁unreasonable	-11.5594
▁unwilling	-11.5594
▁valuation	-11.5594
▁embodie	-11.5594
▁ghana	-11.5594
▁okay	-11.5594
decentralization	-11.5594
▁interchange	-11.5594
▁navy	-11.5594
▁levy	-11.5594
▁retraining	-11.5594
▁lpg	-11.5594
▁shelf	-11.5594
▁mature	-11.5594
▁giant	-11.5594
▁lantern	-11.5594
▁architecture	-11.5594
▁golf	-11.5594
▁kids	-11.5596
▁occurring	-11.5597
▁overlap	-11.5599
▁tighten	-11.56
▁jury	-11.56
▁trick	-11.56
▁forestry	-11.56
▁shih	-11.5605
▁stir	-11.561
▁recipient	-11.5612
▁barrier	-11.5612
▁chop	-11.5624
▁faithful	-11.5714
sheung	-11.5719
graduate	-11.5746
amendment	-11.5747
system	-11.5747
judicial	-11.5747
▁occupy	-11.5748
style	-11.5755
▁calculat	-11.5763
▁impede	-11.5767
talling	-11.5786
▁fortunate	-11.5787
▁bamboo	-11.5806
▁cancellation	-11.5806
▁frankfurt	-11.5806
▁honduras	-11.5806
▁invoke	-11.5806
▁madrid	-11.5806
▁ombudsman	-11.5806
▁stakeholders	-11.5806
▁unfounded	-11.5806
▁verdict	-11.5806
▁compelled	-11.5806
▁procurator	-11.5806
▁funeral	-11.5806
▁poppy	-11.5806
▁disney	-11.5806
▁uneven	-11.5806
▁overnight	-11.5806
▁algeria	-11.5806
▁mosque	-11.5807
▁grey	-11.5807
▁youngsters	-11.5807
▁arose	-11.5807
▁conform	-11.5807
▁unstable	-11.5807
▁plum	-11.5808
▁plot	-11.5808
▁compact	-11.5808
▁neighbourhood	-11.5808
▁accumulation	-11.5808
▁judg	-11.5809
zhen	-11.581
▁solar	-11.581
▁hydro	-11.581
▁settlers	-11.581
▁elite	-11.5812
▁firemen	-11.5818
▁colleague	-11.583
▁devise	-11.5833
▁bun	-11.5861
▁qian	-11.5952
effectiveness	-11.5968
▁restrain	-11.6005
spot	-11.6008
▁0.4	-11.6019
▁desert	-11.6024
▁aggressive	-11.6024
▁appraisal	-11.6024
▁buddhist	-11.6024
▁default	-11.6024
▁defining	-11.6024
▁deputies	-11.6024
▁disparities	-11.6024
▁fertilizer	-11.6024
▁knock	-11.6024
▁mediterranean	-11.6024
▁merchant	-11.6024
▁ottawa	-11.6024
▁pragmatic	-11.6024
▁prostitute	-11.6024
▁scrutiny	-11.6024
▁senegal	-11.6024
▁theoretical	-11.6024
▁aborigin	-11.6024
▁economist	-11.6024
▁ethical	-11.6024
hearted	-11.6024
▁descend	-11.6024
▁cinema	-11.6024
▁drift	-11.6024
▁withdrew	-11.6024
▁bidding	-11.6024
▁random	-11.6024
▁dictat	-11.6024
▁fellowship	-11.6025
▁pirated	-11.6025
▁enrol	-11.6026
▁offshore	-11.6027
▁desk	-11.6028
▁revolutionary	-11.6029
▁benin	-11.6029
▁consul	-11.6029
▁depositary	-11.6031
▁tenure	-11.6033
▁fax	-11.6034
▁finger	-11.6035
▁mentality	-11.6036
dustrialization	-11.604
▁pact	-11.6045
▁seeds	-11.6048
▁campus	-11.605
▁servant	-11.6052
▁sahara	-11.6066
9%	-11.6074
▁striv	-11.6081
▁featur	-11.6082
▁conserv	-11.6098
terrorist	-11.6186
▁execut	-11.6201
▁exclude	-11.6223
mitted	-11.6236
▁coffee	-11.6246
▁conspiracy	-11.6246
▁continuity	-11.6246
▁definitive	-11.6246
▁extremist	-11.6246
▁fifty	-11.6246
▁flourish	-11.6246
▁gallery	-11.6246
▁jamahiriya	-11.6246
▁patience	-11.6246
▁ratify	-11.6246
▁securing	-11.6246
▁fierce	-11.6246
▁landfill	-11.6246
▁termination	-11.6246
▁sweet	-11.6246
▁affirmative	-11.6247
▁telecom	-11.6248
▁afore	-11.6248
▁revert	-11.6248
▁tense	-11.6249
▁idf	-11.625
▁disruption	-11.6251
▁drain	-11.6251
▁loose	-11.6252
▁sharon	-11.6252
▁echo	-11.6254
▁mask	-11.6255
▁bias	-11.6257
▁0.3	-11.6259
▁bless	-11.6261
▁90%	-11.6261
▁cruel	-11.6284
▁remov	-11.6299
4.5	-11.6369
cutting	-11.6413
generation	-11.6413
wood	-11.6414
▁accomplish	-11.6432
▁libya	-11.6463
▁academia	-11.6473
▁antibiotic	-11.6473
▁apparatus	-11.6473
▁cocaine	-11.6473
▁countermeasures	-11.6473
▁criterion	-11.6473
▁dissatisfied	-11.6473
▁excited	-11.6473
▁guerrilla	-11.6473
▁ingredient	-11.6473
▁instalment	-11.6473
▁kuomintang	-11.6473
▁macroeconomic	-11.6473
▁mitigate	-11.6473
▁pandemic	-11.6473
▁proposing	-11.6473
▁receivable	-11.6473
▁whatsoever	-11.6473
▁cantonese	-11.6473
▁module	-11.6473
▁thirty	-11.6473
▁solemn	-11.6473
▁malta	-11.6473
▁compiled	-11.6473
▁inquiries	-11.6473
▁racist	-11.6473
officio	-11.6473
▁recycling	-11.6474
▁championship	-11.6474
gress	-11.6474
▁edward	-11.6475
▁consulate	-11.6476
▁optimism	-11.6476
▁burned	-11.6476
▁erode	-11.6477
kuang	-11.6537
▁forcibl	-11.6543
hsiung	-11.6545
▁install	-11.6588
productive	-11.6639
parent	-11.6645
compliance	-11.6646
japanese	-11.6646
africa	-11.6647
office	-11.6647
▁consequent	-11.6687
▁advisor	-11.6696
▁migrat	-11.6703
contaminated	-11.6706
▁artificial	-11.6706
▁coexistence	-11.6706
▁commensurate	-11.6706
▁destructive	-11.6706
▁distress	-11.6706
▁djibouti	-11.6706
▁enshrine	-11.6706
▁erosion	-11.6706
▁francisco	-11.6706
▁gentlemen	-11.6706
▁incompatible	-11.6706
▁invalid	-11.6706
▁invaluable	-11.6706
▁jewish	-11.6706
▁medication	-11.6706
▁ordnance	-11.6706
▁qualify	-11.6706
▁reservoir	-11.6706
▁rigorous	-11.6706
▁applaud	-11.6706
▁literary	-11.6706
▁repression	-11.6706
▁babies	-11.6706
▁indices	-11.6706
▁parameters	-11.6706
▁garment	-11.6706
▁pretty	-11.6706
▁urging	-11.6706
▁aftermath	-11.6706
▁hatred	-11.6706
▁martyr	-11.6706
▁slack	-11.6706
▁uncertainties	-11.6706
▁diplomats	-11.6707
▁trapped	-11.6707
▁enrolled	-11.6707
▁wholly	-11.6707
▁armour	-11.6708
▁confession	-11.6708
▁quest	-11.6709
▁interrogation	-11.6709
▁frontier	-11.671
▁mood	-11.671
▁laden	-11.671
life	-11.6792
▁congratulat	-11.6819
60000000	-11.6876
represented	-11.6884
▁squa	-11.6917
▁rehabilitat	-11.694
▁blueprint	-11.6944
▁brussels	-11.6944
▁cherish	-11.6944
▁conciliation	-11.6944
▁contamination	-11.6944
▁convergence	-11.6944
▁hemisphere	-11.6944
▁imagination	-11.6944
▁impressed	-11.6944
▁mercenaries	-11.6944
▁physician	-11.6944
▁puppet	-11.6944
▁solomon	-11.6944
▁surrounded	-11.6944
▁trousers	-11.6944
▁grasp	-11.6944
▁copper	-11.6944
▁forefront	-11.6944
consuming	-11.6944
▁shortened	-11.6944
▁feedback	-11.6944
▁preamb	-11.6945
▁blockade	-11.6946
▁varies	-11.6947
▁legend	-11.6947
▁obstruction	-11.6947
▁flash	-11.6948
▁faso	-11.6949
assuming	-11.6961
▁bret	-11.6963
loving	-11.6964
seat	-11.6981
▁offender	-11.6993
chuen	-11.6997
▁yo	-11.7015
▁tube	-11.7021
funded	-11.7049
▁outreach	-11.7062
felt	-11.7128
▁envisage	-11.7165
▁inhabit	-11.7187
▁aggressor	-11.7188
▁botswana	-11.7188
▁compassion	-11.7188
▁complementarity	-11.7188
▁controversial	-11.7188
▁dictatorship	-11.7188
▁dissatisfaction	-11.7188
▁diversified	-11.7188
▁generator	-11.7188
▁gravity	-11.7188
▁happiness	-11.7188
▁istanbul	-11.7188
▁koizumi	-11.7188
▁laboratories	-11.7188
▁liabilities	-11.7188
▁mitigation	-11.7188
▁philateli	-11.7188
▁renminbi	-11.7188
▁residual	-11.7188
▁sarajevo	-11.7188
▁vacuum	-11.7188
▁midnight	-11.7188
▁carbon	-11.7188
▁eager	-11.7188
▁settling	-11.7188
▁buried	-11.7188
▁tibet	-11.7188
▁visibility	-11.7188
▁cattle	-11.7189
▁liais	-11.719
▁sunny	-11.7191
▁pump	-11.7193
▁utter	-11.7193
▁miles	-11.7194
▁flor	-11.7199
2.2	-11.7316
space	-11.7378
evaluation	-11.7378
developed	-11.7378
▁detain	-11.7399
▁abducted	-11.7438
▁abstract	-11.7438
▁accreditation	-11.7438
▁advancing	-11.7438
▁analyze	-11.7438
▁behavior	-11.7438
▁catalogue	-11.7438
▁clinton	-11.7438
▁deterrence	-11.7438
▁dilemma	-11.7438
▁emirates	-11.7438
▁exciting	-11.7438
▁frozen	-11.7438
▁homosexual	-11.7438
▁impasse	-11.7438
▁incursion	-11.7438
▁inequalities	-11.7438
▁litigation	-11.7438
▁millimetres	-11.7438
▁necessitat	-11.7438
▁predominant	-11.7438
▁provocati	-11.7438
▁rostrum	-11.7438
▁simplified	-11.7438
▁slovenia	-11.7438
▁tokelau	-11.7438
▁unprofor	-11.7438
▁variable	-11.7438
▁enlighten	-11.7438
▁forfeit	-11.7438
▁tribal	-11.7438
▁polish	-11.7438
▁zheng	-11.7438
▁sword	-11.7438
▁travellers	-11.7438
▁depot	-11.7438
finite	-11.7438
▁berlin	-11.7438
▁grace	-11.7439
▁multicultural	-11.7439
▁pricing	-11.7439
▁zhong	-11.7439
▁plaza	-11.7439
▁managerial	-11.744
▁mapping	-11.7441
▁shiite	-11.7442
▁plea	-11.7445
dumping	-11.7488
▁technique	-11.75
▁trustees	-11.7541
▁recogniz	-11.7548
▁kof	-11.7582
2001	-11.7593
▁constitut	-11.7631
processing	-11.7635
value	-11.7639
▁circulat	-11.7651
▁allege	-11.7677
▁disintegrat	-11.7694
▁applause	-11.7694
▁blanket	-11.7694
▁communiqu	-11.7694
▁credentials	-11.7694
▁demolish	-11.7694
▁denounce	-11.7694
▁diabetes	-11.7694
▁discourage	-11.7694
▁expedite	-11.7694
▁footwear	-11.7694
▁ghost	-11.7694
▁immunization	-11.7694
▁kisangani	-11.7694
▁leather	-11.7694
▁memories	-11.7694
▁plenty	-11.7694
▁pneumonia	-11.7694
▁propaganda	-11.7694
▁scattered	-11.7694
▁stabilize	-11.7694
▁vaccination	-11.7694
▁cctv	-11.7694
▁concurrently	-11.7694
▁residing	-11.7694
▁charity	-11.7694
▁pioneer	-11.7694
▁queries	-11.7694
▁dutch	-11.7694
▁oecd	-11.7694
▁counsellor	-11.7694
▁bread	-11.7694
▁regain	-11.7694
▁senate	-11.7694
▁stockpile	-11.7694
▁biotechnology	-11.7694
▁ancestr	-11.7694
▁rotation	-11.7694
▁dragg	-11.7695
▁conceptual	-11.7695
▁shrink	-11.7695
▁emanat	-11.7712
cultural	-11.7897
chinese	-11.7898
bearing	-11.7898
▁locate	-11.7935
treated	-11.7939
▁revise	-11.7946
▁contradict	-11.7953
▁argentine	-11.7957
▁compatible	-11.7957
▁compatriots	-11.7957
▁culminate	-11.7957
▁demolition	-11.7957
▁earmarked	-11.7957
▁enlargement	-11.7957
▁exploring	-11.7957
▁foodstuffs	-11.7957
▁inspired	-11.7957
▁legacy	-11.7957
▁liquor	-11.7957
▁logistical	-11.7957
▁mutilation	-11.7957
▁overcrowding	-11.7957
▁participatory	-11.7957
▁rigid	-11.7957
▁stomach	-11.7957
▁substituting	-11.7957
▁twentieth	-11.7957
▁unhappy	-11.7957
▁unomig	-11.7957
▁vigilant	-11.7957
▁wheat	-11.7957
▁addiction	-11.7957
▁vacation	-11.7957
▁flew	-11.7957
▁vendor	-11.7957
▁plunge	-11.7957
▁brown	-11.7957
▁looting	-11.7957
▁bacteria	-11.7958
▁shuttle	-11.7958
recycl	-11.7958
▁(5)	-11.7958
▁dividend	-11.7958
▁tuition	-11.7959
▁hsieh	-11.796
interrupted	-11.7971
▁scholar	-11.8033
▁violat	-11.8085
storey	-11.8118
ammed	-11.8145
▁geographic	-11.8164
control	-11.8167
regulation	-11.8168
efficient	-11.8168
hksar	-11.8168
▁disappear	-11.8186
▁anticipate	-11.8205
▁obstruct	-11.8224
▁cyber	-11.8227
▁synthe	-11.8228
▁anxiety	-11.8228
▁apartheid	-11.8228
▁captain	-11.8228
▁consignment	-11.8228
▁cubic	-11.8228
▁evacuated	-11.8228
▁gibraltar	-11.8228
▁graduation	-11.8228
▁homicide	-11.8228
▁injustice	-11.8228
▁majesty	-11.8228
▁rainstorm	-11.8228
▁rubber	-11.8228
▁script	-11.8228
▁striking	-11.8228
▁wireless	-11.8228
▁ambush	-11.8228
▁triumph	-11.8228
▁zhao	-11.8228
▁digest	-11.8228
▁interface	-11.8228
▁archives	-11.8228
▁tribes	-11.8228
▁heaven	-11.8228
▁noodle	-11.8228
▁cyberport	-11.8228
▁gambia	-11.8228
▁steal	-11.8228
▁icrc	-11.8228
▁samoa	-11.8229
▁hiding	-11.8229
abiding	-11.8229
chancellor	-11.8229
▁discs	-11.8232
therapy	-11.825
▁discriminate	-11.8258
resistant	-11.8263
▁dominate	-11.8283
▁oppos	-11.8383
appointed	-11.8444
congolese	-11.8446
which	-11.8446
▁victor	-11.8464
▁infrastructur	-11.8472
▁convince	-11.8483
▁interrogat	-11.8501
ographic	-11.8505
adequacy	-11.8505
subscription	-11.8505
▁ancestor	-11.8505
▁apologize	-11.8505
▁apparel	-11.8505
▁armaments	-11.8505
▁bicycle	-11.8505
▁democracies	-11.8505
▁despair	-11.8505
▁dioxide	-11.8505
▁metropoli	-11.8505
▁qualitative	-11.8505
▁reimbursed	-11.8505
▁savimbi	-11.8505
▁spontaneous	-11.8505
▁tianjin	-11.8505
▁zhejiang	-11.8505
▁deduction	-11.8505
▁gesture	-11.8505
▁goodwill	-11.8505
▁modified	-11.8505
▁rifle	-11.8505
▁untaet	-11.8505
▁widow	-11.8505
▁interpol	-11.8505
esteem	-11.8505
▁unfold	-11.8505
▁verified	-11.8506
▁acclaim	-11.8506
▁sincerity	-11.8506
▁pitch	-11.8506
▁alumin	-11.8506
▁conferr	-11.8506
▁guesthouse	-11.8506
▁grassroots	-11.8506
▁wives	-11.8506
▁dense	-11.8506
▁festiv	-11.8508
▁aspiration	-11.8597
▁cooperat	-11.867
present	-11.8725
prince	-11.8731
examine	-11.8731
tribution	-11.8765
▁investigati	-11.8788
▁diploma	-11.8788
▁entertain	-11.8788
▁horizon	-11.8791
▁cordial	-11.8791
▁diagnose	-11.8791
▁hawker	-11.8791
▁improper	-11.8791
▁intermediate	-11.8791
▁loophole	-11.8791
▁mandarin	-11.8791
▁mercenary	-11.8791
▁nuisance	-11.8791
▁presiding	-11.8791
▁proximity	-11.8791
▁putonghua	-11.8791
▁smuggle	-11.8791
▁speculative	-11.8791
▁statue	-11.8791
▁surpass	-11.8791
▁unconscious	-11.8791
▁unrealistic	-11.8791
▁bubble	-11.8791
▁credible	-11.8791
▁headache	-11.8791
▁refresh	-11.8791
▁stroke	-11.8791
▁szeto	-11.8791
▁undeniabl	-11.8791
▁virgin	-11.8791
▁reliability	-11.8791
▁unifil	-11.8791
▁violin	-11.8791
▁zedong	-11.8791
▁nightmare	-11.8791
▁activist	-11.8791
▁invisible	-11.8791
▁restoring	-11.8791
▁updating	-11.8792
▁kitchen	-11.8792
▁yong	-11.8793
▁exile	-11.8807
▁deadlock	-11.881
4,000	-11.8873
▁participant	-11.8891
regional	-11.9024
israeli	-11.9026
finance	-11.9026
front	-11.9029
dominated	-11.9029
large	-11.9031
▁villa	-11.9073
misunderstanding	-11.9085
▁abduction	-11.9085
▁bachelor	-11.9085
▁barbados	-11.9085
▁buddha	-11.9085
▁circular	-11.9085
▁corporal	-11.9085
▁deception	-11.9085
▁decreasing	-11.9085
▁depreciation	-11.9085
▁desperate	-11.9085
▁fissile	-11.9085
▁impediment	-11.9085
▁kabila	-11.9085
▁merchandise	-11.9085
▁miracle	-11.9085
▁newsletter	-11.9085
▁reinforcing	-11.9085
▁stockpiling	-11.9085
▁technician	-11.9085
▁ventilation	-11.9085
▁compilation	-11.9085
▁formidable	-11.9085
▁overthrow	-11.9085
▁straw	-11.9085
▁problematic	-11.9085
▁constable	-11.9085
ease	-11.9093
rink	-11.9134
▁unrest	-11.9158
▁constraint	-11.9194
▁replac	-11.9314
quality	-11.9326
interest	-11.9328
management	-11.9329
affected	-11.9329
▁eradicat	-11.9336
▁obligat	-11.9384
▁corrupt	-11.9384
▁altitude	-11.9388
▁calligraphy	-11.9388
▁celebrating	-11.9388
▁coherence	-11.9388
▁columbia	-11.9388
▁divoire	-11.9388
▁episode	-11.9388
▁farewell	-11.9388
▁infringement	-11.9388
▁nurture	-11.9388
▁ozone	-11.9388
▁reluctant	-11.9388
▁responsive	-11.9388
▁resurgence	-11.9388
▁secrecy	-11.9388
▁sporadic	-11.9388
▁unmibh	-11.9388
▁xenophobia	-11.9388
▁charles	-11.9388
▁malawi	-11.9388
▁tentative	-11.9388
▁assemblies	-11.9388
▁rival	-11.9388
▁discard	-11.9388
▁jenin	-11.9388
▁(1999)	-11.9388
▁distant	-11.9388
▁looted	-11.9388
▁steep	-11.9388
▁traffickers	-11.9389
▁tennis	-11.9389
▁tailor	-11.9389
▁admire	-11.9389
▁foregoing	-11.9389
▁insured	-11.9389
▁guess	-11.939
▁analog	-11.9394
habitat	-11.9641
credit	-11.965
▁retreat	-11.9652
▁retire	-11.9675
▁equip	-11.9697
▁modify	-11.9701
▁abstention	-11.9701
▁afflict	-11.9701
▁aforesaid	-11.9701
▁analytical	-11.9701
▁biodiversity	-11.9701
▁collision	-11.9701
▁contravene	-11.9701
▁discontent	-11.9701
▁discontinu	-11.9701
▁ecomog	-11.9701
▁forbidden	-11.9701
▁identifies	-11.9701
▁jockey	-11.9701
▁nervous	-11.9701
▁preclude	-11.9701
▁preferential	-11.9701
▁prescription	-11.9701
▁reconsider	-11.9701
▁renounce	-11.9701
▁rhetoric	-11.9701
▁susceptible	-11.9701
▁turtle	-11.9701
▁unfavourable	-11.9701
▁banquet	-11.9701
▁clarity	-11.9701
▁holistic	-11.9701
▁gabon	-11.9701
▁portray	-11.9701
▁nursing	-11.9701
▁queensway	-11.9701
▁astonish	-11.9701
▁repeal	-11.9701
▁siege	-11.9701
▁rowse	-11.9701
▁hello	-11.9702
▁outrage	-11.9703
▁refute	-11.9703
afcd	-11.9703
digit	-11.9705
▁narcotic	-11.9829
5.5	-11.9881
seung	-11.9901
occupied	-11.9964
traditional	-11.9964
executive	-11.9964
growing	-11.9964
grading	-11.9965
▁paramilitar	-11.9969
▁rwand	-12.0013
▁uncle	-12.0021
▁accompli	-12.0022
▁invoice	-12.0023
qaeda	-12.0023
▁aberdeen	-12.0023
▁anybody	-12.0023
▁bermuda	-12.0023
▁bethlehem	-12.0023
▁blatant	-12.0023
▁categorical	-12.0023
▁delicate	-12.0023
▁demarcation	-12.0023
▁demonstrating	-12.0023
▁devastation	-12.0023
▁expatriate	-12.0023
▁expulsion	-12.0023
▁inspiration	-12.0023
▁marshall	-12.0023
▁memorial	-12.0023
▁pitcairn	-12.0023
▁revitalization	-12.0023
▁signatory	-12.0023
▁taxpayers	-12.0023
▁underestimate	-12.0023
▁undesirable	-12.0023
▁unequivocal	-12.0023
▁unresolved	-12.0023
▁unsatisfactory	-12.0023
▁unsuccessful	-12.0023
▁xinjiang	-12.0023
▁depression	-12.0023
▁seoul	-12.0023
▁yeoh	-12.0023
▁scandal	-12.0023
▁unjust	-12.0023
▁sorrow	-12.0023
▁complications	-12.0023
▁compartment	-12.0023
equities	-12.0023
▁disarm	-12.0024
negotia	-12.0024
▁unconditional	-12.0024
▁seabed	-12.0024
▁belize	-12.0024
▁knee	-12.0026
▁simulat	-12.0084
▁refund	-12.0131
▁philippine	-12.0163
▁declar	-12.0226
western	-12.0297
disproportionate	-12.0344
▁accredited	-12.0357
▁brahimi	-12.0357
▁chongqing	-12.0357
▁convoy	-12.0357
▁deplorable	-12.0357
▁discern	-12.0357
▁dismantle	-12.0357
▁fraudulent	-12.0357
▁fugitive	-12.0357
▁furnish	-12.0357
▁influential	-12.0357
▁reluctance	-12.0357
▁sampling	-12.0357
▁streamlining	-12.0357
▁sulphur	-12.0357
▁sunshine	-12.0357
▁thomas	-12.0357
▁ukrainian	-12.0357
▁vibrant	-12.0357
▁abnormal	-12.0357
▁caledonia	-12.0357
▁coherent	-12.0357
▁dispens	-12.0357
▁flavor	-12.0357
▁hakka	-12.0357
▁luncheon	-12.0357
column	-12.0357
▁daunting	-12.0357
▁vague	-12.0357
▁crystal	-12.0357
enforcing	-12.0357
▁horizontal	-12.0357
▁renowned	-12.0357
▁iceland	-12.0357
▁throughput	-12.0357
▁deported	-12.0357
▁radar	-12.0357
▁queue	-12.0357
entrepreneurship	-12.0357
▁unmee	-12.0357
▁choy	-12.0357
jacket	-12.0357
▁heroic	-12.0357
▁cleric	-12.0358
▁aspire	-12.0362
▁eligib	-12.0362
breaking	-12.0464
6.6	-12.0533
laughter	-12.0544
1.2%	-12.0628
standard	-12.0642
qualified	-12.0642
business	-12.0642
amount	-12.0643
authorized	-12.0657
▁deteriorate	-12.0679
▁attribute	-12.0679
communal	-12.0702
▁architectural	-12.0702
▁beneficiary	-12.0702
▁blossom	-12.0702
▁bombardment	-12.0702
▁choosing	-12.0702
▁complacent	-12.0702
▁conversation	-12.0702
▁describing	-12.0702
▁disastrous	-12.0702
▁disinfect	-12.0702
▁emphasizing	-12.0702
▁energetic	-12.0702
▁erected	-12.0702
▁identical	-12.0702
▁jewellery	-12.0702
▁lumpur	-12.0702
▁malicious	-12.0702
▁protracted	-12.0702
▁qualities	-12.0702
▁reconcile	-12.0702
▁recurrence	-12.0702
▁resentment	-12.0702
▁sandwich	-12.0702
▁semiconductor	-12.0702
▁sluggish	-12.0702
▁spectacular	-12.0702
▁subvented	-12.0702
▁umbrella	-12.0702
▁unequal	-12.0702
▁unifem	-12.0702
▁veteran	-12.0702
▁worthwhile	-12.0702
▁alternate	-12.0702
▁ceramic	-12.0702
▁cosmetic	-12.0702
▁custodia	-12.0702
▁privy	-12.0702
▁somebody	-12.0702
▁trillion	-12.0702
▁xiamen	-12.0702
▁cayman	-12.0702
▁mandela	-12.0702
▁muscle	-12.0702
▁bloodshed	-12.0702
▁vivid	-12.0702
▁naval	-12.0702
▁steam	-12.0702
▁complied	-12.0702
▁misery	-12.0702
▁revenge	-12.0702
▁maimed	-12.0702
▁hunting	-12.0702
▁foreseen	-12.0702
▁pretend	-12.0703
▁versa	-12.0705
▁elaborat	-12.079
▁deliberation	-12.0864
fledg	-12.0882
▁commenc	-12.0985
resident	-12.0992
structure	-12.0999
third	-12.0999
budget	-12.0999
money	-12.0999
▁nominate	-12.1036
▁corroborat	-12.1059
▁acquiring	-12.1059
▁articulat	-12.1059
▁bloom	-12.1059
▁cervical	-12.1059
▁consistency	-12.1059
▁consortium	-12.1059
▁constrained	-12.1059
▁contraceptive	-12.1059
▁demilitarized	-12.1059
▁diligent	-12.1059
▁electorate	-12.1059
▁essay	-12.1059
▁facilitation	-12.1059
▁falkland	-12.1059
▁fatigue	-12.1059
▁fracture	-12.1059
▁frighten	-12.1059
▁genital	-12.1059
▁grenade	-12.1059
▁immunities	-12.1059
▁incorrect	-12.1059
▁indifferent	-12.1059
▁kyoto	-12.1059
▁mercury	-12.1059
▁moldova	-12.1059
▁occupants	-12.1059
▁pamphlet	-12.1059
▁privatized	-12.1059
▁quarrel	-12.1059
▁reciprocal	-12.1059
▁santiago	-12.1059
▁sculpture	-12.1059
▁seldom	-12.1059
▁sensitivity	-12.1059
▁stalemate	-12.1059
▁unlicens	-12.1059
raught	-12.1059
▁deflation	-12.1059
▁pivot	-12.1059
▁poetry	-12.1059
▁shandong	-12.1059
▁tajik	-12.1059
▁inclined	-12.1059
▁angeles	-12.1059
▁harbor	-12.1059
▁meagre	-12.1059
▁compelling	-12.1059
▁shield	-12.1059
▁rthk	-12.1059
▁teeth	-12.1059
▁ravage	-12.1059
▁bonus	-12.1059
throat	-12.1059
brose	-12.1071
▁bridg	-12.1144
coloured	-12.121
terior	-12.122
▁introduc	-12.1293
piece	-12.1369
street	-12.1369
corruption	-12.1369
enforcement	-12.1369
▁confess	-12.1425
(	-13.4045
